{
  "version": "1.0",
  "truncation": null,
  "padding": null,
  "added_tokens": [
    {
      "id": 0,
      "content": "<pad>",
      "single_word": false,
      "lstrip": false,
      "rstrip": false,
      "normalized": false,
      "special": true
    },
    {
      "id": 1,
      "content": "<sos>",
      "single_word": false,
      "lstrip": false,
      "rstrip": false,
      "normalized": false,
      "special": true
    },
    {
      "id": 2,
      "content": "<eos>",
      "single_word": false,
      "lstrip": false,
      "rstrip": false,
      "normalized": false,
      "special": true
    },
    {
      "id": 3,
      "content": "<unk>",
      "single_word": false,
      "lstrip": false,
      "rstrip": false,
      "normalized": false,
      "special": true
    }
  ],
  "normalizer": null,
  "pre_tokenizer": {
    "type": "ByteLevel",
    "add_prefix_space": false,
    "trim_offsets": true,
    "use_regex": true
  },
  "post_processor": null,
  "decoder": {
    "type": "ByteLevel",
    "add_prefix_space": true,
    "trim_offsets": true,
    "use_regex": true
  },
  "model": {
    "type": "BPE",
    "dropout": null,
    "unk_token": "<unk>",
    "continuing_subword_prefix": null,
    "end_of_word_suffix": null,
    "fuse_unk": false,
    "byte_fallback": false,
    "ignore_merges": false,
    "vocab": {
      "<pad>": 0,
      "<sos>": 1,
      "<eos>": 2,
      "<unk>": 3,
      "!": 4,
      "\"": 5,
      "#": 6,
      "$": 7,
      "%": 8,
      "&": 9,
      "'": 10,
      "(": 11,
      ")": 12,
      "*": 13,
      "+": 14,
      ",": 15,
      "-": 16,
      ".": 17,
      "/": 18,
      "0": 19,
      "1": 20,
      "2": 21,
      "3": 22,
      "4": 23,
      "5": 24,
      "6": 25,
      "7": 26,
      "8": 27,
      "9": 28,
      ":": 29,
      ";": 30,
      "<": 31,
      "=": 32,
      ">": 33,
      "?": 34,
      "@": 35,
      "A": 36,
      "B": 37,
      "C": 38,
      "D": 39,
      "E": 40,
      "F": 41,
      "G": 42,
      "H": 43,
      "I": 44,
      "J": 45,
      "K": 46,
      "L": 47,
      "M": 48,
      "N": 49,
      "O": 50,
      "P": 51,
      "Q": 52,
      "R": 53,
      "S": 54,
      "T": 55,
      "U": 56,
      "V": 57,
      "W": 58,
      "X": 59,
      "Y": 60,
      "Z": 61,
      "[": 62,
      "\\": 63,
      "]": 64,
      "^": 65,
      "_": 66,
      "`": 67,
      "a": 68,
      "b": 69,
      "c": 70,
      "d": 71,
      "e": 72,
      "f": 73,
      "g": 74,
      "h": 75,
      "i": 76,
      "j": 77,
      "k": 78,
      "l": 79,
      "m": 80,
      "n": 81,
      "o": 82,
      "p": 83,
      "q": 84,
      "r": 85,
      "s": 86,
      "t": 87,
      "u": 88,
      "v": 89,
      "w": 90,
      "x": 91,
      "y": 92,
      "z": 93,
      "{": 94,
      "|": 95,
      "}": 96,
      "~": 97,
      "¡": 98,
      "¢": 99,
      "£": 100,
      "¤": 101,
      "¥": 102,
      "¦": 103,
      "§": 104,
      "¨": 105,
      "©": 106,
      "ª": 107,
      "«": 108,
      "¬": 109,
      "®": 110,
      "¯": 111,
      "°": 112,
      "±": 113,
      "²": 114,
      "³": 115,
      "´": 116,
      "µ": 117,
      "¶": 118,
      "·": 119,
      "¸": 120,
      "¹": 121,
      "º": 122,
      "»": 123,
      "¼": 124,
      "½": 125,
      "¾": 126,
      "¿": 127,
      "À": 128,
      "Á": 129,
      "Â": 130,
      "Ã": 131,
      "Ä": 132,
      "Å": 133,
      "Æ": 134,
      "Ç": 135,
      "È": 136,
      "É": 137,
      "Ê": 138,
      "Ë": 139,
      "Ì": 140,
      "Í": 141,
      "Î": 142,
      "Ï": 143,
      "Ð": 144,
      "Ñ": 145,
      "Ò": 146,
      "Ó": 147,
      "Ô": 148,
      "Õ": 149,
      "Ö": 150,
      "×": 151,
      "Ø": 152,
      "Ù": 153,
      "Ú": 154,
      "Û": 155,
      "Ü": 156,
      "Ý": 157,
      "Þ": 158,
      "ß": 159,
      "à": 160,
      "á": 161,
      "â": 162,
      "ã": 163,
      "ä": 164,
      "å": 165,
      "æ": 166,
      "ç": 167,
      "è": 168,
      "é": 169,
      "ê": 170,
      "ë": 171,
      "ì": 172,
      "í": 173,
      "î": 174,
      "ï": 175,
      "ð": 176,
      "ñ": 177,
      "ò": 178,
      "ó": 179,
      "ô": 180,
      "õ": 181,
      "ö": 182,
      "÷": 183,
      "ø": 184,
      "ù": 185,
      "ú": 186,
      "û": 187,
      "ü": 188,
      "ý": 189,
      "þ": 190,
      "ÿ": 191,
      "Ā": 192,
      "ā": 193,
      "Ă": 194,
      "ă": 195,
      "Ą": 196,
      "ą": 197,
      "Ć": 198,
      "ć": 199,
      "Ĉ": 200,
      "ĉ": 201,
      "Ċ": 202,
      "ċ": 203,
      "Č": 204,
      "č": 205,
      "Ď": 206,
      "ď": 207,
      "Đ": 208,
      "đ": 209,
      "Ē": 210,
      "ē": 211,
      "Ĕ": 212,
      "ĕ": 213,
      "Ė": 214,
      "ė": 215,
      "Ę": 216,
      "ę": 217,
      "Ě": 218,
      "ě": 219,
      "Ĝ": 220,
      "ĝ": 221,
      "Ğ": 222,
      "ğ": 223,
      "Ġ": 224,
      "ġ": 225,
      "Ģ": 226,
      "ģ": 227,
      "Ĥ": 228,
      "ĥ": 229,
      "Ħ": 230,
      "ħ": 231,
      "Ĩ": 232,
      "ĩ": 233,
      "Ī": 234,
      "ī": 235,
      "Ĭ": 236,
      "ĭ": 237,
      "Į": 238,
      "į": 239,
      "İ": 240,
      "ı": 241,
      "Ĳ": 242,
      "ĳ": 243,
      "Ĵ": 244,
      "ĵ": 245,
      "Ķ": 246,
      "ķ": 247,
      "ĸ": 248,
      "Ĺ": 249,
      "ĺ": 250,
      "Ļ": 251,
      "ļ": 252,
      "Ľ": 253,
      "ľ": 254,
      "Ŀ": 255,
      "ŀ": 256,
      "Ł": 257,
      "ł": 258,
      "Ń": 259,
      "in": 260,
      "en": 261,
      "er": 262,
      "ein": 263,
      "Ġein": 264,
      "ch": 265,
      "au": 266,
      "an": 267,
      "em": 268,
      "un": 269,
      "Ġs": 270,
      "Ein": 271,
      "ei": 272,
      "Ã¤": 273,
      "Ġd": 274,
      "ĠM": 275,
      "it": 276,
      "Ġeinem": 277,
      "el": 278,
      "Ġin": 279,
      "ĠS": 280,
      "und": 281,
      "Ġm": 282,
      "ĠF": 283,
      "Ġau": 284,
      "ge": 285,
      "Ġmit": 286,
      "ar": 287,
      "Ġauf": 288,
      "Ġund": 289,
      "Ã¼": 290,
      "ĠH": 291,
      "ann": 292,
      "ie": 293,
      "te": 294,
      "ĠMann": 295,
      "Ġb": 296,
      "ĠB": 297,
      "sch": 298,
      "on": 299,
      "st": 300,
      "rau": 301,
      "hr": 302,
      "Ġv": 303,
      "ÃŁ": 304,
      "Ġeiner": 305,
      "ĠK": 306,
      "wei": 307,
      "Ġi": 308,
      "Eine": 309,
      "ter": 310,
      "ten": 311,
      "as": 312,
      "ĠG": 313,
      "or": 314,
      "Ġh": 315,
      "al": 316,
      "tr": 317,
      "es": 318,
      "ĠFrau": 319,
      "ck": 320,
      "ĠP": 321,
      "and": 322,
      "gen": 323,
      "Ġder": 324,
      "Ġz": 325,
      "ich": 326,
      "Ġsch": 327,
      "ro": 328,
      "iel": 329,
      "Ġg": 330,
      "Ġeine": 331,
      "Ġk": 332,
      "ĠT": 333,
      "ĠMÃ¤": 334,
      "piel": 335,
      "Ġdie": 336,
      "am": 337,
      "Ġge": 338,
      "Ġeinen": 339,
      "Ġw": 340,
      "de": 341,
      "Ġan": 342,
      "ĠW": 343,
      "ht": 344,
      "gt": 345,
      "ben": 346,
      "Ġf": 347,
      "Ġl": 348,
      "Zwei": 349,
      "chen": 350,
      "ĠSch": 351,
      "Ġim": 352,
      "ĠJ": 353,
      "Ġzu": 354,
      "ind": 355,
      "itz": 356,
      "Ġste": 357,
      "ne": 358,
      "ers": 359,
      "ber": 360,
      "ĠR": 361,
      "hen": 362,
      "ung": 363,
      "rei": 364,
      "ft": 365,
      "ach": 366,
      "ier": 367,
      "Ġsitz": 368,
      "Ġvor": 369,
      "et": 370,
      "ĠL": 371,
      "all": 372,
      "Ġbl": 373,
      "Ġkl": 374,
      "ner": 375,
      "ÃŁen": 376,
      "ĠA": 377,
      "ĠStr": 378,
      "um": 379,
      "nen": 380,
      "at": 381,
      "Ġvon": 382,
      "unge": 383,
      "Ġsich": 384,
      "ur": 385,
      "Ã¤hr": 386,
      "Ġspiel": 387,
      "Ġklein": 388,
      "schen": 389,
      "Ã¤l": 390,
      "ad": 391,
      "dchen": 392,
      "Ġdem": 393,
      "pp": 394,
      "lei": 395,
      "il": 396,
      "ĠMÃ¤dchen": 397,
      "Ġschw": 398,
      "Ġro": 399,
      "ĠHund": 400,
      "ut": 401,
      "ĠGr": 402,
      "arz": 403,
      "ÃŁe": 404,
      "erson": 405,
      "ol": 406,
      "Ġwei": 407,
      "eu": 408,
      "sen": 409,
      "den": 410,
      "nner": 411,
      "ot": 412,
      "ĠKind": 413,
      "ĠPerson": 414,
      "ahr": 415,
      "Ġschwarz": 416,
      "Ġsteht": 417,
      "ĠGe": 418,
      "ĠSt": 419,
      "bei": 420,
      "ĠStra": 421,
      "ir": 422,
      "ppe": 423,
      "pr": 424,
      "Ġden": 425,
      "Ġblau": 426,
      "ĠMÃ¤nner": 427,
      "Ġtr": 428,
      "Ġsein": 429,
      "Ġsitzt": 430,
      "end": 431,
      "ander": 432,
      "Ġj": 433,
      "isch": 434,
      "Ã¶": 435,
      "Ã¼ber": 436,
      "fen": 437,
      "ass": 438,
      "men": 439,
      "ĠJunge": 440,
      "ger": 441,
      "Ã¤n": 442,
      "le": 443,
      "uppe": 444,
      "Ġbei": 445,
      "Ã¤lt": 446,
      "ik": 447,
      "ĠÃ¼ber": 448,
      "Ã¤u": 449,
      "ĠStraÃŁe": 450,
      "Ġbe": 451,
      "Ã¤hrend": 452,
      "ĠwÃ¤hrend": 453,
      "Ġr": 454,
      "enschen": 455,
      "ĠO": 456,
      "ball": 457,
      "ĠGruppe": 458,
      "der": 459,
      "rÃ¼": 460,
      "ĠhÃ¤lt": 461,
      "emd": 462,
      "Ġihr": 463,
      "Ġspielt": 464,
      "unter": 465,
      "se": 466,
      "tet": 467,
      "Ġaus": 468,
      "ĠE": 469,
      "ĠHemd": 470,
      "ĠZ": 471,
      "Ġspr": 472,
      "cke": 473,
      "ĠMenschen": 474,
      "Ġne": 475,
      "Ġn": 476,
      "ang": 477,
      "acht": 478,
      "ent": 479,
      "Ã¼r": 480,
      "Ġdas": 481,
      "inter": 482,
      "Ġum": 483,
      "ehr": 484,
      "leid": 485,
      "pf": 486,
      "Ġander": 487,
      "ĠPersonen": 488,
      "ĠD": 489,
      "aar": 490,
      "eil": 491,
      "Ġeines": 492,
      "ĠWass": 493,
      "be": 494,
      "Ġneben": 495,
      "ingt": 496,
      "im": 497,
      "urch": 498,
      "re": 499,
      "ĠWasser": 500,
      "Ġstehen": 501,
      "Ġblauen": 502,
      "Ġam": 503,
      "ĠN": 504,
      "Ġdurch": 505,
      "ell": 506,
      "Ġgro": 507,
      "Ġist": 508,
      "is": 509,
      "rad": 510,
      "Ã¤gt": 511,
      "ĠFrauen": 512,
      "Ġroten": 513,
      "ĠweiÃŁen": 514,
      "Ġsitzen": 515,
      "eg": 516,
      "hn": 517,
      "la": 518,
      "Ġspielen": 519,
      "he": 520,
      "Ġent": 521,
      "ern": 522,
      "lich": 523,
      "arben": 524,
      "Drei": 525,
      "Ġp": 526,
      "ab": 527,
      "Ã¤hrt": 528,
      "Ġver": 529,
      "us": 530,
      "iert": 531,
      "gr": 532,
      "ĠHand": 533,
      "Ġgeht": 534,
      "icht": 535,
      "ĠtrÃ¤gt": 536,
      "elt": 537,
      "bo": 538,
      "ĠfÃ¤hrt": 539,
      "af": 540,
      "kt": 541,
      "ĠgrÃ¼": 542,
      "teil": 543,
      "ckt": 544,
      "ĠFahr": 545,
      "Ġgel": 546,
      "eln": 547,
      "cken": 548,
      "fer": 549,
      "Ġbrau": 550,
      "ĠKleid": 551,
      "Ġunter": 552,
      "ĠV": 553,
      "Ġschau": 554,
      "ĠBo": 555,
      "ĠOber": 556,
      "Ġkleines": 557,
      "imm": 558,
      "os": 559,
      "Ġmacht": 560,
      "ug": 561,
      "Ġentl": 562,
      "och": 563,
      "Ġspringt": 564,
      "Ġentlang": 565,
      "ĠKinder": 566,
      "Ġzwei": 567,
      "anz": 568,
      "enn": 569,
      "igen": 570,
      "arbei": 571,
      "Ġjunge": 572,
      "Ġkleiner": 573,
      "Ġschwarzen": 574,
      "agen": 575,
      "ungen": 576,
      "ĠweiÃŁ": 577,
      "Ã¤ch": 578,
      "uch": 579,
      "eute": 580,
      "ehrer": 581,
      "ĠSpiel": 582,
      "ĠC": 583,
      "spiel": 584,
      "auf": 585,
      "ĠKo": 586,
      "ĠHo": 587,
      "uÃŁ": 588,
      "Ġgehen": 589,
      "klei": 590,
      "ĠFel": 591,
      "ischen": 592,
      "est": 593,
      "ril": 594,
      "ange": 595,
      "Ġher": 596,
      "gel": 597,
      "kleide": 598,
      "bÃ¤u": 599,
      "om": 600,
      "Ã¤lter": 601,
      "ler": 602,
      "ĠU": 603,
      "ig": 604,
      "ige": 605,
      "Ġsie": 606,
      "ĠBl": 607,
      "alten": 608,
      "ĠFahrrad": 609,
      "Ġet": 610,
      "ĠAr": 611,
      "was": 612,
      "hl": 613,
      "ĠOberteil": 614,
      "ĠSk": 615,
      "irt": 616,
      "Ġetwas": 617,
      "fahr": 618,
      "ĠÃ¤lter": 619,
      "Ġwir": 620,
      "Ġt": 621,
      "ehrere": 622,
      "Ġseinem": 623,
      "ĠBall": 624,
      "farben": 625,
      "hirt": 626,
      "Ġlie": 627,
      "eit": 628,
      "ul": 629,
      "Ġhin": 630,
      "ĠgroÃŁen": 631,
      "uft": 632,
      "acke": 633,
      "ĠFuÃŁ": 634,
      "nee": 635,
      "ieren": 636,
      "grund": 637,
      "rille": 638,
      "ĠGebÃ¤u": 639,
      "Ġgekleide": 640,
      "ark": 641,
      "zeu": 642,
      "Ġor": 643,
      "ĠHinter": 644,
      "ĠFrei": 645,
      "Ġvers": 646,
      "bt": 647,
      "Ġer": 648,
      "ĠKam": 649,
      "ort": 650,
      "ild": 651,
      "ĠLuft": 652,
      "boar": 653,
      "Ã¤uft": 654,
      "bl": 655,
      "sam": 656,
      "ĠgrÃ¼nen": 657,
      "Mehrere": 658,
      "ĠStrand": 659,
      "Ġst": 660,
      "Ġo": 661,
      "Der": 662,
      "era": 663,
      "ĠTr": 664,
      "weg": 665,
      "ĠlÃ¤uft": 666,
      "Ġal": 667,
      "aufen": 668,
      "Ġsind": 669,
      "ĠlÃ¤ch": 670,
      "zen": 671,
      "ate": 672,
      "Ã¶r": 673,
      "ĠfÃ¼r": 674,
      "ĠHintergrund": 675,
      "ĠBau": 676,
      "Ġda": 677,
      "ĠBas": 678,
      "Ġhinter": 679,
      "Ġnach": 680,
      "ze": 681,
      "Ġhat": 682,
      "Ġarbei": 683,
      "ĠJacke": 684,
      "ĠFreien": 685,
      "ĠLeute": 686,
      "ĠJungen": 687,
      "Ġanderen": 688,
      "oto": 689,
      "ĠKleidung": 690,
      "ster": 691,
      "unger": 692,
      "Ġschaut": 693,
      "ant": 694,
      "Die": 695,
      "ett": 696,
      "zeug": 697,
      "det": 698,
      "spieler": 699,
      "ĠKopf": 700,
      "Ġvorbei": 701,
      "âĢ": 702,
      "Ġjunger": 703,
      "Ġhoch": 704,
      "Ã¤ft": 705,
      "ĠSp": 706,
      "ĠSchw": 707,
      "ĠSchnee": 708,
      "ag": 709,
      "ĠTisch": 710,
      "Ã¼t": 711,
      "ank": 712,
      "ĠHaar": 713,
      "lat": 714,
      "Ã¼n": 715,
      "schau": 716,
      "aus": 717,
      "Shirt": 718,
      "ow": 719,
      "achen": 720,
      "ĠFl": 721,
      "ĠSon": 722,
      "menge": 723,
      "Ġandere": 724,
      "angen": 725,
      "Ġgelben": 726,
      "Ã¼hr": 727,
      "Ġrot": 728,
      "ĠNÃ¤": 729,
      "itar": 730,
      "fon": 731,
      "sche": 732,
      "ans": 733,
      "ĠBÃ¼": 734,
      "Ġih": 735,
      "ĠGebÃ¤ude": 736,
      "board": 737,
      "hne": 738,
      "ĠHut": 739,
      "umen": 740,
      "Ġorange": 741,
      "unk": 742,
      "ennen": 743,
      "ĠAn": 744,
      "stÃ¼": 745,
      "ack": 746,
      "Ġwird": 747,
      "ap": 748,
      "fahrer": 749,
      "ing": 750,
      "ĠGras": 751,
      "ĠNÃ¤he": 752,
      "ele": 753,
      "iat": 754,
      "ĠFuÃŁball": 755,
      "iger": 756,
      "Ġbeim": 757,
      "amm": 758,
      "Ġkleine": 759,
      "Ġkleinen": 760,
      "ĠStad": 761,
      "ĠKamera": 762,
      "ĠMenschenmenge": 763,
      "art": 764,
      "ahn": 765,
      "itt": 766,
      "ert": 767,
      "Ġschwarzer": 768,
      "str": 769,
      "Ġblon": 770,
      "utz": 771,
      "ĠGeh": 772,
      "ĠPark": 773,
      "ĠHunde": 774,
      "ische": 775,
      "erk": 776,
      "Ġber": 777,
      "farbenen": 778,
      "Ġbli": 779,
      "otor": 780,
      "ĠBoden": 781,
      "alt": 782,
      "Ġros": 783,
      "etter": 784,
      "len": 785,
      "ĠGitar": 786,
      "sst": 787,
      "ock": 788,
      "ennt": 789,
      "ick": 790,
      "op": 791,
      "ĠBer": 792,
      "Ġbef": 793,
      "eig": 794,
      "ĠSkate": 795,
      "ĠFeld": 796,
      "ink": 797,
      "ion": 798,
      "Ã¤r": 799,
      "Ġrennt": 800,
      "ĠKl": 801,
      "Ġihre": 802,
      "ĠSonnen": 803,
      "ucht": 804,
      "ĠStadt": 805,
      "latz": 806,
      "ssen": 807,
      "Ġzusam": 808,
      "Vier": 809,
      "Ġgrau": 810,
      "ĠStraÃŁen": 811,
      "ĠFoto": 812,
      "Ġle": 813,
      "ÃŁer": 814,
      "Ġihren": 815,
      "In": 816,
      "Ġpos": 817,
      "ĠAu": 818,
      "sten": 819,
      "einander": 820,
      "eans": 821,
      "tes": 822,
      "Ġzusammen": 823,
      "steig": 824,
      "ĠAut": 825,
      "Ġwar": 826,
      "Ġherum": 827,
      "cht": 828,
      "Ġdes": 829,
      "asiat": 830,
      "ff": 831,
      "ĠGitarre": 832,
      "ingen": 833,
      "Ġdunk": 834,
      "ĠPfer": 835,
      "Ġasiat": 836,
      "Ġse": 837,
      "schÃ¤ft": 838,
      "Ġab": 839,
      "ss": 840,
      "ĠSand": 841,
      "ob": 842,
      "ĠDam": 843,
      "ho": 844,
      "ĠMotor": 845,
      "Ġfahr": 846,
      "ĠÃ¤lterer": 847,
      "ĠJeans": 848,
      "rauÃŁen": 849,
      "kleid": 850,
      "sp": 851,
      "Ġunterh": 852,
      "des": 853,
      "eigt": 854,
      "elm": 855,
      "Ġfahren": 856,
      "uck": 857,
      "ĠBÃ¼hne": 858,
      "ĠdrauÃŁen": 859,
      "elle": 860,
      "ver": 861,
      "Ġschl": 862,
      "ischer": 863,
      "ĠBrille": 864,
      "olz": 865,
      "Ġre": 866,
      "ĠGehweg": 867,
      "Ġseine": 868,
      "ĠSkateboard": 869,
      "wach": 870,
      "ĠEr": 871,
      "Ġgest": 872,
      "aby": 873,
      "ĠBase": 874,
      "Ġsehen": 875,
      "Ġhell": 876,
      "deck": 877,
      "Ġes": 878,
      "ikro": 879,
      "Ġhinunter": 880,
      "achtet": 881,
      "kleidung": 882,
      "wachsen": 883,
      "ĠMikro": 884,
      "ĠGes": 885,
      "wagen": 886,
      "Ġdabei": 887,
      "ade": 888,
      "Ġseinen": 889,
      "dern": 890,
      "Ġblickt": 891,
      "ĠEssen": 892,
      "ĠBaby": 893,
      "ieht": 894,
      "ĠGel": 895,
      "brille": 896,
      "iz": 897,
      "ĠSchl": 898,
      "oll": 899,
      "Ġbraunen": 900,
      "ĠweiÃŁer": 901,
      "ĠSchwimm": 902,
      "arkt": 903,
      "ĠHolz": 904,
      "ĠStu": 905,
      "haar": 906,
      "ĠTe": 907,
      "Ġwie": 908,
      "ĠRe": 909,
      "Ġliegt": 910,
      "aft": 911,
      "Ġversucht": 912,
      "ĠHÃ¤n": 913,
      "Ġtanz": 914,
      "fl": 915,
      "ĠlÃ¤cheln": 916,
      "ĠâĢ": 917,
      "Ġarbeitet": 918,
      "Ã¼hrt": 919,
      "Ã¤t": 920,
      "uss": 921,
      "ĠBank": 922,
      "ĠPaar": 923,
      "zug": 924,
      "Ġlaufen": 925,
      "Ġtragen": 926,
      "ĠBaum": 927,
      "ĠWand": 928,
      "ĠIn": 929,
      "lichen": 930,
      "ĠEin": 931,
      "lag": 932,
      "Ġals": 933,
      "nei": 934,
      "Ġdar": 935,
      "rÃ¤": 936,
      "ffen": 937,
      "eich": 938,
      "ĠBÃ¼r": 939,
      "ĠDame": 940,
      "per": 941,
      "Ġmachen": 942,
      "ĠBaseball": 943,
      "Ġschauen": 944,
      "ĠlÃ¤chelt": 945,
      "irm": 946,
      "ĠArbei": 947,
      "Ġkur": 948,
      "ket": 949,
      "ll": 950,
      "che": 951,
      "ĠMau": 952,
      "ĠHÃ¼": 953,
      "ĠgroÃŁe": 954,
      "Ġbrauner": 955,
      "ĠBÃ¼rger": 956,
      "for": 957,
      "ĠMe": 958,
      "ikot": 959,
      "Ġbetr": 960,
      "Ġihrem": 961,
      "usik": 962,
      "Ã¼tze": 963,
      "ald": 964,
      "ĠUn": 965,
      "Ġgestrei": 966,
      "ull": 967,
      "Ġorangefarbenen": 968,
      "Ġihm": 969,
      "Ġversch": 970,
      "unst": 971,
      "geb": 972,
      "assen": 973,
      "ĠBÃ¼rgersteig": 974,
      "aum": 975,
      "Ġgegen": 976,
      "ĠGesicht": 977,
      "Ġarbeiten": 978,
      "Ġkletter": 979,
      "immt": 980,
      "Ġjunges": 981,
      "bedeck": 982,
      "ĠÃ¤ltere": 983,
      "ĠBild": 984,
      "ĠRei": 985,
      "Ġbraun": 986,
      "ĠHose": 987,
      "ÃŁt": 988,
      "Ġzeigt": 989,
      "antel": 990,
      "Ġberei": 991,
      "Ġhalten": 992,
      "aff": 993,
      "Ġsieht": 994,
      "ĠMotorrad": 995,
      "ak": 996,
      "platz": 997,
      "Ġspricht": 998,
      "Ġunterhalten": 999,
      "lie": 1000,
      "schaft": 1001,
      "ikan": 1002,
      "Ġliest": 1003,
      "sehen": 1004,
      "ĠgrÃ¼n": 1005,
      "ĠBoot": 1006,
      "ennis": 1007,
      "Ġdrei": 1008,
      "afarben": 1009,
      "elefon": 1010,
      "aur": 1011,
      "ĠTrikot": 1012,
      "ĠWald": 1013,
      "oller": 1014,
      "Ġun": 1015,
      "ine": 1016,
      "ĠRad": 1017,
      "ĠHaaren": 1018,
      "qu": 1019,
      "ĠTennis": 1020,
      "indet": 1021,
      "ĠSei": 1022,
      "Ġwer": 1023,
      "ĠHosen": 1024,
      "ee": 1025,
      "ĠGew": 1026,
      "ri": 1027,
      "ĠSo": 1028,
      "ften": 1029,
      "ĠSh": 1030,
      "iele": 1031,
      "ĠMeer": 1032,
      "ĠStein": 1033,
      "ĠHelm": 1034,
      "ĠKÃ¼": 1035,
      "amp": 1036,
      "ĠPferd": 1037,
      "Ġzum": 1038,
      "ĠSonnenbrille": 1039,
      "Leute": 1040,
      "ĠBand": 1041,
      "ĠKr": 1042,
      "inder": 1043,
      "aurant": 1044,
      "aben": 1045,
      "ĠBe": 1046,
      "ĠKunst": 1047,
      "liche": 1048,
      "asch": 1049,
      "uschau": 1050,
      "Ġrei": 1051,
      "ketball": 1052,
      "Ġgekleidete": 1053,
      "orts": 1054,
      "Ġrosa": 1055,
      "ĠAuto": 1056,
      "Ã¼ck": 1057,
      "Ġseiner": 1058,
      "estaurant": 1059,
      "ĠMusik": 1060,
      "gend": 1061,
      "ĠTag": 1062,
      "Ġbeob": 1063,
      "ĠFelsen": 1064,
      "oot": 1065,
      "Ġsp": 1066,
      "schu": 1067,
      "ĠSpr": 1068,
      "euer": 1069,
      "Ġgelb": 1070,
      "ĠArm": 1071,
      "âĢľ": 1072,
      "ien": 1073,
      "ĠRestaurant": 1074,
      "arbeiter": 1075,
      "ĠweiÃŁem": 1076,
      "Ġschie": 1077,
      "Ã¤ngt": 1078,
      "Ġgrauen": 1079,
      "ootball": 1080,
      "mt": 1081,
      "Ġsingt": 1082,
      "ĠBerg": 1083,
      "MÃ¤": 1084,
      "Menschen": 1085,
      "ĠPf": 1086,
      "Ġihnen": 1087,
      "ĠGelÃ¤n": 1088,
      "ast": 1089,
      "Ġblauem": 1090,
      "gest": 1091,
      "tern": 1092,
      "ĠâĢŀ": 1093,
      "ĠMantel": 1094,
      "ĠBr": 1095,
      "mp": 1096,
      "ĠBasketball": 1097,
      "ĠMikrofon": 1098,
      "brau": 1099,
      "ĠFen": 1100,
      "Ã¼nf": 1101,
      "Ã¼ll": 1102,
      "Ġposiert": 1103,
      "ahl": 1104,
      "asen": 1105,
      "este": 1106,
      "Ġdarauf": 1107,
      "asche": 1108,
      "br": 1109,
      "use": 1110,
      "emand": 1111,
      "ĠEis": 1112,
      "ullo": 1113,
      "Ġklettert": 1114,
      "ah": 1115,
      "err": 1116,
      "ĠfÃ¼hrt": 1117,
      "ĠZuschau": 1118,
      "ĠShorts": 1119,
      "anzug": 1120,
      "ĠSpielzeug": 1121,
      "Ġbefindet": 1122,
      "ĠErwachsen": 1123,
      "mer": 1124,
      "uchen": 1125,
      "asse": 1126,
      "inkt": 1127,
      "ĠFootball": 1128,
      "ĠAuf": 1129,
      "Ġdunkel": 1130,
      "ĠLe": 1131,
      "Ã¶rper": 1132,
      "aun": 1133,
      "iet": 1134,
      "ppen": 1135,
      "ecke": 1136,
      "ĠBÃ¤": 1137,
      "Ġho": 1138,
      "ĠBlumen": 1139,
      "ĠFenster": 1140,
      "ullover": 1141,
      "ifor": 1142,
      "ĠFr": 1143,
      "iv": 1144,
      "zt": 1145,
      "scht": 1146,
      "ĠSchu": 1147,
      "net": 1148,
      "achten": 1149,
      "Ġschwarzem": 1150,
      "Ġblauer": 1151,
      "Ġverk": 1152,
      "Ġwirft": 1153,
      "hnt": 1154,
      "ste": 1155,
      "ĠPol": 1156,
      "Ġgekleideter": 1157,
      "eine": 1158,
      "Ġsehr": 1159,
      "Ġversamm": 1160,
      "ĠSport": 1161,
      "aten": 1162,
      "Ġrennen": 1163,
      "ĠVor": 1164,
      "ĠKlein": 1165,
      "ĠRegen": 1166,
      "Das": 1167,
      "zer": 1168,
      "ĠFeuer": 1169,
      "iese": 1170,
      "ĠBade": 1171,
      "ĠTre": 1172,
      "eren": 1173,
      "stand": 1174,
      "ĠRaum": 1175,
      "Ã¤nger": 1176,
      "licher": 1177,
      "Ġstr": 1178,
      "ĠWeg": 1179,
      "schl": 1180,
      "aden": 1181,
      "Ġessen": 1182,
      "schw": 1183,
      "Ġzuschau": 1184,
      "ill": 1185,
      "Ġoder": 1186,
      "Ġrotem": 1187,
      "ucks": 1188,
      "MÃ¤nner": 1189,
      "zu": 1190,
      "Ġisst": 1191,
      "olle": 1192,
      "ĠGeschÃ¤ft": 1193,
      "ain": 1194,
      "ĠMÃ¤nnern": 1195,
      "ĠZeit": 1196,
      "ĠAnzug": 1197,
      "Ġrosafarben": 1198,
      "unden": 1199,
      "ĠWiese": 1200,
      "ĠKindern": 1201,
      "Ġanderer": 1202,
      "ĠMaul": 1203,
      "Ġgen": 1204,
      "becken": 1205,
      "hon": 1206,
      "itten": 1207,
      "ess": 1208,
      "ĠPullover": 1209,
      "Ġlangen": 1210,
      "Ġroter": 1211,
      "Ã¤ufer": 1212,
      "Ġwartet": 1213,
      "bst": 1214,
      "ke": 1215,
      "Ġbun": 1216,
      "az": 1217,
      "we": 1218,
      "Ġins": 1219,
      "schirm": 1220,
      "ĠPo": 1221,
      "Ġschwarze": 1222,
      "ĠVer": 1223,
      "immer": 1224,
      "haarige": 1225,
      "ĠMet": 1226,
      "ĠSchutz": 1227,
      "att": 1228,
      "Ġwerden": 1229,
      "ater": 1230,
      "ĠKar": 1231,
      "ĠweiÃŁe": 1232,
      "Ġspringen": 1233,
      "kÃ¶rper": 1234,
      "cher": 1235,
      "Ġzw": 1236,
      "ĠRucks": 1237,
      "Ġposieren": 1238,
      "Ġgestreiften": 1239,
      "gang": 1240,
      "ĠMen": 1241,
      "ĠBluse": 1242,
      "ĠFluss": 1243,
      "ĠSchild": 1244,
      "ckey": 1245,
      "omp": 1246,
      "blau": 1247,
      "dr": 1248,
      "ken": 1249,
      "sk": 1250,
      "sm": 1251,
      "auft": 1252,
      "Ġbele": 1253,
      "ĠStuhl": 1254,
      "her": 1255,
      "ĠBuch": 1256,
      "ĠLeu": 1257,
      "Ġbeleb": 1258,
      "zeit": 1259,
      "ĠSn": 1260,
      "Ġvoller": 1261,
      "ĠHandy": 1262,
      "ĠOberkÃ¶rper": 1263,
      "Ġviel": 1264,
      "ĠKa": 1265,
      "ĠWei": 1266,
      "Ġbereitet": 1267,
      "ĠMetall": 1268,
      "FÃ¼nf": 1269,
      "Kinder": 1270,
      "Viele": 1271,
      "ellen": 1272,
      "ist": 1273,
      "iegel": 1274,
      "inden": 1275,
      "ierten": 1276,
      "euch": 1277,
      "ĠÃ¼berqu": 1278,
      "Ġna": 1279,
      "ĠHÃ¼gel": 1280,
      "ĠSur": 1281,
      "fel": 1282,
      "ĠSpieler": 1283,
      "Ġwarten": 1284,
      "Ġbetrachtet": 1285,
      "ĠPoliz": 1286,
      "hÃ¤": 1287,
      "aut": 1288,
      "ĠUm": 1289,
      "Ġtanzen": 1290,
      "ĠKleink": 1291,
      "ager": 1292,
      "Ã¤ger": 1293,
      "Ã¤ss": 1294,
      "ĠHaus": 1295,
      "Ġgenie": 1296,
      "Ġzwischen": 1297,
      "dem": 1298,
      "Ġhe": 1299,
      "ĠRennen": 1300,
      "ette": 1301,
      "Ġumge": 1302,
      "Ġblonde": 1303,
      "wand": 1304,
      "ieden": 1305,
      "Ġkn": 1306,
      "Ġflie": 1307,
      "ĠschlÃ¤ft": 1308,
      "ĠLeuten": 1309,
      "spr": 1310,
      "erikan": 1311,
      "ĠBus": 1312,
      "Ġzieht": 1313,
      "ĠStock": 1314,
      "utzt": 1315,
      "Person": 1316,
      "ekt": 1317,
      "isten": 1318,
      "Ġschnei": 1319,
      "old": 1320,
      "Ġoben": 1321,
      "altung": 1322,
      "sieht": 1323,
      "ĠMÃ¼tze": 1324,
      "ĠSeil": 1325,
      "alb": 1326,
      "ĠPu": 1327,
      "kel": 1328,
      "Ã¼cken": 1329,
      "Ġlil": 1330,
      "Ġalter": 1331,
      "Ġlehnt": 1332,
      "Ġreitet": 1333,
      "hÃ¤ut": 1334,
      "di": 1335,
      "ue": 1336,
      "ĠMarkt": 1337,
      "ĠRo": 1338,
      "ation": 1339,
      "ĠHÃ¤nden": 1340,
      "ĠEink": 1341,
      "ĠPap": 1342,
      "ĠSnow": 1343,
      "ĠKleinkind": 1344,
      "Personen": 1345,
      "Ġmiteinander": 1346,
      "Ġange": 1347,
      "ichtung": 1348,
      "Ġherunter": 1349,
      "Ġbeobachtet": 1350,
      "aren": 1351,
      "ĠSchul": 1352,
      "Ã¤nn": 1353,
      "ellt": 1354,
      "ĠBÃ¤umen": 1355,
      "ĠRucksack": 1356,
      "kor": 1357,
      "ĠAs": 1358,
      "Ġpaar": 1359,
      "Ġdav": 1360,
      "Ġtanzt": 1361,
      "og": 1362,
      "ĠKon": 1363,
      "ĠPro": 1364,
      "Ġihrer": 1365,
      "ĠEn": 1366,
      "stÃ¼m": 1367,
      "bahn": 1368,
      "weiÃŁer": 1369,
      "Ġfr": 1370,
      "ĠZaun": 1371,
      "graf": 1372,
      "amil": 1373,
      "ĠUnifor": 1374,
      "fe": 1375,
      "ĠÃ¶": 1376,
      "ĠMit": 1377,
      "ĠmÃ¤nn": 1378,
      "Ġschnee": 1379,
      "Ġglei": 1380,
      "ĠTur": 1381,
      "stÃ¼ck": 1382,
      "aschine": 1383,
      "ĠBet": 1384,
      "Ġvom": 1385,
      "ĠSchn": 1386,
      "ĠAl": 1387,
      "ĠZug": 1388,
      "Ġbefinden": 1389,
      "inken": 1390,
      "Ġschiebt": 1391,
      "hÃ¶r": 1392,
      "stu": 1393,
      "Ġhaben": 1394,
      "Ġgr": 1395,
      "ĠGegen": 1396,
      "Ġru": 1397,
      "achts": 1398,
      "Ã¤rt": 1399,
      "ĠArbeiter": 1400,
      "ĠGewÃ¤ss": 1401,
      "Ġteil": 1402,
      "ĠSee": 1403,
      "ĠHal": 1404,
      "ies": 1405,
      "Ġkar": 1406,
      "Ġfrei": 1407,
      "ĠLand": 1408,
      "rÃ¼cke": 1409,
      "ĠSchwimmbecken": 1410,
      "ĠBeton": 1411,
      "Bahn": 1412,
      "Ġall": 1413,
      "stein": 1414,
      "Ġorangefarben": 1415,
      "feld": 1416,
      "Ġschneebedeck": 1417,
      "Sch": 1418,
      "Spiel": 1419,
      "ĠFre": 1420,
      "ĠGl": 1421,
      "ĠRÃ¼cken": 1422,
      "ĠSki": 1423,
      "ĠKÃ¼che": 1424,
      "od": 1425,
      "ĠFamil": 1426,
      "trÃ¤n": 1427,
      "esen": 1428,
      "Ġgem": 1429,
      "ĠRenn": 1430,
      "ĠAus": 1431,
      "Ã¤che": 1432,
      "ĠSeite": 1433,
      "ĠEinkauf": 1434,
      "gl": 1435,
      "ĠWelle": 1436,
      "Ġfest": 1437,
      "ĠInstr": 1438,
      "ĠArbeit": 1439,
      "Ġkurzen": 1440,
      "Ġverschieden": 1441,
      "ĠRadfahrer": 1442,
      "ĠSprung": 1443,
      "Ġumgeben": 1444,
      "oh": 1445,
      "Ġgef": 1446,
      "ĠSchlag": 1447,
      "ĠOut": 1448,
      "Ġson": 1449,
      "Ã¤d": 1450,
      "Ġben": 1451,
      "Ġschrei": 1452,
      "Ġlang": 1453,
      "ĠGraff": 1454,
      "ampe": 1455,
      "ĠFris": 1456,
      "ĠTreppe": 1457,
      "igt": 1458,
      "emden": 1459,
      "ĠGem": 1460,
      "Ġgera": 1461,
      "Ġtelefon": 1462,
      "boarder": 1463,
      "Ġspaz": 1464,
      "schuhen": 1465,
      "ĠGraffit": 1466,
      "anst": 1467,
      "ied": 1468,
      "ĠSchau": 1469,
      "Ġzur": 1470,
      "utter": 1471,
      "Ġverkauft": 1472,
      "band": 1473,
      "kl": 1474,
      "ĠFlag": 1475,
      "arb": 1476,
      "ief": 1477,
      "Ġschein": 1478,
      "ungs": 1479,
      "Ġpink": 1480,
      "fit": 1481,
      "innen": 1482,
      "Ġtrinkt": 1483,
      "hlen": 1484,
      "Ġversammelt": 1485,
      "Ġgerade": 1486,
      "par": 1487,
      "werk": 1488,
      "Ġmitt": 1489,
      "weiÃŁen": 1490,
      "ĠkÃ¼": 1491,
      "ĠGetrÃ¤n": 1492,
      "Ã¶pf": 1493,
      "Ġaussehen": 1494,
      "ittel": 1495,
      "ĠPapier": 1496,
      "ĠFamilie": 1497,
      "arr": 1498,
      "isches": 1499,
      "Ã¼hren": 1500,
      "Ġrosafarbenen": 1501,
      "Ġrau": 1502,
      "Ã¤mp": 1503,
      "Ġmitten": 1504,
      "Ġihn": 1505,
      "ĠhÃ¤ngt": 1506,
      "Ġoffen": 1507,
      "Ġschneidet": 1508,
      "anstaltung": 1509,
      "lt": 1510,
      "arten": 1511,
      "ĠTor": 1512,
      "ĠRoll": 1513,
      "iol": 1514,
      "ser": 1515,
      "yp": 1516,
      "zimmer": 1517,
      "unnen": 1518,
      "eigen": 1519,
      "ĠPla": 1520,
      "Ġschla": 1521,
      "Ġwo": 1522,
      "boy": 1523,
      "ĠCow": 1524,
      "ĠAutos": 1525,
      "Ġtelefoniert": 1526,
      "aschen": 1527,
      "tlichen": 1528,
      "Ġeinige": 1529,
      "stung": 1530,
      "ĠkÃ¤mp": 1531,
      "ĠWagen": 1532,
      "gruppe": 1533,
      "Ġbelebten": 1534,
      "Ġsonn": 1535,
      "Ġspazieren": 1536,
      "enager": 1537,
      "Ġmalt": 1538,
      "Ġkom": 1539,
      "Ġfangen": 1540,
      "ĠOr": 1541,
      "bee": 1542,
      "ĠVerk": 1543,
      "esten": 1544,
      "Ġasiatische": 1545,
      "Ġbunten": 1546,
      "ompu": 1547,
      "Frau": 1548,
      "fro": 1549,
      "ĠBik": 1550,
      "ĠBahn": 1551,
      "alen": 1552,
      "Ġjemand": 1553,
      "Ġnimmt": 1554,
      "ĠBauarbeiter": 1555,
      "Ã¼nst": 1556,
      "ĠReihe": 1557,
      "blauen": 1558,
      "aÃŁe": 1559,
      "ogen": 1560,
      "ĠÃ": 1561,
      "ÃŁes": 1562,
      "Ġschwimmt": 1563,
      "ĠgroÃŁer": 1564,
      "immel": 1565,
      "ĠZuschauer": 1566,
      "ĠGewÃ¤sser": 1567,
      "eten": 1568,
      "ub": 1569,
      "ust": 1570,
      "yball": 1571,
      "Ã¤sst": 1572,
      "teten": 1573,
      "schri": 1574,
      "ĠGer": 1575,
      "Ġgu": 1576,
      "Ġrote": 1577,
      "Ġdenen": 1578,
      "Ġfreiem": 1579,
      "Ġschneebedeckten": 1580,
      "ĠFrisbee": 1581,
      "schn": 1582,
      "etz": 1583,
      "utsche": 1584,
      "ikum": 1585,
      "rÃ¼stung": 1586,
      "eller": 1587,
      "Ġgekleidet": 1588,
      "ĠKopfbedeck": 1589,
      "Ġblicken": 1590,
      "ĠschlÃ¤gt": 1591,
      "olleyball": 1592,
      "Ġvielen": 1593,
      "Ã¤dt": 1594,
      "Mann": 1595,
      "hmen": 1596,
      "ĠBart": 1597,
      "ĠBrÃ¼cke": 1598,
      "stelle": 1599,
      "ters": 1600,
      "ĠWander": 1601,
      "ĠSchÃ¼": 1602,
      "ĠRasen": 1603,
      "ĠCompu": 1604,
      "Ġhinauf": 1605,
      "ĠGebÃ¤udes": 1606,
      "blikum": 1607,
      "straÃŁe": 1608,
      "ĠCowboy": 1609,
      "Ġsonnigen": 1610,
      "jacke": 1611,
      "zogen": 1612,
      "erb": 1613,
      "Ã¼gen": 1614,
      "ĠHimmel": 1615,
      "Ġbr": 1616,
      "Ġfoto": 1617,
      "ĠRock": 1618,
      "ĠHÃ¤nde": 1619,
      "Ġfliegt": 1620,
      "ĠPublikum": 1621,
      "Ġfotograf": 1622,
      "fall": 1623,
      "jekt": 1624,
      "kam": 1625,
      "mann": 1626,
      "ĠShirt": 1627,
      "geschÃ¤ft": 1628,
      "ĠPlatz": 1629,
      "ĠTasche": 1630,
      "Ġlachen": 1631,
      "ĠRichtung": 1632,
      "ĠAb": 1633,
      "ĠFels": 1634,
      "ĠTeenager": 1635,
      "ĠGelÃ¤nder": 1636,
      "Ġhebt": 1637,
      "ĠkÃ¤mpfen": 1638,
      "hut": 1639,
      "Ġaf": 1640,
      "ĠHoch": 1641,
      "ĠHemden": 1642,
      "ĠTo": 1643,
      "atte": 1644,
      "ĠSchwarz": 1645,
      "flÃ¤che": 1646,
      "grÃ¼": 1647,
      "inger": 1648,
      "unde": 1649,
      "raut": 1650,
      "Ġvier": 1651,
      "ĠTÃ¼r": 1652,
      "ĠWeste": 1653,
      "ĠKampf": 1654,
      "Ġdunklen": 1655,
      "ĠgrÃ¼nem": 1656,
      "ĠZeitung": 1657,
      "ĠSchutzh": 1658,
      "ech": 1659,
      "kom": 1660,
      "mm": 1661,
      "wehr": 1662,
      "Ġhohen": 1663,
      "ĠGraffiti": 1664,
      "acken": 1665,
      "rich": 1666,
      "aub": 1667,
      "ĠHerr": 1668,
      "ĠTyp": 1669,
      "ĠSchal": 1670,
      "ĠSpielplatz": 1671,
      "ĠOutfit": 1672,
      "fest": 1673,
      "pft": 1674,
      "ges": 1675,
      "ummer": 1676,
      "ĠNe": 1677,
      "ĠAugen": 1678,
      "ĠHals": 1679,
      "Ã¼nstler": 1680,
      "ĠKopfbedeckung": 1681,
      "ugend": 1682,
      "ĠMannes": 1683,
      "ĠBier": 1684,
      "weiÃŁ": 1685,
      "Ġschm": 1686,
      "Ġschn": 1687,
      "ĠZig": 1688,
      "ĠweiÃŁes": 1689,
      "Ġliegen": 1690,
      "Ġasiatischer": 1691,
      "Ġzuschauen": 1692,
      "Ġmittler": 1693,
      "ling": 1694,
      "anc": 1695,
      "ĠKan": 1696,
      "ĠSchirm": 1697,
      "ument": 1698,
      "Ġumar": 1699,
      "ĠHof": 1700,
      "Ġblondes": 1701,
      "haariger": 1702,
      "ĠLeben": 1703,
      "ĠZigar": 1704,
      "bank": 1705,
      "ĠMutter": 1706,
      "Ġbel": 1707,
      "ĠWinter": 1708,
      "atue": 1709,
      "ĠFlug": 1710,
      "hose": 1711,
      "ĠPool": 1712,
      "Ġdavon": 1713,
      "hÃ¼": 1714,
      "markt": 1715,
      "auch": 1716,
      "ĠMar": 1717,
      "Ġmehrere": 1718,
      "ĠhÃ¼": 1719,
      "etten": 1720,
      "Ġverschnei": 1721,
      "Ġbereiten": 1722,
      "ĠdunkelhÃ¤ut": 1723,
      "ĠÃ¼berqueren": 1724,
      "ĠgenieÃŁt": 1725,
      "ĠGlas": 1726,
      "Jemand": 1727,
      "fern": 1728,
      "haus": 1729,
      "ĠStÃ¼ck": 1730,
      "Ġblaue": 1731,
      "Ã¤nd": 1732,
      "ĠDach": 1733,
      "ĠDecke": 1734,
      "laster": 1735,
      "Ġalte": 1736,
      "Ġhellbrau": 1737,
      "ibt": 1738,
      "park": 1739,
      "ĠKlei": 1740,
      "ĠschÃ¶": 1741,
      "Ġlacht": 1742,
      "Ġtritt": 1743,
      "anzen": 1744,
      "ĠTeam": 1745,
      "ĠUnter": 1746,
      "brett": 1747,
      "ĠZuschauern": 1748,
      "Ġkarierten": 1749,
      "ĠSchaukel": 1750,
      "schrift": 1751,
      "Ġmittleren": 1752,
      "ickt": 1753,
      "off": 1754,
      "uf": 1755,
      "ĠFot": 1756,
      "ĠTro": 1757,
      "ĠFuÃŁballspieler": 1758,
      "Ġbereit": 1759,
      "Ġrepar": 1760,
      "rÃ¤dern": 1761,
      "ĠMauer": 1762,
      "ĠKunststÃ¼ck": 1763,
      "ĠÃ¶ffen": 1764,
      "Ġbenutzt": 1765,
      "ĠGemÃ¼": 1766,
      "bar": 1767,
      "fa": 1768,
      "ĠI": 1769,
      "anten": 1770,
      "Ġbes": 1771,
      "ons": 1772,
      "Ġbeg": 1773,
      "schwarz": 1774,
      "ĠAlters": 1775,
      "ĠComputer": 1776,
      "gÃ¤nger": 1777,
      "Ġalten": 1778,
      "Ġeinigen": 1779,
      "elmen": 1780,
      "Ġgrei": 1781,
      "amerikan": 1782,
      "Ġgew": 1783,
      "ĠSchÃ¼r": 1784,
      "Ġries": 1785,
      "ĠZiegel": 1786,
      "ĠstÃ¤dt": 1787,
      "ĠunterhÃ¤lt": 1788,
      "ĠErwachsene": 1789,
      "ĠMenge": 1790,
      "ĠLebensm": 1791,
      "Kl": 1792,
      "bild": 1793,
      "ko": 1794,
      "Einige": 1795,
      "ĠMo": 1796,
      "ĠMund": 1797,
      "ĠMÃ¼ll": 1798,
      "Ġgesch": 1799,
      "Ġzusieht": 1800,
      "ĠObst": 1801,
      "Ġnahe": 1802,
      "stuhl": 1803,
      "ĠFotos": 1804,
      "tur": 1805,
      "ĠÃ¼": 1806,
      "els": 1807,
      "gebÃ¤u": 1808,
      "ĠKor": 1809,
      "ĠPar": 1810,
      "deo": 1811,
      "ĠAk": 1812,
      "Ã¤ngen": 1813,
      "Ġnebeneinander": 1814,
      "ĠgroÃŁes": 1815,
      "Ġverl": 1816,
      "iges": 1817,
      "stÃ¼men": 1818,
      "ĠSofa": 1819,
      "Ġzuschaut": 1820,
      "ĠMitte": 1821,
      "afen": 1822,
      "pfen": 1823,
      "auer": 1824,
      "Ġdr": 1825,
      "Ġmehrer": 1826,
      "ĠauÃŁer": 1827,
      "ĠBein": 1828,
      "Ġvoll": 1829,
      "Ġgl": 1830,
      "deckt": 1831,
      "ĠlÃ¤sst": 1832,
      "ĠJugend": 1833,
      "Ġzusehen": 1834,
      "ĠLei": 1835,
      "ĠStÃ¼": 1836,
      "Ġrut": 1837,
      "ĠVolleyball": 1838,
      "fahren": 1839,
      "sport": 1840,
      "ĠBaseballspieler": 1841,
      "ĠWeihn": 1842,
      "halb": 1843,
      "ok": 1844,
      "ĠHer": 1845,
      "Ġviol": 1846,
      "ĠschÃ¼t": 1847,
      "Ġfarben": 1848,
      "Ġnicht": 1849,
      "Ġnachts": 1850,
      "immen": 1851,
      "ĠCh": 1852,
      "igk": 1853,
      "Ġorangen": 1854,
      "ĠSonne": 1855,
      "Ġkniet": 1856,
      "Ġlila": 1857,
      "ĠGegenstand": 1858,
      "Spieler": 1859,
      "kampf": 1860,
      "ĠGemÃ¼se": 1861,
      "oÃŁ": 1862,
      "ini": 1863,
      "ines": 1864,
      "erne": 1865,
      "ition": 1866,
      "ĠhÃ¶r": 1867,
      "itzt": 1868,
      "Ġbew": 1869,
      "ĠDr": 1870,
      "issen": 1871,
      "ĠUfer": 1872,
      "Ġhinten": 1873,
      "Ġversuchen": 1874,
      "ĠEinkaufs": 1875,
      "ĠZigarette": 1876,
      "ka": 1877,
      "me": 1878,
      "ohn": 1879,
      "ĠFisch": 1880,
      "Ġgibt": 1881,
      "ĠfÃ¼hren": 1882,
      "Ġtreten": 1883,
      "ĠNacht": 1884,
      "Ġgelber": 1885,
      "ĠâĢĵ": 1886,
      "Ġkurz": 1887,
      "Ġunbe": 1888,
      "Ġbeobachten": 1889,
      "ĠUniform": 1890,
      "Ġscheint": 1891,
      "Ġmehreren": 1892,
      "aw": 1893,
      "agt": 1894,
      "kon": 1895,
      "ause": 1896,
      "gew": 1897,
      "ĠBett": 1898,
      "stik": 1899,
      "itzen": 1900,
      "ĠCl": 1901,
      "ĠHockey": 1902,
      "ĠSurfer": 1903,
      "Junge": 1904,
      "egt": 1905,
      "rikan": 1906,
      "ud": 1907,
      "eichen": 1908,
      "ĠSold": 1909,
      "under": 1910,
      "ĠKer": 1911,
      "ĠfÃ¤ngt": 1912,
      "etzt": 1913,
      "Ã¶l": 1914,
      "ĠZelt": 1915,
      "ĠBlick": 1916,
      "ĠArmen": 1917,
      "ĠTrick": 1918,
      "Ã¤rm": 1919,
      "ĠPfad": 1920,
      "ĠFlagge": 1921,
      "Ġraucht": 1922,
      "ĠÃ¶ffentlichen": 1923,
      "Ġfarbenfro": 1924,
      "hemd": 1925,
      "zert": 1926,
      "Ġpr": 1927,
      "Ġde": 1928,
      "ĠFerne": 1929,
      "ĠbÃ¤rt": 1930,
      "ĠGarten": 1931,
      "ĠGrill": 1932,
      "ĠStange": 1933,
      "Ġtrinken": 1934,
      "Ġjungen": 1935,
      "rÃ¼ck": 1936,
      "ĠNummer": 1937,
      "lasche": 1938,
      "ĠHandt": 1939,
      "cktem": 1940,
      "spann": 1941,
      "ĠStufen": 1942,
      "Ġbetrachten": 1943,
      "ĠTrikots": 1944,
      "ĠFeuerwehr": 1945,
      "Ġgleich": 1946,
      "Ġverschneiten": 1947,
      "ĠSchÃ¼rze": 1948,
      "gner": 1949,
      "heit": 1950,
      "Ġsur": 1951,
      "eiten": 1952,
      "gehen": 1953,
      "ĠPart": 1954,
      "Ġweg": 1955,
      "ender": 1956,
      "Ġbeide": 1957,
      "ĠGehsteig": 1958,
      "hof": 1959,
      "Ġstre": 1960,
      "ĠMensch": 1961,
      "Auf": 1962,
      "wen": 1963,
      "Ġman": 1964,
      "Ã¼st": 1965,
      "ĠBar": 1966,
      "Ġviele": 1967,
      "tre": 1968,
      "alle": 1969,
      "olgt": 1970,
      "ollen": 1971,
      "ĠGeb": 1972,
      "Ã¤nzer": 1973,
      "ĠEim": 1974,
      "ĠArt": 1975,
      "Ġstarr": 1976,
      "gebung": 1977,
      "ĠVeranstaltung": 1978,
      "euchten": 1979,
      "akt": 1980,
      "kr": 1981,
      "Ġeinander": 1982,
      "arn": 1983,
      "iehen": 1984,
      "ĠBack": 1985,
      "ĠKap": 1986,
      "ĠWett": 1987,
      "ĠRampe": 1988,
      "ats": 1989,
      "Ã¶ff": 1990,
      "ĠDe": 1991,
      "ĠBow": 1992,
      "Ġheraus": 1993,
      "Ġblonden": 1994,
      "Ġreden": 1995,
      "ĠGeld": 1996,
      "Ġunten": 1997,
      "ĠTennisball": 1998,
      "ĠSurf": 1999,
      "ĠauÃŁerhalb": 2000,
      "ed": 2001,
      "mÃ¼tze": 2002,
      "ocken": 2003,
      "ogel": 2004,
      "vor": 2005,
      "ĠSa": 2006,
      "arf": 2007,
      "ĠMannschaft": 2008,
      "ĠTanz": 2009,
      "atten": 2010,
      "Ġweiter": 2011,
      "untergang": 2012,
      "Ġausgest": 2013,
      "ĠFuÃŁgÃ¤nger": 2014,
      "ĠSnowboarder": 2015,
      "ĠPlastik": 2016,
      "phon": 2017,
      "rand": 2018,
      "Ġdass": 2019,
      "Ġhil": 2020,
      "ĠTau": 2021,
      "Ġleuchten": 2022,
      "ĠzurÃ¼ck": 2023,
      "ĠRoller": 2024,
      "liches": 2025,
      "ĠSonnenuntergang": 2026,
      "ĠSnowboard": 2027,
      "ĠInstrumen": 2028,
      "ĠWanderer": 2029,
      "Ġgreift": 2030,
      "Ġrutscht": 2031,
      "nt": 2032,
      "oten": 2033,
      "ren": 2034,
      "uster": 2035,
      "ont": 2036,
      "ĠTelefon": 2037,
      "ĠLaden": 2038,
      "ume": 2039,
      "Ġrotes": 2040,
      "eugt": 2041,
      "pflaster": 2042,
      "Ġbraune": 2043,
      "ĠCo": 2044,
      "otorrad": 2045,
      "ĠKlassen": 2046,
      "ĠBrunnen": 2047,
      "ĠAufschrift": 2048,
      "ĠBikini": 2049,
      "Ġfotografiert": 2050,
      "ĠKleidern": 2051,
      "ĠKapu": 2052,
      "ĠBowling": 2053,
      "Ġhilft": 2054,
      "echen": 2055,
      "kÃ¶pf": 2056,
      "unt": 2057,
      "eibe": 2058,
      "ĠSwe": 2059,
      "geht": 2060,
      "ĠBraut": 2061,
      "schir": 2062,
      "stell": 2063,
      "ase": 2064,
      "umm": 2065,
      "Ġbeiden": 2066,
      "ĠOb": 2067,
      "boot": 2068,
      "ausrÃ¼stung": 2069,
      "own": 2070,
      "ings": 2071,
      "obil": 2072,
      "ĠHÃ¼ten": 2073,
      "ĠPolizist": 2074,
      "ĠmÃ¤nnliche": 2075,
      "ĠTurn": 2076,
      "ĠKampfsport": 2077,
      "echs": 2078,
      "ĠbÃ¤rtiger": 2079,
      "Ġsurft": 2080,
      "atshirt": 2081,
      "St": 2082,
      "Sechs": 2083,
      "hnen": 2084,
      "halten": 2085,
      "iff": 2086,
      "jak": 2087,
      "Ġbem": 2088,
      "ĠBal": 2089,
      "stre": 2090,
      "ĠgrÃ¼ner": 2091,
      "ĠFahrzeug": 2092,
      "ĠKostÃ¼m": 2093,
      "ĠKostÃ¼men": 2094,
      "ĠHaare": 2095,
      "Ġwerfen": 2096,
      "Ġgelbem": 2097,
      "ĠÃ¼berquert": 2098,
      "ĠHochzeit": 2099,
      "gebÃ¤ude": 2100,
      "ĠLeiter": 2101,
      "Ġunbefest": 2102,
      "mauer": 2103,
      "osen": 2104,
      "skleidung": 2105,
      "Ġbarf": 2106,
      "Ġgeb": 2107,
      "ftem": 2108,
      "ĠStatue": 2109,
      "ĠVogel": 2110,
      "zentr": 2111,
      "Ã¼nger": 2112,
      "ĠKletter": 2113,
      "Ġlegt": 2114,
      "ĠDamen": 2115,
      "Ġversammeln": 2116,
      "Ġnacktem": 2117,
      "ĠAsi": 2118,
      "ĠSkifahrer": 2119,
      "grÃ¼nen": 2120,
      "ĠstÃ¤dtischen": 2121,
      "ĠSweatshirt": 2122,
      "halle": 2123,
      "einsam": 2124,
      "Ġeinge": 2125,
      "ĠMaschine": 2126,
      "Ġbal": 2127,
      "ĠKrei": 2128,
      "ĠSchm": 2129,
      "ĠSchrei": 2130,
      "ĠRand": 2131,
      "ilber": 2132,
      "Ġnehmen": 2133,
      "Ġpro": 2134,
      "Ġgelbe": 2135,
      "Ġgemeinsam": 2136,
      "Frauen": 2137,
      "ĠKorb": 2138,
      "geln": 2139,
      "hand": 2140,
      "ip": 2141,
      "sÃ¤": 2142,
      "sel": 2143,
      "ĠY": 2144,
      "eige": 2145,
      "ĠRutsche": 2146,
      "ĠLeine": 2147,
      "Ġblaues": 2148,
      "ĠjÃ¼nger": 2149,
      "Ġamerikan": 2150,
      "ĠBasketballspieler": 2151,
      "ĠKajak": 2152,
      "ĠGetrÃ¤nk": 2153,
      "Ġkommt": 2154,
      "eben": 2155,
      "ippe": 2156,
      "ukt": 2157,
      "ĠKn": 2158,
      "ĠKat": 2159,
      "ĠWaren": 2160,
      "ĠWesten": 2161,
      "athon": 2162,
      "add": 2163,
      "adition": 2164,
      "ilit": 2165,
      "ilder": 2166,
      "Ġtradition": 2167,
      "reck": 2168,
      "boden": 2169,
      "Ġstellt": 2170,
      "ĠKopfhÃ¶r": 2171,
      "Ġblonder": 2172,
      "form": 2173,
      "ĠReifen": 2174,
      "ĠVorder": 2175,
      "ĠRegenschirm": 2176,
      "ĠgenieÃŁen": 2177,
      "Ġlilafarben": 2178,
      "Ġschreibt": 2179,
      "iefeln": 2180,
      "Ġguckt": 2181,
      "ĠLebensmittel": 2182,
      "Ġunbefestig": 2183,
      "top": 2184,
      "erle": 2185,
      "eite": 2186,
      "stÃ¤n": 2187,
      "ĠWellen": 2188,
      "ĠAben": 2189,
      "urf": 2190,
      "Ġweib": 2191,
      "Ã¶cken": 2192,
      "Ġdurchs": 2193,
      "ossen": 2194,
      "ĠCaf": 2195,
      "blasen": 2196,
      "Diese": 2197,
      "ĠSpiegel": 2198,
      "Ġleeren": 2199,
      "Ġasiatischen": 2200,
      "ĠMikrophon": 2201,
      "ĠSeifen": 2202,
      "ĠMusiker": 2203,
      "ĠSchlagzeug": 2204,
      "ĠSchutzhelm": 2205,
      "ĠStÃ¼hlen": 2206,
      "ĠEimer": 2207,
      "Ar": 2208,
      "mitten": 2209,
      "rennen": 2210,
      "Ġch": 2211,
      "ĠSe": 2212,
      "aske": 2213,
      "ĠPass": 2214,
      "ĠPfl": 2215,
      "Ġko": 2216,
      "ĠWohn": 2217,
      "Ġlesen": 2218,
      "Ã¶pfen": 2219,
      "reht": 2220,
      "Ġentspann": 2221,
      "rillen": 2222,
      "Ġgekleideten": 2223,
      "Ġohne": 2224,
      "ĠAnz": 2225,
      "aptop": 2226,
      "Ġgestreiftem": 2227,
      "ĠUmgebung": 2228,
      "ĠAsiat": 2229,
      "ĠEnde": 2230,
      "Ġgras": 2231,
      "Ġwobei": 2232,
      "Ġstreckt": 2233,
      "maschine": 2234,
      "instr": 2235,
      "Ġsilber": 2236,
      "Ġinmitten": 2237,
      "ĠKaff": 2238,
      "Ġir": 2239,
      "ĠGol": 2240,
      "icher": 2241,
      "Ġkaufen": 2242,
      "Ġgep": 2243,
      "ĠWerk": 2244,
      "ĠLÃ¤ufer": 2245,
      "Ġschwingt": 2246,
      "ischt": 2247,
      "Ã¶n": 2248,
      "Ġsprechen": 2249,
      "pfl": 2250,
      "ĠWassers": 2251,
      "ĠVater": 2252,
      "ulp": 2253,
      "ssel": 2254,
      "ĠKraw": 2255,
      "ĠErwachsenen": 2256,
      "ĠLeder": 2257,
      "ĠSchuhen": 2258,
      "ĠBadeanzug": 2259,
      "Ġafrikan": 2260,
      "Ġbeleuch": 2261,
      "Ġriesigen": 2262,
      "ilitÃ¤r": 2263,
      "age": 2264,
      "do": 2265,
      "verk": 2266,
      "inie": 2267,
      "ieben": 2268,
      "oren": 2269,
      "ĠLaptop": 2270,
      "ader": 2271,
      "ĠGegend": 2272,
      "ĠOhr": 2273,
      "Ġanderes": 2274,
      "ĠHandschuhen": 2275,
      "ĠChe": 2276,
      "ĠÃ¤lteren": 2277,
      "ĠParkplatz": 2278,
      "Ġgrauem": 2279,
      "ĠPferde": 2280,
      "ĠgegenÃ¼ber": 2281,
      "ĠSohn": 2282,
      "ĠPolizisten": 2283,
      "ĠRodeo": 2284,
      "ĠKonzert": 2285,
      "ĠUniformen": 2286,
      "ĠInstrument": 2287,
      "ĠParade": 2288,
      "gn": 2289,
      "nah": 2290,
      "Âł": 2291,
      "Ġsingen": 2292,
      "ĠHu": 2293,
      "Ġfl": 2294,
      "indern": 2295,
      "allen": 2296,
      "euz": 2297,
      "ĠnÃ¤": 2298,
      "bewachsen": 2299,
      "egel": 2300,
      "ĠKinderwagen": 2301,
      "ĠGebÃ¤uden": 2302,
      "Ã¼hrung": 2303,
      "ĠBergen": 2304,
      "ĠStraÃŁenecke": 2305,
      "ĠStraÃŁenrand": 2306,
      "Ã¤tow": 2307,
      "rÃ¤der": 2308,
      "Ġgelbes": 2309,
      "ĠGelÃ¤ndem": 2310,
      "ĠErwachsener": 2311,
      "ĠTreppen": 2312,
      "skop": 2313,
      "Ġpinkfarben": 2314,
      "Ġoffenen": 2315,
      "richter": 2316,
      "ĠMarathon": 2317,
      "ĠhÃ¶rt": 2318,
      "Ġstarrt": 2319,
      "Ġbalanc": 2320,
      "ĠSchreibt": 2321,
      "gem": 2322,
      "Ã©": 2323,
      "eim": 2324,
      "Ġmar": 2325,
      "ĠFinger": 2326,
      "Ġganz": 2327,
      "ĠTÃ¤nzer": 2328,
      "Ġwander": 2329,
      "ĠSchoÃŁ": 2330,
      "ĠRot": 2331,
      "ppt": 2332,
      "Ġjagt": 2333,
      "asser": 2334,
      "Ġrein": 2335,
      "Ġverkleide": 2336,
      "ĠBaustelle": 2337,
      "anken": 2338,
      "ĠBereich": 2339,
      "verall": 2340,
      "ĠlÃ¤chelnd": 2341,
      "ĠMotorradfahrer": 2342,
      "schuh": 2343,
      "ĠArme": 2344,
      "âĢľ.": 2345,
      "Ġpinkfarbenen": 2346,
      "Ġschlagen": 2347,
      "Ġumarmt": 2348,
      "ĠBackstein": 2349,
      "bik": 2350,
      "hund": 2351,
      "kten": 2352,
      "Ã¼ÃŁ": 2353,
      "anne": 2354,
      "ĠKir": 2355,
      "ĠKuchen": 2356,
      "ork": 2357,
      "ĠPause": 2358,
      "rot": 2359,
      "ĠWasch": 2360,
      "ĠJacken": 2361,
      "ierte": 2362,
      "leisch": 2363,
      "Ġschwarzes": 2364,
      "ĠStand": 2365,
      "Ġbekom": 2366,
      "ĠgrÃ¼ne": 2367,
      "Ġabge": 2368,
      "Ġklettern": 2369,
      "Ã¼llt": 2370,
      "ĠWeiÃŁ": 2371,
      "ĠdunkelhÃ¤utiger": 2372,
      "ĠParty": 2373,
      "Ġgrasbewachsen": 2374,
      "ulptur": 2375,
      "ĠKrawatte": 2376,
      "co": 2377,
      "farb": 2378,
      "glie": 2379,
      "mÃ¤": 2380,
      "srichter": 2381,
      "Ġind": 2382,
      "ĠSie": 2383,
      "ĠSÃ¤nger": 2384,
      "ĠFern": 2385,
      "arm": 2386,
      "ĠHÃ¶": 2387,
      "ĠTier": 2388,
      "Ġgegner": 2389,
      "Ġgepflaster": 2390,
      "ĠwÃ¤": 2391,
      "Ġlink": 2392,
      "ĠSchatten": 2393,
      "utzen": 2394,
      "Ġbedeckt": 2395,
      "ĠNetz": 2396,
      "aften": 2397,
      "ĠVi": 2398,
      "hockey": 2399,
      "Ã¼llten": 2400,
      "Ġverkaufen": 2401,
      "Ġorangefarbener": 2402,
      "ĠFreund": 2403,
      "Ġrepariert": 2404,
      "ĠJugendlicher": 2405,
      "ĠSoldaten": 2406,
      "ĠVordergrund": 2407,
      "Arbei": 2408,
      "ĠSchreibtisch": 2409,
      "ds": 2410,
      "uppen": 2411,
      "ĠMobil": 2412,
      "ĠSicher": 2413,
      "ĠFÃ¼": 2414,
      "ĠFell": 2415,
      "team": 2416,
      "ĠKoch": 2417,
      "tritt": 2418,
      "ĠTaschen": 2419,
      "amen": 2420,
      "ĠLauf": 2421,
      "urs": 2422,
      "bew": 2423,
      "iste": 2424,
      "lage": 2425,
      "Ġputzt": 2426,
      "Ġunters": 2427,
      "Ġschauk": 2428,
      "Ġgekleidetes": 2429,
      "itarre": 2430,
      "ĠFuÃŁballspiel": 2431,
      "ĠhellhÃ¤ut": 2432,
      "Ġkurzer": 2433,
      "Ġgegeneinander": 2434,
      "ive": 2435,
      "ĠSchulter": 2436,
      "korb": 2437,
      "ĠSchnau": 2438,
      "Ġverschiedene": 2439,
      "ĠglÃ¼ck": 2440,
      "ĠClown": 2441,
      "stellung": 2442,
      "strecke": 2443,
      "ĠGelÃ¤ndemotorrad": 2444,
      "Fahr": 2445,
      "hal": 2446,
      "ient": 2447,
      "ki": 2448,
      "westen": 2449,
      "zÃ¤": 2450,
      "einer": 2451,
      "unn": 2452,
      "ord": 2453,
      "orfen": 2454,
      "Ġhol": 2455,
      "Ġgut": 2456,
      "ĠThe": 2457,
      "ĠfÃ¤l": 2458,
      "ĠLast": 2459,
      "atur": 2460,
      "ĠOverall": 2461,
      "Ġverwen": 2462,
      "ĠFahrrÃ¤dern": 2463,
      "gelben": 2464,
      "Ġasiatisches": 2465,
      "ĠSandalen": 2466,
      "ĠMikroskop": 2467,
      "ĠSchlitten": 2468,
      "ĠSchlÃ¤ger": 2469,
      "ĠBaumst": 2470,
      "ĠTennisspieler": 2471,
      "Ġangezogen": 2472,
      "iedsrichter": 2473,
      "Ġjemandem": 2474,
      "ĠschÃ¼tt": 2475,
      "Ġbalanciert": 2476,
      "Arbeiter": 2477,
      "Bau": 2478,
      "ac": 2479,
      "fÃ¼hrt": 2480,
      "hÃ¤lt": 2481,
      "hak": 2482,
      "ktr": 2483,
      "lan": 2484,
      "telefon": 2485,
      "weste": 2486,
      "chte": 2487,
      "ankt": 2488,
      "Ġsetzt": 2489,
      "Ã¤sche": 2490,
      "Ġbeugt": 2491,
      "raum": 2492,
      "Ġziehen": 2493,
      "Ġwinkt": 2494,
      "deon": 2495,
      "Ġfei": 2496,
      "ĠSchauf": 2497,
      "ĠLab": 2498,
      "ppich": 2499,
      "Ġschwimmen": 2500,
      "ĠStiefeln": 2501,
      "Ġverf": 2502,
      "ĠBlau": 2503,
      "ĠBlÃ¤t": 2504,
      "ĠBÃ¼ro": 2505,
      "ĠPferden": 2506,
      "ĠSchlauch": 2507,
      "gebiet": 2508,
      "ĠGelÃ¤nde": 2509,
      "ahnen": 2510,
      "schlÃ¤ger": 2511,
      "schlossen": 2512,
      "Ġalle": 2513,
      "ĠVerkehr": 2514,
      "ĠAkkor": 2515,
      "ĠEinkaufswagen": 2516,
      "Ġchines": 2517,
      "ĠMobiltelefon": 2518,
      "hang": 2519,
      "lung": 2520,
      "luft": 2521,
      "sern": 2522,
      "ve": 2523,
      "Ġso": 2524,
      "Ġdreht": 2525,
      "Ġbeste": 2526,
      "ĠKÃ¼nstler": 2527,
      "bereich": 2528,
      "atz": 2529,
      "ilfe": 2530,
      "igem": 2531,
      "ĠAngel": 2532,
      "ĠErde": 2533,
      "ĠgrÃ¼nes": 2534,
      "druck": 2535,
      "Ġorangefarbenem": 2536,
      "ĠFelswand": 2537,
      "ĠHalsband": 2538,
      "ĠFlugzeug": 2539,
      "treppe": 2540,
      "ĠSurfbrett": 2541,
      "ĠKlassenzimmer": 2542,
      "ĠKapuzen": 2543,
      "Ġirgend": 2544,
      "ĠfÃ¤llt": 2545,
      "ĠAkkordeon": 2546,
      "Bei": 2547,
      "Es": 2548,
      "aÃŁ": 2549,
      "by": 2550,
      "bel": 2551,
      "fÃ¤hrt": 2552,
      "ift": 2553,
      "nung": 2554,
      "uh": 2555,
      "eicht": 2556,
      "Ã¤hn": 2557,
      "ĠFleisch": 2558,
      "ĠBul": 2559,
      "ĠKla": 2560,
      "Ġzeigen": 2561,
      "roten": 2562,
      "Ġdies": 2563,
      "Ġwunder": 2564,
      "ĠfÃ¼nf": 2565,
      "ĠSchiedsrichter": 2566,
      "pren": 2567,
      "Ġras": 2568,
      "dert": 2569,
      "ugel": 2570,
      "anzÃ¼gen": 2571,
      "ĠTrain": 2572,
      "wegs": 2573,
      "Ġrothaarige": 2574,
      "Ġdessen": 2575,
      "ĠSchlamm": 2576,
      "ĠlÃ¤chelnde": 2577,
      "Ġreiten": 2578,
      "ĠBadehose": 2579,
      "Ġbelebte": 2580,
      "Ġdavor": 2581,
      "ĠkÃ¼ssen": 2582,
      "Ġschmutz": 2583,
      "ĠKanu": 2584,
      "Ġhellbrauner": 2585,
      "ĠWeihnachts": 2586,
      "Ġunbefestigten": 2587,
      "ĠGolf": 2588,
      "ĠHÃ¶he": 2589,
      "ĠSicherheit": 2590,
      "anktop": 2591,
      "fr": 2592,
      "kar": 2593,
      "pÃ¤": 2594,
      "zaun": 2595,
      "schild": 2596,
      "schaften": 2597,
      "ongl": 2598,
      "aler": 2599,
      "ĠPick": 2600,
      "Ġkahl": 2601,
      "ĠTanktop": 2602,
      "Ġfor": 2603,
      "ĠSchla": 2604,
      "ĠLoch": 2605,
      "irn": 2606,
      "Ġtrain": 2607,
      "Ġseines": 2608,
      "Ġaussieht": 2609,
      "ĠZimmer": 2610,
      "ehrt": 2611,
      "ĠOberteilen": 2612,
      "fahrzeug": 2613,
      "Ġerwachsen": 2614,
      "Ġredet": 2615,
      "ĠInnen": 2616,
      "Ġbraunem": 2617,
      "brunnen": 2618,
      "ĠSchuhe": 2619,
      "ĠÃľ": 2620,
      "Ġleuchtend": 2621,
      "Ġweibliche": 2622,
      "ĠSeifenblasen": 2623,
      "nahme": 2624,
      "land": 2625,
      "lett": 2626,
      "zel": 2627,
      "auen": 2628,
      "eitet": 2629,
      "Ã¤m": 2630,
      "ĠSte": 2631,
      "ĠFall": 2632,
      "Ã¼ckt": 2633,
      "one": 2634,
      "stad": 2635,
      "Ġkomp": 2636,
      "ĠTeil": 2637,
      "ĠToch": 2638,
      "ĠTischen": 2639,
      "Ġwas": 2640,
      "ĠSchaufen": 2641,
      "iern": 2642,
      "urt": 2643,
      "Ã¶h": 2644,
      "Ġbekleide": 2645,
      "Ġbewe": 2646,
      "rÃ¼net": 2647,
      "ĠEcke": 2648,
      "Ġob": 2649,
      "ĠSchlange": 2650,
      "ĠSpring": 2651,
      "brauner": 2652,
      "Ġverschiedenen": 2653,
      "ĠkÃ¼sst": 2654,
      "ĠSchÃ¼ler": 2655,
      "Ġafro": 2656,
      "ĠTour": 2657,
      "ĠMount": 2658,
      "ĠKreis": 2659,
      "ĠPflanzen": 2660,
      "ĠSchnauze": 2661,
      "unnel": 2662,
      "haki": 2663,
      "ĠMountain": 2664,
      "du": 2665,
      "dach": 2666,
      "dien": 2667,
      "pen": 2668,
      "pro": 2669,
      "erin": 2670,
      "eier": 2671,
      "ĠMilitÃ¤r": 2672,
      "ĠSÃ¤u": 2673,
      "ĠBeg": 2674,
      "weiÃŁe": 2675,
      "ĠTa": 2676,
      "ĠTeich": 2677,
      "ĠWÃ¼": 2678,
      "ĠJahr": 2679,
      "ĠStirn": 2680,
      "endes": 2681,
      "Ġausge": 2682,
      "ĠEle": 2683,
      "Ġpadd": 2684,
      "afel": 2685,
      "ocht": 2686,
      "ĠSpielfeld": 2687,
      "ĠKopft": 2688,
      "igur": 2689,
      "ĠFahrradfahrer": 2690,
      "fahrt": 2691,
      "Ġtau": 2692,
      "ĠTramp": 2693,
      "ĠSpaÃŁ": 2694,
      "Shirts": 2695,
      "ĠStadion": 2696,
      "ĠSkateboarder": 2697,
      "hosen": 2698,
      "ĠTeppich": 2699,
      "ĠKranken": 2700,
      "ĠFootballspieler": 2701,
      "ĠBÃ¤ume": 2702,
      "ĠSchultern": 2703,
      "ĠÃ¶ff": 2704,
      "ĠRennstrecke": 2705,
      "ĠGerÃ¼st": 2706,
      "ĠschÃ¶nen": 2707,
      "ĠTromm": 2708,
      "Ġgeschm": 2709,
      "Ġfarbenfrohen": 2710,
      "kÃ¶pfiger": 2711,
      "Ġbemalt": 2712,
      "Ġlilafarbenen": 2713,
      "ĠKaffee": 2714,
      "indernis": 2715,
      "Ġgrasbewachsenen": 2716,
      "Ġwundersch": 2717,
      "ĠTochter": 2718,
      "ĠMountainbik": 2719,
      "Ho": 2720,
      "gelt": 2721,
      "nis": 2722,
      "Ġen": 2723,
      "enkt": 2724,
      "chten": 2725,
      "eiÃŁ": 2726,
      "ĠFlasche": 2727,
      "ĠHaufen": 2728,
      "Ġbis": 2729,
      "ĠKunden": 2730,
      "ĠGeige": 2731,
      "cker": 2732,
      "Ġkocht": 2733,
      "ĠTasse": 2734,
      "ĠRÃ¼ck": 2735,
      "reifen": 2736,
      "urr": 2737,
      "ĠHunden": 2738,
      "prÃ¼": 2739,
      "Ġjog": 2740,
      "ĠEl": 2741,
      "farbener": 2742,
      "ĠLuftball": 2743,
      "zene": 2744,
      "Dies": 2745,
      "ĠFlie": 2746,
      "ansp": 2747,
      "strukt": 2748,
      "Ġrecht": 2749,
      "ĠKarate": 2750,
      "ĠKai": 2751,
      "dient": 2752,
      "Ġfrisch": 2753,
      "ĠmÃ¤nnlicher": 2754,
      "ĠVerkauf": 2755,
      "igkeit": 2756,
      "ĠSax": 2757,
      "erleader": 2758,
      "ĠCafÃ©": 2759,
      "ĠHula": 2760,
      "ĠKirche": 2761,
      "Ġgepflasterten": 2762,
      "ĠLastwagen": 2763,
      "Bauarbeiter": 2764,
      "ay": 2765,
      "bad": 2766,
      "belt": 2767,
      "fte": 2768,
      "kw": 2769,
      "linie": 2770,
      "pe": 2771,
      "sh": 2772,
      "wÃ¤rt": 2773,
      "eifen": 2774,
      "ĠMitt": 2775,
      "ĠFischer": 2776,
      "Ġaufger": 2777,
      "Ã¼s": 2778,
      "ĠHindernis": 2779,
      "Ġhei": 2780,
      "ĠPlat": 2781,
      "Ġkon": 2782,
      "Ġgeschlossen": 2783,
      "ĠWind": 2784,
      "Ġfels": 2785,
      "ĠLie": 2786,
      "urg": 2787,
      "olin": 2788,
      "olden": 2789,
      "Ġjongl": 2790,
      "ment": 2791,
      "gerÃ¤t": 2792,
      "ĠZÃ¤": 2793,
      "ĠNach": 2794,
      "bogen": 2795,
      "Ġunterwegs": 2796,
      "ester": 2797,
      "omm": 2798,
      "Ġorient": 2799,
      "ammer": 2800,
      "ĠParkbank": 2801,
      "alto": 2802,
      "Ġasiatisch": 2803,
      "Ġhellen": 2804,
      "ĠSoft": 2805,
      "ĠMeeres": 2806,
      "ĠKÃ¼ste": 2807,
      "iform": 2808,
      "ĠSchuh": 2809,
      "ĠKappe": 2810,
      "ĠLandschaft": 2811,
      "ĠFreunden": 2812,
      "Ġaussehende": 2813,
      "Ġumarmen": 2814,
      "igkeiten": 2815,
      "kappe": 2816,
      "ĠObjekt": 2817,
      "ĠBalkon": 2818,
      "Ġmarsch": 2819,
      "Ġgegnerischen": 2820,
      "Ġschaukelt": 2821,
      "ĠSchaufel": 2822,
      "Ġafroamerikan": 2823,
      "Ġoriental": 2824,
      "FuÃŁ": 2825,
      "Qu": 2826,
      "ffer": 2827,
      "hÃ¤lter": 2828,
      "kop": 2829,
      "lauf": 2830,
      "oo": 2831,
      "ool": 2832,
      "Ġa": 2833,
      "ĠÃ¤rm": 2834,
      "Ġdam": 2835,
      "ĠMahl": 2836,
      "ĠSachen": 2837,
      "ĠFarben": 2838,
      "arbe": 2839,
      "ĠHang": 2840,
      "ĠHelmen": 2841,
      "test": 2842,
      "ĠbrÃ¼net": 2843,
      "ĠGasse": 2844,
      "ĠhÃ¤ngen": 2845,
      "alter": 2846,
      "Ġgie": 2847,
      "Ġwein": 2848,
      "ĠWein": 2849,
      "ĠStroh": 2850,
      "Ġbedient": 2851,
      "ĠZiel": 2852,
      "licht": 2853,
      "ĠBlatt": 2854,
      "Dieser": 2855,
      "schaukel": 2856,
      "ĠFlÃ¼": 2857,
      "Ġgrauer": 2858,
      "ĠAuÃŁen": 2859,
      "Ġdunkler": 2860,
      "ĠSchwimmbrille": 2861,
      "ĠSteine": 2862,
      "ĠGegenstÃ¤n": 2863,
      "Ġruh": 2864,
      "ĠFlaggen": 2865,
      "ĠSchutzhelmen": 2866,
      "schwarzer": 2867,
      "Ġvioletten": 2868,
      "ĠKatze": 2869,
      "Ġentspannt": 2870,
      "Ġbeleuchteten": 2871,
      "ĠKapuzenp": 2872,
      "stadt": 2873,
      "ĠTrampolin": 2874,
      "ĠÃ¤rmell": 2875,
      "Ġdamit": 2876,
      "ackt": 2877,
      "fÃ¼llten": 2878,
      "inn": 2879,
      "inen": 2880,
      "ĠMaske": 2881,
      "ĠFahnen": 2882,
      "Ġaufge": 2883,
      "ĠBad": 2884,
      "ĠKe": 2885,
      "tert": 2886,
      "anda": 2887,
      "Ġgezogen": 2888,
      "Ġwur": 2889,
      "berteil": 2890,
      "ierter": 2891,
      "ĠStrecke": 2892,
      "ildern": 2893,
      "ĠStoff": 2894,
      "Ã¤ndern": 2895,
      "Ġgele": 2896,
      "ĠSkater": 2897,
      "ĠSkiern": 2898,
      "Ġhinab": 2899,
      "zeugen": 2900,
      "Ġsteigt": 2901,
      "Ã¶rm": 2902,
      "ĠBerge": 2903,
      "Ġbefest": 2904,
      "ĠFeldweg": 2905,
      "sperr": 2906,
      "veranstaltung": 2907,
      "flug": 2908,
      "ĠInl": 2909,
      "ĠGesichts": 2910,
      "ĠSeiten": 2911,
      "ĠKreuz": 2912,
      "ĠKunstwerk": 2913,
      "auto": 2914,
      "sprung": 2915,
      "ĠTurner": 2916,
      "Ġlangem": 2917,
      "ĠSchÃ¼ssel": 2918,
      "ĠNew": 2919,
      "hÃ¼gel": 2920,
      "ĠhÃ¼pft": 2921,
      "ĠKopfhÃ¶rer": 2922,
      "bewerb": 2923,
      "Ġholt": 2924,
      "Ġverwendet": 2925,
      "ĠBullen": 2926,
      "ĠSchlaf": 2927,
      "ĠSpringbrunnen": 2928,
      "Ġjongliert": 2929,
      "bis": 2930,
      "del": 2931,
      "kat": 2932,
      "ru": 2933,
      "richtung": 2934,
      "zeigt": 2935,
      "Ã¤st": 2936,
      "Ã¤ten": 2937,
      "ĠFe": 2938,
      "Ã¼te": 2939,
      "Ã¼ne": 2940,
      "ĠHot": 2941,
      "ĠKur": 2942,
      "ĠGro": 2943,
      "ale": 2944,
      "ros": 2945,
      "Ġkr": 2946,
      "Ġkauft": 2947,
      "ĠTerr": 2948,
      "ĠgeschÃ¤ft": 2949,
      "ĠgesÃ¤": 2950,
      "ĠLaub": 2951,
      "umpf": 2952,
      "ballspieler": 2953,
      "Ġnur": 2954,
      "lagen": 2955,
      "omaten": 2956,
      "ĠSpei": 2957,
      "ĠKlippe": 2958,
      "ĠlÃ¤chelnder": 2959,
      "ĠschieÃŁt": 2960,
      "ĠEishockey": 2961,
      "ĠUmzug": 2962,
      "Ġfliegen": 2963,
      "dio": 2964,
      "erbung": 2965,
      "kostÃ¼m": 2966,
      "ĠCouch": 2967,
      "ĠAbend": 2968,
      "Ġlinks": 2969,
      "zÃ¤un": 2970,
      "ĠSicherheits": 2971,
      "ĠPickn": 2972,
      "ĠSchaufenster": 2973,
      "Ġrechts": 2974,
      "An": 2975,
      "baren": 2976,
      "helm": 2977,
      "kate": 2978,
      "mit": 2979,
      "osten": 2980,
      "seite": 2981,
      "yl": 2982,
      "Ġ2": 2983,
      "inge": 2984,
      "Ġeinsam": 2985,
      "emon": 2986,
      "ement": 2987,
      "eister": 2988,
      "Ġinter": 2989,
      "gegen": 2990,
      "ard": 2991,
      "ĠBilder": 2992,
      "ond": 2993,
      "weise": 2994,
      "ĠGlei": 2995,
      "ichtet": 2996,
      "Ġgril": 2997,
      "Ġgolden": 2998,
      "ĠTeller": 2999,
      "ĠgeÃ¶ff": 3000,
      "ĠWurf": 3001,
      "ĠLicht": 3002,
      "ĠLkw": 3003,
      "ĠblÃ¤st": 3004,
      "umten": 3005,
      "ĠGrim": 3006,
      "ĠGeschen": 3007,
      "Ã¼rde": 3008,
      "Ġverh": 3009,
      "teilen": 3010,
      "ospiel": 3011,
      "blas": 3012,
      "ĠBÃ¼cher": 3013,
      "stÃ¼cke": 3014,
      "stÃ¼hlen": 3015,
      "apel": 3016,
      "ĠberÃ¼hrt": 3017,
      "sstand": 3018,
      "ophon": 3019,
      "Ġhellblauen": 3020,
      "âĢľ-": 3021,
      "ĠBrett": 3022,
      "Ġheben": 3023,
      "ĠProjekt": 3024,
      "Ġruht": 3025,
      "Ġaussehender": 3026,
      "Ġschlafen": 3027,
      "ĠCowboyhut": 3028,
      "Ġfotografieren": 3029,
      "ĠdunkelhÃ¤utige": 3030,
      "Ġreparieren": 3031,
      "ĠInstrumenten": 3032,
      "ĠbarfuÃŁ": 3033,
      "ĠAsiate": 3034,
      "ĠAnzÃ¼gen": 3035,
      "Ġwandert": 3036,
      "Ġbekommt": 3037,
      "ĠschÃ¼ttelt": 3038,
      "Ġverfolgt": 3039,
      "ĠFallschirm": 3040,
      "ĠWÃ¼ste": 3041,
      "ĠKopftuch": 3042,
      "ĠwunderschÃ¶": 3043,
      "Hoop": 3044,
      "Ġgrillt": 3045,
      "aht": 3046,
      "ĠQu": 3047,
      "Ġdir": 3048,
      "scheibe": 3049,
      "orn": 3050,
      "itze": 3051,
      "ĠvorÃ¼ber": 3052,
      "ĠÃ¼berfÃ¼llten": 3053,
      "Ġbesch": 3054,
      "Ġbest": 3055,
      "Ġnie": 3056,
      "ĠPersonengruppe": 3057,
      "ĠNase": 3058,
      "iertem": 3059,
      "Ġschauf": 3060,
      "aufnahme": 3061,
      "Ã¼tzen": 3062,
      "ĠGitarri": 3063,
      "ĠStraÃŁenk": 3064,
      "hoben": 3065,
      "Ġbraunhaarige": 3066,
      "schuhe": 3067,
      "MÃ¤dchen": 3068,
      "Ġhockt": 3069,
      "ĠVeranda": 3070,
      "Schw": 3071,
      "ĠFreunde": 3072,
      "ĠÃĦ": 3073,
      "ĠBeinen": 3074,
      "ĠHandtasche": 3075,
      "ĠWettkampf": 3076,
      "ĠInstrumente": 3077,
      "verkÃ¤ufer": 3078,
      "Ġreinigt": 3079,
      "Ġbestehen": 3080,
      "Ġgeschlossenen": 3081,
      "ĠMahlzeit": 3082,
      "bus": 3083,
      "bart": 3084,
      "baum": 3085,
      "fft": 3086,
      "flasche": 3087,
      "fÃ¼hrung": 3088,
      "ib": 3089,
      "ic": 3090,
      "lÃ¤ufer": 3091,
      "uder": 3092,
      "Ġunge": 3093,
      "erfer": 3094,
      "eiben": 3095,
      "Ã¤fer": 3096,
      "elten": 3097,
      "eles": 3098,
      "ĠSitzen": 3099,
      "ĠSalto": 3100,
      "Ġauch": 3101,
      "Ã¼m": 3102,
      "Ġbauen": 3103,
      "ĠBach": 3104,
      "ĠKart": 3105,
      "alon": 3106,
      "ross": 3107,
      "Ġgebl": 3108,
      "Ġfarb": 3109,
      "Ġlinken": 3110,
      "sent": 3111,
      "Ġjub": 3112,
      "ĠEi": 3113,
      "Ã¼rt": 3114,
      "Ġumher": 3115,
      "ĠWasserfall": 3116,
      "ĠamÃ¼s": 3117,
      "ĠBox": 3118,
      "arbeiten": 3119,
      "Ġstark": 3120,
      "Ġvorbeigehen": 3121,
      "apan": 3122,
      "ĠErd": 3123,
      "eichnet": 3124,
      "ĠReiter": 3125,
      "gestellt": 3126,
      "smann": 3127,
      "ĠHauses": 3128,
      "glas": 3129,
      "Ġgucken": 3130,
      "Ġschnell": 3131,
      "ĠhÃ¼b": 3132,
      "ĠGebiet": 3133,
      "schirr": 3134,
      "schirmen": 3135,
      "zentrum": 3136,
      "ĠYork": 3137,
      "Ġtraditioneller": 3138,
      "ĠAsiatin": 3139,
      "instrumen": 3140,
      "Ġpinkfarbenem": 3141,
      "Ġdiesem": 3142,
      "ĠÃ¶ffnet": 3143,
      "Ġfelsigen": 3144,
      "ĠZÃ¤hne": 3145,
      "eleskop": 3146,
      "'s": 3147,
      "atr": 3148,
      "brillen": 3149,
      "cr": 3150,
      "ebt": 3151,
      "hafen": 3152,
      "ippen": 3153,
      "laden": 3154,
      "muster": 3155,
      "opren": 3156,
      "sicht": 3157,
      "tisch": 3158,
      "yboard": 3159,
      "enk": 3160,
      "ere": 3161,
      "chs": 3162,
      "chern": 3163,
      "Ġmehr": 3164,
      "ĠFor": 3165,
      "ĠFest": 3166,
      "Ġaufblas": 3167,
      "Ã¼l": 3168,
      "schlag": 3169,
      "onen": 3170,
      "Ġkann": 3171,
      "Ġanh": 3172,
      "ĠWel": 3173,
      "ĠWÃ¤sche": 3174,
      "bereitet": 3175,
      "etzen": 3176,
      "denten": 3177,
      "Ġje": 3178,
      "Ġbeige": 3179,
      "Ġbedeck": 3180,
      "isk": 3181,
      "Ġverz": 3182,
      "ĠFahrrÃ¤der": 3183,
      "Ġuntersch": 3184,
      "Ġerkl": 3185,
      "Ġsteigen": 3186,
      "ettungs": 3187,
      "ĠGewehr": 3188,
      "ĠSteinen": 3189,
      "ĠKÃ¼chen": 3190,
      "stehen": 3191,
      "ĠSportler": 3192,
      "ĠGeschÃ¤fts": 3193,
      "Ġschneiden": 3194,
      "ĠfrÃ¶h": 3195,
      "ĠlangÃ¤rm": 3196,
      "ĠGetrÃ¤nke": 3197,
      "schnitten": 3198,
      "ĠNeopren": 3199,
      "ĠWinterkleidung": 3200,
      "schwarzen": 3201,
      "ĠKerl": 3202,
      "ĠLederjacke": 3203,
      "ĠwÃ¤scht": 3204,
      "Ġuntersucht": 3205,
      "ĠBlÃ¤tter": 3206,
      "pÃ¤ck": 3207,
      "Ġtaucht": 3208,
      "struktion": 3209,
      "wÃ¤rts": 3210,
      "ĠGroÃŁ": 3211,
      "Sieben": 3212,
      "hÃ¤nd": 3213,
      "mantel": 3214,
      "nes": 3215,
      "ton": 3216,
      "viert": 3217,
      "xt": 3218,
      "Ġpfl": 3219,
      "Ġeinzel": 3220,
      "Ġsau": 3221,
      "Ġsamm": 3222,
      "eile": 3223,
      "eibt": 3224,
      "ĠHe": 3225,
      "scher": 3226,
      "schein": 3227,
      "stag": 3228,
      "Ġvollen": 3229,
      "ĠKissen": 3230,
      "ĠKuh": 3231,
      "ĠPal": 3232,
      "rol": 3233,
      "Ġkickt": 3234,
      "ĠTuch": 3235,
      "ĠTarn": 3236,
      "Ġgetr": 3237,
      "Ġwen": 3238,
      "ĠRing": 3239,
      "Ã¤llen": 3240,
      "ĠGrÃ¼n": 3241,
      "Ã¤nden": 3242,
      "Ġbeieinander": 3243,
      "ĠOl": 3244,
      "ĠZunge": 3245,
      "Ġneu": 3246,
      "ĠnÃ¤ch": 3247,
      "Ġsitzende": 3248,
      "Ġentfern": 3249,
      "Ġgelegt": 3250,
      "fahrern": 3251,
      "zeuge": 3252,
      "ĠKamer": 3253,
      "Ġnachdem": 3254,
      "icker": 3255,
      "ĠEingang": 3256,
      "Ġdarunter": 3257,
      "ulli": 3258,
      "braunen": 3259,
      "Ġdunkelhaarige": 3260,
      "Ġstreich": 3261,
      "azier": 3262,
      "Ġallein": 3263,
      "ĠGerÃ¤t": 3264,
      "ance": 3265,
      "Ġhellbraunen": 3266,
      "ĠTeams": 3267,
      "Kleine": 3268,
      "ĠÃ¼bt": 3269,
      "Ġweitere": 3270,
      "ĠFuÃŁgÃ¤ngerÃ¼ber": 3271,
      "ĠSees": 3272,
      "ĠCheerleader": 3273,
      "Fahrer": 3274,
      "ĠBaumstamm": 3275,
      "ĠJahrmarkt": 3276,
      "ĠgieÃŁt": 3277,
      "Ġwurde": 3278,
      "ĠKurve": 3279,
      "ĠTerrasse": 3280,
      "ete": 3281,
      "hem": 3282,
      "hÃ¤ngen": 3283,
      "icken": 3284,
      "kÃ¼": 3285,
      "los": 3286,
      "ose": 3287,
      "opf": 3288,
      "Ġe": 3289,
      "itter": 3290,
      "elfen": 3291,
      "ĠmÃ¶": 3292,
      "are": 3293,
      "testelle": 3294,
      "ĠBrÃ¤": 3295,
      "ĠBord": 3296,
      "stoff": 3297,
      "ĠhÃ¶l": 3298,
      "Ġhelfen": 3299,
      "ichten": 3300,
      "Ġger": 3301,
      "Ġgold": 3302,
      "ĠTunnel": 3303,
      "ĠTeleskop": 3304,
      "ĠJo": 3305,
      "Ġvorn": 3306,
      "ĠLager": 3307,
      "ilden": 3308,
      "utig": 3309,
      "eucht": 3310,
      "Ã¶cke": 3311,
      "Ġreg": 3312,
      "Ġnassen": 3313,
      "pfel": 3314,
      "ĠDre": 3315,
      "ĠDunk": 3316,
      "Ġhinaus": 3317,
      "Ġhinterher": 3318,
      "Ã¼tte": 3319,
      "ickelt": 3320,
      "Ġgestreif": 3321,
      "ĠBecher": 3322,
      "ĠBrust": 3323,
      "ĠAusrÃ¼stung": 3324,
      "ĠRollstuhl": 3325,
      "Ġkommen": 3326,
      "Ġbringt": 3327,
      "kommen": 3328,
      "Ġgeworfen": 3329,
      "ĠÃ¼ben": 3330,
      "ĠvollfÃ¼hrt": 3331,
      "ĠWeihnacht": 3332,
      "ĠTaucher": 3333,
      "ĠbarfÃ¼ÃŁ": 3334,
      "ĠAsiaten": 3335,
      "Ġamerikanische": 3336,
      "Ã¶nnen": 3337,
      "ĠnÃ¤h": 3338,
      "Ġrasiert": 3339,
      "ĠTouristen": 3340,
      "ansport": 3341,
      "Ġkonzentr": 3342,
      "ĠGeschenk": 3343,
      "Ġunterschied": 3344,
      "ĠBrÃ¤utig": 3345,
      "ĠBrÃ¤utigam": 3346,
      "bes": 3347,
      "hle": 3348,
      "haufen": 3349,
      "hilfe": 3350,
      "ote": 3351,
      "tasche": 3352,
      "uckt": 3353,
      "wasser": 3354,
      "ymp": 3355,
      "Ġ1": 3356,
      "Ġdan": 3357,
      "ĠMÃ¶": 3358,
      "ĠMod": 3359,
      "ĠMatte": 3360,
      "ĠBM": 3361,
      "ĠBesen": 3362,
      "ĠPer": 3363,
      "ĠTÃ¤tow": 3364,
      "ĠMÃ¤nt": 3365,
      "Ġgeben": 3366,
      "Ġgezeigt": 3367,
      "Ġangelt": 3368,
      "Ġfert": 3369,
      "bern": 3370,
      "iere": 3371,
      "Ġsitzender": 3372,
      "Ġweit": 3373,
      "ĠGesch": 3374,
      "ĠGeschirr": 3375,
      "ĠGepÃ¤ck": 3376,
      "ĠÃ¼berprÃ¼": 3377,
      "Ġringen": 3378,
      "pfer": 3379,
      "Ġsitzenden": 3380,
      "laschen": 3381,
      "ugby": 3382,
      "ĠSpielen": 3383,
      "Ġtief": 3384,
      "Ġstein": 3385,
      "ĠTrÃ¤ger": 3386,
      "ettern": 3387,
      "ĠFotograf": 3388,
      "ĠSkateboardfahrer": 3389,
      "ĠWaldgebiet": 3390,
      "Ġbunte": 3391,
      "ĠKarten": 3392,
      "ĠKarren": 3393,
      "Ġgleitet": 3394,
      "stufen": 3395,
      "ĠArbeitskleidung": 3396,
      "Ġbenutzen": 3397,
      "Ġschreit": 3398,
      "ĠOrt": 3399,
      "ĠÃĸ": 3400,
      "Ġbespr": 3401,
      "Ġverlassen": 3402,
      "gewicht": 3403,
      "Ġdekor": 3404,
      "aktor": 3405,
      "ĠVide": 3406,
      "ĠhellhÃ¤utiger": 3407,
      "Ġfeiern": 3408,
      "Ġpaddelt": 3409,
      "ĠSoftball": 3410,
      "ĠKeyboard": 3411,
      "ĠStraÃŁenkÃ¼nstler": 3412,
      "crem": 3413,
      "ĠNeoprenanzug": 3414,
      "ĠTÃ¤towier": 3415,
      "Gr": 3416,
      "bau": 3417,
      "cross": 3418,
      "fÃ¶rm": 3419,
      "halt": 3420,
      "kte": 3421,
      "man": 3422,
      "ostÃ¼m": 3423,
      "satz": 3424,
      "tform": 3425,
      "wir": 3426,
      "Ġele": 3427,
      "ena": 3428,
      "chester": 3429,
      "anger": 3430,
      "unkt": 3431,
      "Ġselt": 3432,
      "Ã¤cken": 3433,
      "ĠMoto": 3434,
      "itte": 3435,
      "ĠFil": 3436,
      "ĠHeu": 3437,
      "Ġbrei": 3438,
      "ĠBan": 3439,
      "ĠKab": 3440,
      "asst": 3441,
      "ĠPl": 3442,
      "Ġkehrt": 3443,
      "Ġkhaki": 3444,
      "ĠWild": 3445,
      "Ġland": 3446,
      "ĠSchÃ¤fer": 3447,
      "neten": 3448,
      "nehmen": 3449,
      "ĠRettungs": 3450,
      "ĠAfro": 3451,
      "Ã¤lde": 3452,
      "Ã¤lle": 3453,
      "ĠHundes": 3454,
      "ĠGruppen": 3455,
      "Ã¶hn": 3456,
      "Ã¤nder": 3457,
      "ĠEx": 3458,
      "Ġnack": 3459,
      "bekleidung": 3460,
      "ĠNamen": 3461,
      "ĠVÃ¶": 3462,
      "ĠSpiels": 3463,
      "Ġherab": 3464,
      "ĠtÃ¼r": 3465,
      "ĠtÃ¤tow": 3466,
      "ult": 3467,
      "Ġblond": 3468,
      "ocks": 3469,
      "ĠBerges": 3470,
      "Ġlehnen": 3471,
      "ĠSchwimmer": 3472,
      "ĠTennisschlÃ¤ger": 3473,
      "ĠGewand": 3474,
      "ahaufnahme": 3475,
      "ĠAuftritt": 3476,
      "zuf": 3477,
      "ĠProf": 3478,
      "Ġalleine": 3479,
      "schnitt": 3480,
      "fallen": 3481,
      "mannschaft": 3482,
      "ĠFlughafen": 3483,
      "ĠschÃ¶ne": 3484,
      "Ġbegut": 3485,
      "Ġviolett": 3486,
      "ĠHandtuch": 3487,
      "ĠTurnhalle": 3488,
      "ĠPassanten": 3489,
      "gnÃ¼": 3490,
      "Ġverkleidet": 3491,
      "glieder": 3492,
      "ĠglÃ¼cklich": 3493,
      "ĠTheke": 3494,
      "Ġchinesischen": 3495,
      "ĠWeihnachtsbaum": 3496,
      "Ġbewegt": 3497,
      "ĠTrommel": 3498,
      "ĠKapuzenpulli": 3499,
      "ĠÃ¤rmellosen": 3500,
      "zÃ¤unten": 3501,
      "Ġentfernt": 3502,
      "Ġkonzentriert": 3503,
      "ĠMÃ¤nteln": 3504,
      "Ġseltsam": 3505,
      "ĠMotocross": 3506,
      "Ge": 3507,
      "Te": 3508,
      "grau": 3509,
      "ippt": 3510,
      "Ġ\"": 3511,
      "Ã¤sern": 3512,
      "ĠSm": 3513,
      "ĠSegel": 3514,
      "ĠFrÃ¼": 3515,
      "ĠFarbe": 3516,
      "Ã¼ten": 3517,
      "ĠBrot": 3518,
      "ong": 3519,
      "stern": 3520,
      "statt": 3521,
      "ĠKetten": 3522,
      "ĠgrÃ¤": 3523,
      "Ġkalten": 3524,
      "Ġgeh": 3525,
      "ĠWerbung": 3526,
      "ĠfÃ¼t": 3527,
      "Ġfast": 3528,
      "Ġfolgt": 3529,
      "Ġlange": 3530,
      "Ġlassen": 3531,
      "ĠSchot": 3532,
      "ĠSchiff": 3533,
      "ĠJungs": 3534,
      "ĠRugby": 3535,
      "ole": 3536,
      "ĠStapel": 3537,
      "Ġjagen": 3538,
      "Ã¶te": 3539,
      "gerÃ¼st": 3540,
      "Ã¤nken": 3541,
      "legest": 3542,
      "ĠZement": 3543,
      "Ġnass": 3544,
      "ĠDau": 3545,
      "Ġentgegen": 3546,
      "ĠHandstand": 3547,
      "ĠFahrer": 3548,
      "ĠVers": 3549,
      "ĠViol": 3550,
      "ĠKoffer": 3551,
      "ommen": 3552,
      "ĠUS": 3553,
      "ĠUr": 3554,
      "ĠSkulptur": 3555,
      "ĠBallon": 3556,
      "ĠFreizeit": 3557,
      "ĠSpazier": 3558,
      "ĠFlÃ¤che": 3559,
      "strand": 3560,
      "icket": 3561,
      "ĠFotogr": 3562,
      "Ġrechten": 3563,
      "ĠlÃ¤chelndes": 3564,
      "usiker": 3565,
      "Ġbraunes": 3566,
      "ake": 3567,
      "ĠschieÃŁen": 3568,
      "Ġbunt": 3569,
      "ĠSchnurr": 3570,
      "ĠArbeits": 3571,
      "Ġoffenem": 3572,
      "ĠRolltreppe": 3573,
      "Ġjemanden": 3574,
      "ĠTromp": 3575,
      "ĠIm": 3576,
      "ĠDrachen": 3577,
      "ĠHockeyspieler": 3578,
      "Ġausgestreck": 3579,
      "ĠHochzeits": 3580,
      "ĠWohnzimmer": 3581,
      "ĠAngelru": 3582,
      "Ġtrainiert": 3583,
      "ĠÃľber": 3584,
      "ĠSaxophon": 3585,
      "ĠGegenstÃ¤nde": 3586,
      "Ġbefestigt": 3587,
      "ĠgeschÃ¤ftigen": 3588,
      "ĠhÃ¶lzer": 3589,
      "ĠWeihnachtsmann": 3590,
      "Ġelektr": 3591,
      "ĠgrÃ¤bt": 3592,
      "legestelle": 3593,
      "As": 3594,
      "aal": 3595,
      "bÃ¶r": 3596,
      "glei": 3597,
      "plat": 3598,
      "rutsche": 3599,
      "seit": 3600,
      "salon": 3601,
      "usch": 3602,
      "einw": 3603,
      "Ġsel": 3604,
      "Ġsteilen": 3605,
      "ĠMon": 3606,
      "ĠSitz": 3607,
      "ĠFigur": 3608,
      "ĠHÃ¤u": 3609,
      "ĠHafen": 3610,
      "Ġbaut": 3611,
      "ĠBes": 3612,
      "ĠKi": 3613,
      "ĠGass": 3614,
      "ĠGang": 3615,
      "trÃ¤ger": 3616,
      "ĠPa": 3617,
      "ĠPr": 3618,
      "ĠPÃ¤r": 3619,
      "rock": 3620,
      "ama": 3621,
      "ĠSchaf": 3622,
      "ĠRÃ¤": 3623,
      "reichen": 3624,
      "ĠLehrer": 3625,
      "utel": 3626,
      "ĠStaub": 3627,
      "Ã¶ÃŁer": 3628,
      "Ġrunden": 3629,
      "ĠOze": 3630,
      "Ġihres": 3631,
      "ĠZahn": 3632,
      "ĠDrei": 3633,
      "Ġstehenden": 3634,
      "ĠNot": 3635,
      "Ġplan": 3636,
      "ĠHocke": 3637,
      "ĠBlue": 3638,
      "hlt": 3639,
      "ĠBallons": 3640,
      "Ġhinein": 3641,
      "Ġstatt": 3642,
      "wegung": 3643,
      "ĠSpitze": 3644,
      "Ġblondem": 3645,
      "ops": 3646,
      "ĠSonnenbrillen": 3647,
      "flie": 3648,
      "ĠWandbild": 3649,
      "ĠBaseballkappe": 3650,
      "llt": 3651,
      "geboren": 3652,
      "ĠBildschirm": 3653,
      "affel": 3654,
      "ĠBehÃ¤lter": 3655,
      "ĠKunststÃ¼cke": 3656,
      "ĠPfÃ¼tze": 3657,
      "ĠPfosten": 3658,
      "attoo": 3659,
      "ĠPolizei": 3660,
      "ĠBushal": 3661,
      "ĠGemÃ¤lde": 3662,
      "ĠPlakat": 3663,
      "Ġbringen": 3664,
      "ĠTopf": 3665,
      "ĠLebensmitt": 3666,
      "Kleiner": 3667,
      "ĠhÃ¶ren": 3668,
      "ĠbewÃ¶l": 3669,
      "ĠSoldat": 3670,
      "ĠKnie": 3671,
      "Ġkochen": 3672,
      "ĠWerkzeug": 3673,
      "mÃ¤nner": 3674,
      "ĠFÃ¼ÃŁen": 3675,
      "ĠLabor": 3676,
      "ĠKlav": 3677,
      "ĠkahlkÃ¶pfiger": 3678,
      "Ġform": 3679,
      "Ġkomplett": 3680,
      "ĠMountainbike": 3681,
      "ĠbrÃ¼nette": 3682,
      "Ġweint": 3683,
      "Ġgelehnt": 3684,
      "Ġschaufelt": 3685,
      "Ġmehrfarb": 3686,
      "Ġstreichelt": 3687,
      "ĠnÃ¤hert": 3688,
      "Ġdaneben": 3689,
      "ĠBMX": 3690,
      "ĠTrÃ¤gerhemd": 3691,
      "ĠVideospiel": 3692,
      "ĠSchÃ¤ferhund": 3693,
      "ĠAfroamerikan": 3694,
      "ĠDaumen": 3695,
      "ĠhÃ¶lzernen": 3696,
      "ĠPÃ¤rchen": 3697,
      "ĠBushaltestelle": 3698,
      "Da": 3699,
      "bung": 3700,
      "dy": 3701,
      "gitarre": 3702,
      "ia": 3703,
      "kan": 3704,
      "kugel": 3705,
      "lern": 3706,
      "locks": 3707,
      "merk": 3708,
      "richt": 3709,
      "szene": 3710,
      "tm": 3711,
      "xen": 3712,
      "ym": 3713,
      "zeichen": 3714,
      "ausch": 3715,
      "anlage": 3716,
      "ĠMess": 3717,
      "eligen": 3718,
      "ĠSu": 3719,
      "ĠFeier": 3720,
      "Ã¼ler": 3721,
      "ĠHammer": 3722,
      "ĠHÃ¼rde": 3723,
      "Ġbie": 3724,
      "schm": 3725,
      "stange": 3726,
      "ĠGumm": 3727,
      "ĠPit": 3728,
      "ĠPier": 3729,
      "Ġzeichnet": 3730,
      "rok": 3731,
      "Ġkau": 3732,
      "Ġgespr": 3733,
      "ĠWe": 3734,
      "ĠWal": 3735,
      "Ġlock": 3736,
      "ĠlÃ¤nd": 3737,
      "ĠSchr": 3738,
      "ĠSchlei": 3739,
      "ĠJog": 3740,
      "neh": 3741,
      "Ġklat": 3742,
      "adlocks": 3743,
      "othe": 3744,
      "ĠStier": 3745,
      "ĠbeschÃ¤ft": 3746,
      "Ġspritzt": 3747,
      "anze": 3748,
      "ĠBalls": 3749,
      "samm": 3750,
      "ĠSkatepark": 3751,
      "ĠStadtstraÃŁe": 3752,
      "Ġsechs": 3753,
      "ĠMotorrÃ¤dern": 3754,
      "dessen": 3755,
      "haarigen": 3756,
      "rise": 3757,
      "ĠSocken": 3758,
      "ĠSteinmauer": 3759,
      "ampen": 3760,
      "ĠRestaurants": 3761,
      "gestell": 3762,
      "netz": 3763,
      "skulptur": 3764,
      "Schild": 3765,
      "ĠGraffitis": 3766,
      "Ġscheinen": 3767,
      "Ġschlaf": 3768,
      "ĠBahnsteig": 3769,
      "ĠZuschauermenge": 3770,
      "weiÃŁem": 3771,
      "hÃ¼ter": 3772,
      "Ġbewund": 3773,
      "ĠEinkaufszentrum": 3774,
      "ĠDeck": 3775,
      "ĠjÃ¼ngeren": 3776,
      "ĠKopfhÃ¶rern": 3777,
      "instrument": 3778,
      "Ġgeparkt": 3779,
      "ĠTrainings": 3780,
      "Ġschmutzigen": 3781,
      "ĠKrankenhaus": 3782,
      "Ġjoggt": 3783,
      "Dieses": 3784,
      "ĠheiÃŁen": 3785,
      "ĠPicknickt": 3786,
      "kates": 3787,
      "Ġgoldenen": 3788,
      "ĠwunderschÃ¶nen": 3789,
      "ĠgeblÃ¼m": 3790,
      "hÃ¤ndler": 3791,
      "ĠJockey": 3792,
      "ĠDreadlocks": 3793,
      "creme": 3794,
      "ĠSchnurrbart": 3795,
      "Ġausgestreckten": 3796,
      "ĠGassi": 3797,
      "ĠKlavier": 3798,
      "merksam": 3799,
      "Bl": 3800,
      "Er": 3801,
      "Gitarre": 3802,
      "Im": 3803,
      "Jungen": 3804,
      "Reifen": 3805,
      "bem": 3806,
      "hmaschine": 3807,
      "keit": 3808,
      "nem": 3809,
      "ood": 3810,
      "tÃ¼te": 3811,
      "up": 3812,
      "zern": 3813,
      "Ġ(": 3814,
      "Ġ3": 3815,
      "Ġar": 3816,
      "innt": 3817,
      "enz": 3818,
      "einen": 3819,
      "eines": 3820,
      "chter": 3821,
      "eir": 3822,
      "Ã¤ften": 3823,
      "Ġdisk": 3824,
      "ĠMop": 3825,
      "Ġmus": 3826,
      "ĠFa": 3827,
      "Ġaufs": 3828,
      "Ġbo": 3829,
      "stock": 3830,
      "ĠKÃ¤": 3831,
      "ĠKÃ¶rper": 3832,
      "ĠKisten": 3833,
      "ĠKies": 3834,
      "ask": 3835,
      "ĠGold": 3836,
      "orf": 3837,
      "Ġhalb": 3838,
      "trick": 3839,
      "trakt": 3840,
      "ichtern": 3841,
      "ĠTon": 3842,
      "ĠTab": 3843,
      "Ġwa": 3844,
      "Ġanzu": 3845,
      "ĠSchne": 3846,
      "ĠJack": 3847,
      "reiche": 3848,
      "ĠStrom": 3849,
      "ativ": 3850,
      "ĠMÃ¤dchens": 3851,
      "Ġschwach": 3852,
      "euert": 3853,
      "dent": 3854,
      "ĠGegner": 3855,
      "ĠSto": 3856,
      "ĠStab": 3857,
      "prÃ¤ch": 3858,
      "Ã¤ng": 3859,
      "ĠZu": 3860,
      "ĠZie": 3861,
      "ĠZeichen": 3862,
      "ĠMenschengruppe": 3863,
      "Ġnah": 3864,
      "ĠNicker": 3865,
      "Ġpassen": 3866,
      "Ġverb": 3867,
      "arbeit": 3868,
      "arbeitet": 3869,
      "ĠÃ¤lteres": 3870,
      "ĠHinterhof": 3871,
      "Ġerl": 3872,
      "ĠTraktor": 3873,
      "ĠBauch": 3874,
      "ĠvorbeifÃ¤hrt": 3875,
      "Ġhochge": 3876,
      "agieren": 3877,
      "ĠNÃ¤hmaschine": 3878,
      "ĠAnlegestelle": 3879,
      "Ġzusammenge": 3880,
      "ĠSandd": 3881,
      "ĠEssens": 3882,
      "ĠRede": 3883,
      "ĠBaseballspiel": 3884,
      "ĠBaseballmÃ¼tze": 3885,
      "affe": 3886,
      "ĠBekleidung": 3887,
      "aschinen": 3888,
      "ĠBrand": 3889,
      "useum": 3890,
      "ahmen": 3891,
      "Ġrosafarbenem": 3892,
      "ĠSchutzbrille": 3893,
      "Ġrudert": 3894,
      "Ġlanghaariger": 3895,
      "klam": 3896,
      "ĠkÃ¼mm": 3897,
      "ĠGetrÃ¤nken": 3898,
      "arren": 3899,
      "ĠBahnhof": 3900,
      "Ġbrennen": 3901,
      "bildschirm": 3902,
      "ĠHerbst": 3903,
      "ĠGeldbÃ¶r": 3904,
      "ĠRollerbl": 3905,
      "ĠBowlingbahn": 3906,
      "ĠKletterer": 3907,
      "Ġsilbernen": 3908,
      "ĠFingern": 3909,
      "ĠFÃ¼ÃŁe": 3910,
      "ĠLuftballons": 3911,
      "ĠFlÃ¼ss": 3912,
      "ĠInlines": 3913,
      "ĠKreuzung": 3914,
      "ĠgesÃ¤umten": 3915,
      "ĠSpeisen": 3916,
      "Ġdirekt": 3917,
      "ĠGitarrist": 3918,
      "Ġeinzelner": 3919,
      "ĠModell": 3920,
      "ĠbeschÃ¤ftigt": 3921,
      "Ġdiskut": 3922,
      "ĠNickerchen": 3923,
      "Mit": 3924,
      "Un": 3925,
      "ail": 3926,
      "eet": 3927,
      "hunde": 3928,
      "je": 3929,
      "laufen": 3930,
      "pool": 3931,
      "ucken": 3932,
      "wett": 3933,
      "wanne": 3934,
      "xi": 3935,
      "zeich": 3936,
      "ensch": 3937,
      "emp": 3938,
      "une": 3939,
      "eid": 3940,
      "eisten": 3941,
      "Ã¤ht": 3942,
      "Ġdicht": 3943,
      "ity": 3944,
      "ĠSil": 3945,
      "ĠSÃ¼ÃŁ": 3946,
      "ĠFass": 3947,
      "Ġmithilfe": 3948,
      "ĠHÃ¼tte": 3949,
      "ĠBi": 3950,
      "ĠBre": 3951,
      "ĠBÃ¤nken": 3952,
      "schutz": 3953,
      "ĠKÃ¶r": 3954,
      "ĠKegel": 3955,
      "ĠGÃ¼rt": 3956,
      "ortr": 3957,
      "orgen": 3958,
      "trennen": 3959,
      "ĠPiz": 3960,
      "Ġschwei": 3961,
      "rohr": 3962,
      "ĠkÃ¶nnen": 3963,
      "ĠTeig": 3964,
      "Ġget": 3965,
      "Ġgehalten": 3966,
      "ĠWarn": 3967,
      "ĠWÃ¤nden": 3968,
      "ĠlÃ¶": 3969,
      "ĠSchacht": 3970,
      "bert": 3971,
      "ĠRuder": 3972,
      "ĠLa": 3973,
      "ĠLÃ¶": 3974,
      "ĠAt": 3975,
      "ĠStrick": 3976,
      "oliz": 3977,
      "ĠStamm": 3978,
      "ĠStart": 3979,
      "Ġtre": 3980,
      "Ġtrocken": 3981,
      "ika": 3982,
      "Ġbearbeitet": 3983,
      "Ġrunter": 3984,
      "rÃ¼ckt": 3985,
      "ĠZe": 3986,
      "ĠDreck": 3987,
      "ĠDinge": 3988,
      "ĠNa": 3989,
      "last": 3990,
      "ĠBlume": 3991,
      "ĠArena": 3992,
      "zeuger": 3993,
      "ĠstÃ¶": 3994,
      "Ġstellen": 3995,
      "ĠberÃ¼hren": 3996,
      "ettert": 3997,
      "Ġabzu": 3998,
      "kette": 3999,
      "ĠKunststoff": 4000,
      "ĠSchub": 4001,
      "ĠSchule": 4002,
      "ĠRegenschirmen": 4003,
      "ĠRucksÃ¤cken": 4004,
      "automaten": 4005,
      "ĠEnt": 4006,
      "ĠgrÃ¶ÃŁer": 4007,
      "ĠGewÃ¤ssers": 4008,
      "Ġteilen": 4009,
      "ĠRennwagen": 4010,
      "ĠEinkaufst": 4011,
      "ohner": 4012,
      "ĠSchlagzeuger": 4013,
      "Ġmittel": 4014,
      "Ã¶pfe": 4015,
      "ĠOrange": 4016,
      "ĠOrchester": 4017,
      "etzten": 4018,
      "Ġlachend": 4019,
      "ĠOutfits": 4020,
      "Ġbeladen": 4021,
      "ĠHerd": 4022,
      "ĠChor": 4023,
      "konstruktion": 4024,
      "udels": 4025,
      "ĠWettbewerb": 4026,
      "ĠBowlingkugel": 4027,
      "ĠBalken": 4028,
      "ĠKlettergerÃ¼st": 4029,
      "Ġamerikanischen": 4030,
      "Ġafrikanischer": 4031,
      "Ġflausch": 4032,
      "cours": 4033,
      "Ġindische": 4034,
      "ĠVideo": 4035,
      "ĠMittag": 4036,
      "Ġmarschiert": 4037,
      "FuÃŁballspieler": 4038,
      "Ġaber": 4039,
      "ĠStrohhut": 4040,
      "Ġverheir": 4041,
      "ĠamÃ¼sieren": 4042,
      "Ġaufblasbaren": 4043,
      "Ġanhat": 4044,
      "Ġbedeckten": 4045,
      "Ġsteinigen": 4046,
      "ĠTrompete": 4047,
      "ĠAngelrute": 4048,
      "Asiat": 4049,
      "Ġselbst": 4050,
      "ĠRÃ¤dern": 4051,
      "othek": 4052,
      "ĠgeblÃ¼mten": 4053,
      "ĠMoped": 4054,
      "Ġverheirate": 4055,
      "Al": 4056,
      "Fl": 4057,
      "Rad": 4058,
      "Tr": 4059,
      "Zuschau": 4060,
      "ban": 4061,
      "ders": 4062,
      "gro": 4063,
      "gung": 4064,
      "jeans": 4065,
      "kinder": 4066,
      "mel": 4067,
      "pack": 4068,
      "rampe": 4069,
      "tor": 4070,
      "uhl": 4071,
      "vollen": 4072,
      "ziehen": 4073,
      "ĠZwei": 4074,
      "Ġat": 4075,
      "Ġaben": 4076,
      "ĠÃ¤hn": 4077,
      "enden": 4078,
      "Ġeins": 4079,
      "chn": 4080,
      "aube": 4081,
      "unft": 4082,
      "Ġser": 4083,
      "Ġsow": 4084,
      "Ġsucht": 4085,
      "Ġsetzen": 4086,
      "eiger": 4087,
      "iten": 4088,
      "itÃ¤t": 4089,
      "ĠSess": 4090,
      "ĠFans": 4091,
      "Ã¼ssel": 4092,
      "ĠHeiÃŁ": 4093,
      "ĠMannschaften": 4094,
      "ĠBel": 4095,
      "ĠBat": 4096,
      "Ġzer": 4097,
      "Ġglatz": 4098,
      "Ġkaut": 4099,
      "ĠTafel": 4100,
      "ammen": 4101,
      "Ġgepark": 4102,
      "Ġangel": 4103,
      "Ġfla": 4104,
      "ĠfÃ¼llt": 4105,
      "Ġsteckt": 4106,
      "ettrennen": 4107,
      "ĠLeg": 4108,
      "ĠLied": 4109,
      "ĠLippen": 4110,
      "ĠAst": 4111,
      "ades": 4112,
      "Ġschwenkt": 4113,
      "utfit": 4114,
      "ott": 4115,
      "ĠStift": 4116,
      "irmen": 4117,
      "leck": 4118,
      "iker": 4119,
      "Ġrichtet": 4120,
      "ĠOper": 4121,
      "Ã¼rzt": 4122,
      "pfle": 4123,
      "ĠDo": 4124,
      "ĠNoten": 4125,
      "Ã¤cheln": 4126,
      "ĠFreiluft": 4127,
      "ĠKamel": 4128,
      "ĠTrib": 4129,
      "ĠBauern": 4130,
      "ĠFuÃŁballfeld": 4131,
      "Ã¤ren": 4132,
      "ĠStraÃŁenhÃ¤ndler": 4133,
      "hou": 4134,
      "ĠGesprÃ¤ch": 4135,
      "ĠGelb": 4136,
      "izieren": 4137,
      "ĠSchlitt": 4138,
      "ĠSchwimmbad": 4139,
      "ĠStudenten": 4140,
      "Ġgegenseit": 4141,
      "ĠBecken": 4142,
      "Ġdunkelblauen": 4143,
      "ival": 4144,
      "ĠZeitschrift": 4145,
      "draht": 4146,
      "dium": 4147,
      "ĠKonfer": 4148,
      "Ġkariertem": 4149,
      "ĠRennauto": 4150,
      "ohemd": 4151,
      "ĠOutdo": 4152,
      "richten": 4153,
      "ĠTypen": 4154,
      "ĠKleider": 4155,
      "Ġriesige": 4156,
      "issenschaft": 4157,
      "ĠClub": 4158,
      "ĠKerzen": 4159,
      "sÃ¤ge": 4160,
      "ĠLebensmittelgeschÃ¤ft": 4161,
      "ĠAbendessen": 4162,
      "Ġkopf": 4163,
      "ĠWasserski": 4164,
      "Ġafrikanische": 4165,
      "ĠBacksteingebÃ¤ude": 4166,
      "luftball": 4167,
      "ĠKlapp": 4168,
      "Ġerwachsene": 4169,
      "landschaft": 4170,
      "ĠElef": 4171,
      "ĠElektr": 4172,
      "ĠPlattform": 4173,
      "ĠSchlafanzug": 4174,
      "emonstr": 4175,
      "Ġbestehende": 4176,
      "Ġungew": 4177,
      "Ġbeigefarbenen": 4178,
      "ĠBordstein": 4179,
      "euchtung": 4180,
      "ĠPlÃ¼": 4181,
      "Ġviolettem": 4182,
      "ĠSchotter": 4183,
      "ĠBluejeans": 4184,
      "schmuck": 4185,
      "sammlung": 4186,
      "ĠPicknicktisch": 4187,
      "ĠRollerblades": 4188,
      "ĠFlÃ¼ssigkeit": 4189,
      "Ġtreffen": 4190,
      "Zuschauer": 4191,
      "Ġflachen": 4192,
      "ĠOperation": 4193,
      "Ġgegenseitig": 4194,
      "ĠOutdoor": 4195,
      "Feuer": 4196,
      "Football": 4197,
      "KW": 4198,
      "Oberteil": 4199,
      "Sie": 4200,
      "Str": 4201,
      "ai": 4202,
      "brÃ¼cke": 4203,
      "burg": 4204,
      "dog": 4205,
      "fle": 4206,
      "ga": 4207,
      "ian": 4208,
      "lem": 4209,
      "leute": 4210,
      "oberteil": 4211,
      "pt": 4212,
      "tag": 4213,
      "volleyball": 4214,
      "waren": 4215,
      "way": 4216,
      "ino": 4217,
      "anien": 4218,
      "Ã¤g": 4219,
      "Ã¤ser": 4220,
      "Ã¤sent": 4221,
      "ĠdÃ¼n": 4222,
      "ĠMin": 4223,
      "ĠSomm": 4224,
      "Ġmo": 4225,
      "ĠFrise": 4226,
      "Ã¼h": 4227,
      "ĠHilfe": 4228,
      "ieÃŁ": 4229,
      "Ġbunter": 4230,
      "ĠKalb": 4231,
      "asketball": 4232,
      "ĠGar": 4233,
      "org": 4234,
      "ĠPin": 4235,
      "ĠPuck": 4236,
      "Ġges": 4237,
      "Ġwill": 4238,
      "ĠWettrennen": 4239,
      "Ġfindet": 4240,
      "Ġfegt": 4241,
      "Ġleicht": 4242,
      "ĠRÃ¶cken": 4243,
      "ache": 4244,
      "Ġvorne": 4245,
      "ĠLim": 4246,
      "ĠLÃ¶ff": 4247,
      "ĠLond": 4248,
      "ĠLKW": 4249,
      "Ġrollt": 4250,
      "senbahn": 4251,
      "Ġjapan": 4252,
      "Ã¶che": 4253,
      "ĠbeiÃŁt": 4254,
      "ĠEsel": 4255,
      "Ġnoch": 4256,
      "ĠDi": 4257,
      "ĠDorf": 4258,
      "ĠDudels": 4259,
      "recht": 4260,
      "ĠWasserflasche": 4261,
      "Ġparkt": 4262,
      "ĠSpielkleidung": 4263,
      "igh": 4264,
      "Ġaltm": 4265,
      "Ġdazu": 4266,
      "ĠSchwert": 4267,
      "ĠGrasflÃ¤che": 4268,
      "ammlung": 4269,
      "ĠGitarren": 4270,
      "ĠSandstrand": 4271,
      "ĠJeansjacke": 4272,
      "gebr": 4273,
      "eep": 4274,
      "ĠShow": 4275,
      "ĠMusikinstrumen": 4276,
      "ienen": 4277,
      "ĠBasketballspiel": 4278,
      "Ġdunkelhaariger": 4279,
      "ĠSportwagen": 4280,
      "ĠSportveranstaltung": 4281,
      "ollegen": 4282,
      "ĠGeschÃ¤ftskleidung": 4283,
      "ĠUmhang": 4284,
      "ĠRobe": 4285,
      "ationen": 4286,
      "steinen": 4287,
      "Ġoffenbar": 4288,
      "ĠOrangen": 4289,
      "ĠFrisbeescheibe": 4290,
      "ĠAbsperr": 4291,
      "richtet": 4292,
      "Kleines": 4293,
      "ĠTricks": 4294,
      "Ġfarbenfroher": 4295,
      "ĠprÃ¼": 4296,
      "ĠFeuerwehrmann": 4297,
      "ĠGeburt": 4298,
      "ĠSurfboard": 4299,
      "ĠTauben": 4300,
      "ĠjÃ¼ngere": 4301,
      "ĠCafe": 4302,
      "Ġentspannen": 4303,
      "Ġgepunk": 4304,
      "Ġwandern": 4305,
      "ĠWaschsalon": 4306,
      "ĠSÃ¤ngerin": 4307,
      "Ġuntersuchen": 4308,
      "Ġtrainieren": 4309,
      "ĠEltern": 4310,
      "Ġmarschieren": 4311,
      "ĠTurnerin": 4312,
      "ĠGrimasse": 4313,
      "ĠÃĦr": 4314,
      "ĠPalmen": 4315,
      "roller": 4316,
      "ĠGeschÃ¤ften": 4317,
      "Ġbegutachtet": 4318,
      "ĠfÃ¼ttert": 4319,
      "Ġplanscht": 4320,
      "ĠbewÃ¶lkten": 4321,
      "ĠSuper": 4322,
      "ĠFahne": 4323,
      "ĠSanddÃ¼ne": 4324,
      "ĠBrandung": 4325,
      "ĠGeldbÃ¶rse": 4326,
      "ĠSilhou": 4327,
      "ĠSÃ¼ÃŁigkeiten": 4328,
      "ĠschweiÃŁt": 4329,
      "ĠHeiÃŁluftball": 4330,
      "ĠkopfÃ¼ber": 4331,
      "ĠungewÃ¶hn": 4332,
      "ĠLondon": 4333,
      "Ġaltmod": 4334,
      "ĠGeburtstag": 4335,
      "Hemd": 4336,
      "Kind": 4337,
      "KostÃ¼m": 4338,
      "Nahaufnahme": 4339,
      "bers": 4340,
      "bur": 4341,
      "buch": 4342,
      "cl": 4343,
      "foto": 4344,
      "frikan": 4345,
      "hten": 4346,
      "hÃ¤nger": 4347,
      "heim": 4348,
      "ial": 4349,
      "jo": 4350,
      "kul": 4351,
      "rik": 4352,
      "sitz": 4353,
      "voll": 4354,
      "wurf": 4355,
      "zten": 4356,
      "Ġak": 4357,
      "aulen": 4358,
      "uniform": 4359,
      "Ã¤mm": 4360,
      "Ġmalen": 4361,
      "Ġmed": 4362,
      "ĠFlaschen": 4363,
      "Ã¼ff": 4364,
      "ĠbÃ¼ckt": 4365,
      "ĠBass": 4366,
      "ĠBeine": 4367,
      "steigen": 4368,
      "ĠKÃ¼r": 4369,
      "alung": 4370,
      "trie": 4371,
      "trag": 4372,
      "ĠPe": 4373,
      "ĠPat": 4374,
      "ĠPiste": 4375,
      "ichter": 4376,
      "ĠTal": 4377,
      "Ġwischt": 4378,
      "Ġfallen": 4379,
      "Ġfaulen": 4380,
      "ĠSchildern": 4381,
      "ĠSchirmen": 4382,
      "ĠRauch": 4383,
      "henden": 4384,
      "ĠLaufen": 4385,
      "ĠAuss": 4386,
      "urm": 4387,
      "leit": 4388,
      "leiter": 4389,
      "leicht": 4390,
      "ildet": 4391,
      "olk": 4392,
      "olgen": 4393,
      "ĠStangen": 4394,
      "Ġtreibt": 4395,
      "Ã¶t": 4396,
      "ikul": 4397,
      "ĠÃ¼bergewicht": 4398,
      "Ġbefahren": 4399,
      "Ġrast": 4400,
      "Ġausgeb": 4401,
      "leidung": 4402,
      "eilen": 4403,
      "Ġstehende": 4404,
      "ĠNatur": 4405,
      "ĠFahrt": 4406,
      "ĠFahrgeschÃ¤ft": 4407,
      "ĠBogen": 4408,
      "ennfahrer": 4409,
      "ĠBallett": 4410,
      "Ġerh": 4411,
      "sammen": 4412,
      "Ġober": 4413,
      "zenden": 4414,
      "schaut": 4415,
      "ĠFlur": 4416,
      "ĠBÃ¼schen": 4417,
      "artigen": 4418,
      "ĠAuff": 4419,
      "ĠMotorrÃ¤der": 4420,
      "ĠMotorroller": 4421,
      "Ġschlend": 4422,
      "izin": 4423,
      "ĠStufe": 4424,
      "ĠRed": 4425,
      "ĠReklam": 4426,
      "usses": 4427,
      "ussell": 4428,
      "ĠBaumes": 4429,
      "ĠEinrad": 4430,
      "rÃ¤un": 4431,
      "gebunden": 4432,
      "ĠWaldweg": 4433,
      "ĠBandan": 4434,
      "ĠKricket": 4435,
      "braune": 4436,
      "ahlreiche": 4437,
      "ĠBlumenmuster": 4438,
      "ĠSportkleidung": 4439,
      "ĠBadewanne": 4440,
      "ainer": 4441,
      "ĠMaulkorb": 4442,
      "ĠPodium": 4443,
      "springen": 4444,
      "dian": 4445,
      "ĠRohr": 4446,
      "Ġherunterge": 4447,
      "ĠProdu": 4448,
      "Ġgleichen": 4449,
      "Ġorangefarbene": 4450,
      "ĠfesthÃ¤lt": 4451,
      "ĠgefÃ¼llt": 4452,
      "Ġscheinbar": 4453,
      "ustik": 4454,
      "etzte": 4455,
      "ĠTeenageralter": 4456,
      "ĠHerren": 4457,
      "ĠZiegelmauer": 4458,
      "ĠMÃ¼llton": 4459,
      "ĠAkustik": 4460,
      "ĠverlÃ¤sst": 4461,
      "ĠJugendliche": 4462,
      "geworfen": 4463,
      "kreuz": 4464,
      "ĠDecken": 4465,
      "ĠSaiten": 4466,
      "ĠKlassenraum": 4467,
      "ĠKapuze": 4468,
      "kÃ¶pfige": 4469,
      "ĠeingezÃ¤unten": 4470,
      "ĠKreide": 4471,
      "Ġprotest": 4472,
      "agessen": 4473,
      "ĠnÃ¤ht": 4474,
      "Ġreinigen": 4475,
      "Ġbekommen": 4476,
      "ĠTheater": 4477,
      "ace": 4478,
      "Ġirgendw": 4479,
      "karre": 4480,
      "Ã¤mmer": 4481,
      "Ġkompl": 4482,
      "ĠSÃ¤ugl": 4483,
      "Ġengen": 4484,
      "Ġjoggen": 4485,
      "ĠEishockeyspieler": 4486,
      "ĠgeÃ¶ffnet": 4487,
      "Ġnieder": 4488,
      "Ġjubeln": 4489,
      "Ġsammelt": 4490,
      "ĠOlymp": 4491,
      "ĠFuÃŁgÃ¤ngerÃ¼berweg": 4492,
      "ĠmÃ¶g": 4493,
      "ĠÃ¼berprÃ¼ft": 4494,
      "Ġbespritzt": 4495,
      "Gruppe": 4496,
      "fÃ¶rmigen": 4497,
      "ĠVÃ¶gel": 4498,
      "ĠVioline": 4499,
      "ĠFotografen": 4500,
      "ĠAfroamerikaner": 4501,
      "ĠMesser": 4502,
      "nehmer": 4503,
      "Ġbewundert": 4504,
      "bemalung": 4505,
      "Ġerleuch": 4506,
      "Ġdiskutieren": 4507,
      "ĠSchubkarre": 4508,
      "ĠElefanten": 4509,
      "flekt": 4510,
      "Ġausgebrei": 4511,
      "Aus": 4512,
      "Gro": 4513,
      "Sp": 4514,
      "Ver": 4515,
      "back": 4516,
      "egen": 4517,
      "haltung": 4518,
      "iothek": 4519,
      "kann": 4520,
      "kla": 4521,
      "kurs": 4522,
      "mal": 4523,
      "nimmt": 4524,
      "nast": 4525,
      "oben": 4526,
      "our": 4527,
      "putz": 4528,
      "sschild": 4529,
      "uro": 4530,
      "ufer": 4531,
      "ven": 4532,
      "wich": 4533,
      "wÃ¤sche": 4534,
      "ÃĦ": 4535,
      "Ġacht": 4536,
      "ĠÃ¶r": 4537,
      "inde": 4538,
      "einwand": 4539,
      "Ġsand": 4540,
      "Einem": 4541,
      "Ã¤ne": 4542,
      "Ã¤umen": 4543,
      "ĠMark": 4544,
      "ĠMaschen": 4545,
      "ĠMuseum": 4546,
      "elst": 4547,
      "Ġinsp": 4548,
      "ari": 4549,
      "arter": 4550,
      "Ġaufmerksam": 4551,
      "ĠHigh": 4552,
      "Ġbaum": 4553,
      "schlagen": 4554,
      "stellt": 4555,
      "ĠKÃ¶pfen": 4556,
      "ĠKiste": 4557,
      "ĠKhaki": 4558,
      "Ġhind": 4559,
      "alken": 4560,
      "trikot": 4561,
      "ĠPunk": 4562,
      "Ġwebt": 4563,
      "decke": 4564,
      "Ġfil": 4565,
      "Ġfre": 4566,
      "Ġzuge": 4567,
      "Ġzubereitet": 4568,
      "ĠRinger": 4569,
      "iertes": 4570,
      "ĠLang": 4571,
      "ĠLocken": 4572,
      "ĠAkt": 4573,
      "ĠAchter": 4574,
      "ĠStreifen": 4575,
      "Ġspieler": 4576,
      "leitet": 4577,
      "ola": 4578,
      "olen": 4579,
      "Ġtransport": 4580,
      "Ã¶hr": 4581,
      "Ã¤ufern": 4582,
      "ĠZÃ¶pfen": 4583,
      "Ġneue": 4584,
      "pfad": 4585,
      "beutel": 4586,
      "rechen": 4587,
      "ĠgroÃŁ": 4588,
      "ernt": 4589,
      "abrik": 4590,
      "Ġvert": 4591,
      "Ġverdeckt": 4592,
      "boten": 4593,
      "affen": 4594,
      "Ġentlanggeht": 4595,
      "gelassen": 4596,
      "gelÃ¤nder": 4597,
      "ĠFahrrads": 4598,
      "hlet": 4599,
      "ĠBallerin": 4600,
      "block": 4601,
      "bliothek": 4602,
      "Ġvorbeigeht": 4603,
      "anke": 4604,
      "ĠFloÃŁ": 4605,
      "ĠBÃ¼hnen": 4606,
      "apelle": 4607,
      "Ġrosar": 4608,
      "ĠSonnenschirm": 4609,
      "Ġgraue": 4610,
      "ĠStraÃŁenm": 4611,
      "Ġleger": 4612,
      "Ġschlamm": 4613,
      "Ġgestikul": 4614,
      "flÃ¼": 4615,
      "akd": 4616,
      "ĠBoots": 4617,
      "Ġuniform": 4618,
      "ĠRadrennen": 4619,
      "ĠGewÃ¤ndern": 4620,
      "ĠKran": 4621,
      "Ġschieben": 4622,
      "ĠFreu": 4623,
      "ollege": 4624,
      "Ġrosafarbene": 4625,
      "bstuhl": 4626,
      "ĠPoster": 4627,
      "zeitig": 4628,
      "Ġvielleicht": 4629,
      "ĠMarktplatz": 4630,
      "ĠProtest": 4631,
      "hÃ¶ren": 4632,
      "Ġteilweise": 4633,
      "SchÃ¼ler": 4634,
      "Ġschreiben": 4635,
      "Ġaussehenden": 4636,
      "ĠTorhÃ¼ter": 4637,
      "ĠBike": 4638,
      "kamera": 4639,
      "bare": 4640,
      "ĠIrok": 4641,
      "Ġbeginnt": 4642,
      "ĠComputerbildschirm": 4643,
      "Ġgreifen": 4644,
      "ĠstÃ¤dtische": 4645,
      "ĠMoment": 4646,
      "gebÃ¤udes": 4647,
      "Ġdrinnen": 4648,
      "ĠChin": 4649,
      "ĠprÃ¤sent": 4650,
      "Ġgleichzeitig": 4651,
      "Ġstarren": 4652,
      "Ġausgestre": 4653,
      "ĠSchmutz": 4654,
      "ĠSchmuck": 4655,
      "ĠRande": 4656,
      "Ġprob": 4657,
      "ĠReifenschaukel": 4658,
      "Ġverkleidete": 4659,
      "glied": 4660,
      "ĠFernse": 4661,
      "ĠFernglas": 4662,
      "teams": 4663,
      "ĠGelÃ¤ndemotorradfahrer": 4664,
      "ĠTennisspielerin": 4665,
      "Ġfeiert": 4666,
      "ĠBlÃ¤ttern": 4667,
      "Ġrothaariges": 4668,
      "karte": 4669,
      "ĠInnenstadt": 4670,
      "Ġbewegen": 4671,
      "dienen": 4672,
      "ĠStirnband": 4673,
      "ĠMittagessen": 4674,
      "Ġruhigen": 4675,
      "ĠHotdog": 4676,
      "Ġeinsamer": 4677,
      "ĠGrimassen": 4678,
      "Ġniedr": 4679,
      "Ġfarbigen": 4680,
      "ĠWelpen": 4681,
      "Ġwendet": 4682,
      "ĠnÃ¤chsten": 4683,
      "ĠKameras": 4684,
      "Ġkhakifarbenen": 4685,
      "Ġlandet": 4686,
      "ĠRettungswesten": 4687,
      "ĠHÃ¤usern": 4688,
      "ĠKids": 4689,
      "geborenes": 4690,
      "ymnast": 4691,
      "Ġlockigen": 4692,
      "ĠlÃ¤ndlichen": 4693,
      "ĠTablett": 4694,
      "ĠBibliothek": 4695,
      "ĠBreakd": 4696,
      "ĠglatzkÃ¶pfiger": 4697,
      "ĠLÃ¶ffel": 4698,
      "ĠDudelsack": 4699,
      "ĠSilhouette": 4700,
      "ĠAussicht": 4701,
      "ĠAuffÃ¼hrung": 4702,
      "ĠBandana": 4703,
      "ĠAkustikgitarre": 4704,
      "Ã¤mmerung": 4705,
      "ĠMaschendraht": 4706,
      "Ġhindurch": 4707,
      "ĠIrokesen": 4708,
      "12": 4709,
      "Basketball": 4710,
      "Zeichen": 4711,
      "asten": 4712,
      "bro": 4713,
      "bett": 4714,
      "een": 4715,
      "echer": 4716,
      "figur": 4717,
      "hes": 4718,
      "how": 4719,
      "haube": 4720,
      "id": 4721,
      "io": 4722,
      "iers": 4723,
      "ister": 4724,
      "kunst": 4725,
      "koh": 4726,
      "lter": 4727,
      "les": 4728,
      "lÃ¤nd": 4729,
      "min": 4730,
      "ockt": 4731,
      "ofon": 4732,
      "pa": 4733,
      "Ġ-": 4734,
      "Ġei": 4735,
      "Ġqu": 4736,
      "Ġeben": 4737,
      "ĠsÃ¤u": 4738,
      "Ġsort": 4739,
      "Ã¤ste": 4740,
      "ĠMc": 4741,
      "ĠMi": 4742,
      "ĠMittel": 4743,
      "ĠMÃ¼tzen": 4744,
      "itr": 4745,
      "ĠSack": 4746,
      "ĠSzene": 4747,
      "ĠFack": 4748,
      "Ã¼ht": 4749,
      "anner": 4750,
      "ieÃŁen": 4751,
      "Ġbet": 4752,
      "Ġbilden": 4753,
      "ĠBei": 4754,
      "ĠBÃ¤llen": 4755,
      "schla": 4756,
      "onald": 4757,
      "stuch": 4758,
      "stift": 4759,
      "ĠKugel": 4760,
      "ĠGymnast": 4761,
      "orter": 4762,
      "orange": 4763,
      "essen": 4764,
      "ĠPel": 4765,
      "ĠPil": 4766,
      "ichte": 4767,
      "Ġschle": 4768,
      "Ġgrillen": 4769,
      "ĠTank": 4770,
      "ĠTanzen": 4771,
      "ĠTattoo": 4772,
      "Ġdieser": 4773,
      "ami": 4774,
      "Ġged": 4775,
      "Ġangem": 4776,
      "ĠWange": 4777,
      "ĠWake": 4778,
      "ĠSchach": 4779,
      "ĠSchilder": 4780,
      "ersp": 4781,
      "Ġvorbereitet": 4782,
      "etafel": 4783,
      "ĠLater": 4784,
      "ĠLÃ¤cheln": 4785,
      "Ġschwer": 4786,
      "utt": 4787,
      "otiv": 4788,
      "ĠKindes": 4789,
      "irl": 4790,
      "fenster": 4791,
      "menade": 4792,
      "Ġbevor": 4793,
      "ĠEuro": 4794,
      "Ġstehend": 4795,
      "Ġstehender": 4796,
      "ĠNeu": 4797,
      "egeln": 4798,
      "lichem": 4799,
      "lichkeit": 4800,
      "ĠHandschuh": 4801,
      "teilt": 4802,
      "Ġbrauen": 4803,
      "osa": 4804,
      "osition": 4805,
      "ĠCamp": 4806,
      "spielen": 4807,
      "ĠUhr": 4808,
      "ign": 4809,
      "Ġerw": 4810,
      "blÃ¤t": 4811,
      "Ġdah": 4812,
      "Ã¼ndel": 4813,
      "ĠFlÃ¶te": 4814,
      "Ġleckt": 4815,
      "sseln": 4816,
      "spark": 4817,
      "ucker": 4818,
      "Ġrechte": 4819,
      "Ġreflekt": 4820,
      "liegen": 4821,
      "ĠRadfahrern": 4822,
      "Ġspan": 4823,
      "ivers": 4824,
      "ĠVortrag": 4825,
      "ĠBadezimmer": 4826,
      "Ġstreicht": 4827,
      "Ġrosafarbener": 4828,
      "weh": 4829,
      "ĠKarte": 4830,
      "dress": 4831,
      "istole": 4832,
      "wandt": 4833,
      "ĠSeilen": 4834,
      "ĠAsien": 4835,
      "ĠTurban": 4836,
      "Ġgraben": 4837,
      "ĠHalstuch": 4838,
      "Ġgemuster": 4839,
      "Ġlanghaarige": 4840,
      "ĠPapiere": 4841,
      "Ġrauchen": 4842,
      "ĠVerkÃ¤ufer": 4843,
      "Ġgewickelt": 4844,
      "ĠStÃ¼hle": 4845,
      "ĠPfadf": 4846,
      "ĠPlastiktÃ¼te": 4847,
      "ĠSnowboardfahrer": 4848,
      "Station": 4849,
      "Ġgebeugt": 4850,
      "Ġunbefestigte": 4851,
      "ĠAsiatinnen": 4852,
      "ĠWerkstatt": 4853,
      "ĠOhren": 4854,
      "ĠPferdeschw": 4855,
      "Ġindischer": 4856,
      "ĠLabork": 4857,
      "ĠGolfball": 4858,
      "Ġerwachsener": 4859,
      "ĠStehen": 4860,
      "ĠTaxi": 4861,
      "ĠLuftballon": 4862,
      "ĠSaxofon": 4863,
      "ĠLiefer": 4864,
      "ĠGesichtsbemalung": 4865,
      "biss": 4866,
      "ĠFeder": 4867,
      "Ġ20": 4868,
      "ĠQuad": 4869,
      "hobenen": 4870,
      "Schwarz": 4871,
      "Ġjubelt": 4872,
      "loser": 4873,
      "Ġgestreiftes": 4874,
      "Ġfertig": 4875,
      "ĠtÃ¼rk": 4876,
      "ĠKettensÃ¤ge": 4877,
      "ĠVersammlung": 4878,
      "ĠOzean": 4879,
      "kante": 4880,
      "ĠPitcher": 4881,
      "Ġklatscht": 4882,
      "ĠStofft": 4883,
      "ĠInlineskates": 4884,
      "ortrÃ¤t": 4885,
      "ĠStrickmÃ¼tze": 4886,
      "Ġverheiratetes": 4887,
      "Ġabends": 4888,
      "Ġsowie": 4889,
      "ĠBeleuchtung": 4890,
      "Ġgeparkten": 4891,
      "ĠTribÃ¼ne": 4892,
      "Feuerwehr": 4893,
      "ĠFriseur": 4894,
      "gebracht": 4895,
      "ĠMÃ¼lltonne": 4896,
      "ĠAchterbahn": 4897,
      "Ġgestikuliert": 4898,
      "ĠGymnastik": 4899,
      "Che": 4900,
      "Donald": 4901,
      "Hut": 4902,
      "Musiker": 4903,
      "Poliz": 4904,
      "Zahlreiche": 4905,
      "aÃŁen": 4906,
      "app": 4907,
      "appen": 4908,
      "beln": 4909,
      "balken": 4910,
      "dunk": 4911,
      "feier": 4912,
      "hÃ¤u": 4913,
      "hammer": 4914,
      "ipfel": 4915,
      "jung": 4916,
      "ker": 4917,
      "kÃ¶r": 4918,
      "krÃ¤": 4919,
      "ligen": 4920,
      "lÃ¤uft": 4921,
      "ous": 4922,
      "ron": 4923,
      "sau": 4924,
      "uer": 4925,
      "xas": 4926,
      "enken": 4927,
      "aust": 4928,
      "Ġsoll": 4929,
      "Ġseich": 4930,
      "Ġsuchen": 4931,
      "eiden": 4932,
      "Ã¤b": 4933,
      "ĠMan": 4934,
      "ĠMÃ¼n": 4935,
      "elte": 4936,
      "ĠSom": 4937,
      "Ġmod": 4938,
      "ĠFit": 4939,
      "ĠFÃ¤nger": 4940,
      "Ġaufzu": 4941,
      "Ġaufgestellt": 4942,
      "Ã¼d": 4943,
      "ĠHaltung": 4944,
      "ieg": 4945,
      "ĠbrÃ¤un": 4946,
      "ĠBu": 4947,
      "ĠBro": 4948,
      "ĠBam": 4949,
      "ĠBill": 4950,
      "ĠBÃ¤lle": 4951,
      "strÃ¼": 4952,
      "station": 4953,
      "statue": 4954,
      "raur": 4955,
      "rauÃŁ": 4956,
      "ĠKil": 4957,
      "ĠKell": 4958,
      "ĠKnei": 4959,
      "ĠKette": 4960,
      "ĠKÃ¶pfe": 4961,
      "weis": 4962,
      "Ġich": 4963,
      "tens": 4964,
      "ĠGlat": 4965,
      "ore": 4966,
      "orden": 4967,
      "alte": 4968,
      "ĠPy": 4969,
      "Ġziel": 4970,
      "rob": 4971,
      "ĠTÃ¶pf": 4972,
      "ambur": 4973,
      "Ġgek": 4974,
      "Ġwaschen": 4975,
      "Ġans": 4976,
      "Ġaneinander": 4977,
      "Ġansieht": 4978,
      "ĠWol": 4979,
      "ĠWerfer": 4980,
      "Ġlernt": 4981,
      "ĠSchuss": 4982,
      "ĠJapan": 4983,
      "bereiten": 4984,
      "ĠRik": 4985,
      "ĠRÃ¶hr": 4986,
      "achter": 4987,
      "Ġvorder": 4988,
      "ĠLinie": 4989,
      "ĠLac": 4990,
      "ĠAm": 4991,
      "ĠAsp": 4992,
      "ĠAmp": 4993,
      "Ġschwarzhaarige": 4994,
      "ĠStahl": 4995,
      "ĠtrÃ¼": 4996,
      "Ġtrop": 4997,
      "assiert": 4998,
      "gerÃ¤": 4999,
      "Ã¤nde": 5000,
      "Ã¤nzenden": 5001,
      "Ġbeisammen": 5002,
      "Ġbedruck": 5003,
      "ĠrÃ¼ck": 5004,
      "rÃ¼cken": 5005,
      "ĠEss": 5006,
      "Ġneon": 5007,
      "Ã¼rste": 5008,
      "Ġumr": 5009,
      "ĠDemonstr": 5010,
      "behÃ¤lter": 5011,
      "reg": 5012,
      "ĠWassermel": 5013,
      "ello": 5014,
      "ellschaft": 5015,
      "Ġpol": 5016,
      "Ġputzen": 5017,
      "Ġpackt": 5018,
      "grill": 5019,
      "box": 5020,
      "ĠBohr": 5021,
      "ĠBooten": 5022,
      "ĠHome": 5023,
      "ĠHocker": 5024,
      "Ġgehende": 5025,
      "estern": 5026,
      "angehÃ¶r": 5027,
      "Ġherr": 5028,
      "igiert": 5029,
      "Ġtut": 5030,
      "ĠHinterb": 5031,
      "Ġverste": 5032,
      "Ġstaub": 5033,
      "wegungen": 5034,
      "Ġaltes": 5035,
      "ĠSpe": 5036,
      "ĠSchneeanzug": 5037,
      "ags": 5038,
      "unken": 5039,
      "ĠAnhÃ¤nger": 5040,
      "ĠAnweis": 5041,
      "stÃ¼ten": 5042,
      "Ġlegen": 5043,
      "Ġherumstehen": 5044,
      "Ġdunklem": 5045,
      "ĠSandwich": 5046,
      "obahn": 5047,
      "ĠGesichtern": 5048,
      "iziert": 5049,
      "ĠSchwimmweste": 5050,
      "ĠTee": 5051,
      "rÃ¤sent": 5052,
      "peri": 5053,
      "ĠHÃ¼te": 5054,
      "bedeckten": 5055,
      "rift": 5056,
      "ĠBeach": 5057,
      "ĠBewegung": 5058,
      "ĠPflaster": 5059,
      "gestrei": 5060,
      "ĠEisw": 5061,
      "ĠBadeanzÃ¼gen": 5062,
      "schlauch": 5063,
      "ession": 5064,
      "ĠVergnÃ¼": 5065,
      "blauem": 5066,
      "ĠSnack": 5067,
      "Ġknien": 5068,
      "ĠPudel": 5069,
      "Ġangeboten": 5070,
      "oga": 5071,
      "ĠKontr": 5072,
      "ĠEngel": 5073,
      "hÃ¶rt": 5074,
      "ĠBetonwand": 5075,
      "ĠSprungbrett": 5076,
      "klettern": 5077,
      "ĠBahnglei": 5078,
      "schriften": 5079,
      "ĠGerÃ¤ten": 5080,
      "ĠSchÃ¼sseln": 5081,
      "ĠComputern": 5082,
      "falls": 5083,
      "ĠTÃ¼ren": 5084,
      "ĠNebel": 5085,
      "Ġschnitzt": 5086,
      "Ġverschneite": 5087,
      "Ġbegeister": 5088,
      "Ġbegleitet": 5089,
      "ĠÃ¼bers": 5090,
      "ĠglÃ¤nzenden": 5091,
      "ĠDraht": 5092,
      "kasten": 5093,
      "ĠFeuerwehrmÃ¤nner": 5094,
      "Ġmanche": 5095,
      "Ã¶ffnung": 5096,
      "Ġausgestellt": 5097,
      "Ġbemalten": 5098,
      "ĠYoga": 5099,
      "ĠKnÃ¶pfen": 5100,
      "Ġtraditionellen": 5101,
      "stÃ¤nder": 5102,
      "ĠTreppenhaus": 5103,
      "ĠTreppenstufen": 5104,
      "Ġmarine": 5105,
      "ĠTÃ¤nzerin": 5106,
      "ĠWaschbecken": 5107,
      "ĠFreundin": 5108,
      "ĠTrainer": 5109,
      "Ġpaddeln": 5110,
      "ĠTrommeln": 5111,
      "Ġgeschmink": 5112,
      "ĠMountainbiker": 5113,
      "nisse": 5114,
      "ĠFliesen": 5115,
      "Ġaufgerei": 5116,
      "Ġafroamerikanische": 5117,
      "flugzeug": 5118,
      "ĠInline": 5119,
      "ĠKunstwerke": 5120,
      "ĠHotel": 5121,
      "Ġinteress": 5122,
      "ĠgeÃ¶ffneten": 5123,
      "ĠWelpe": 5124,
      "Ġsauber": 5125,
      "ĠTarnkleidung": 5126,
      "kÃ¼che": 5127,
      "Ġgestreifter": 5128,
      "ĠbarfÃ¼ÃŁige": 5129,
      "ĠTÃ¤towierung": 5130,
      "ĠTÃ¤towierungen": 5131,
      "ĠFilm": 5132,
      "grauen": 5133,
      "ĠUSA": 5134,
      "ĠSpaziergang": 5135,
      "ĠBesitz": 5136,
      "ĠSchafe": 5137,
      "ĠDreirad": 5138,
      "ĠSchleife": 5139,
      "ĠTrainingsanzug": 5140,
      "Ġwatet": 5141,
      "ĠJackett": 5142,
      "ĠkÃ¼mmert": 5143,
      "Asiatische": 5144,
      "gungspark": 5145,
      "ĠKonferenz": 5146,
      "ĠprÃ¼ft": 5147,
      "Ġgepunkteten": 5148,
      "ĠHeiÃŁluftballon": 5149,
      "Ã¼ffelt": 5150,
      "ĠProdukte": 5151,
      "ÃĦlter": 5152,
      "Ġsandigen": 5153,
      "Ġspielerisch": 5154,
      "ĠBreakdance": 5155,
      "ĠMaschendrahtzaun": 5156,
      "brocken": 5157,
      "ĠMcDonald": 5158,
      "wehraut": 5159,
      "ĠLieferwagen": 5160,
      "ĠtÃ¼rkis": 5161,
      "ĠBambus": 5162,
      "ĠKellner": 5163,
      "ĠRiksch": 5164,
      "ĠAsphalt": 5165,
      "rÃ¤sentation": 5166,
      "ĠVergnÃ¼gungspark": 5167,
      "Junger": 5168,
      "LÃ¤ufer": 5169,
      "Mutter": 5170,
      "Outfit": 5171,
      "Vor": 5172,
      "WÃ¤hrend": 5173,
      "bungen": 5174,
      "bÃ¤ndern": 5175,
      "ce": 5176,
      "dre": 5177,
      "fers": 5178,
      "feuer": 5179,
      "hm": 5180,
      "holz": 5181,
      "horts": 5182,
      "ipp": 5183,
      "kuchen": 5184,
      "lust": 5185,
      "mitt": 5186,
      "maske": 5187,
      "nier": 5188,
      "ohl": 5189,
      "otes": 5190,
      "rt": 5191,
      "stet": 5192,
      "tigen": 5193,
      "ube": 5194,
      "vie": 5195,
      "vers": 5196,
      "vent": 5197,
      "vieren": 5198,
      "wimm": 5199,
      "will": 5200,
      "yn": 5201,
      "ys": 5202,
      "ziel": 5203,
      "zune": 5204,
      "Ġ.": 5205,
      "Ġ5": 5206,
      "Ġte": 5207,
      "Ġung": 5208,
      "inten": 5209,
      "eingang": 5210,
      "Ġeinz": 5211,
      "ansammlung": 5212,
      "Ġdri": 5213,
      "ĠdrÃ¼ckt": 5214,
      "ĠMat": 5215,
      "ĠMuster": 5216,
      "ĠMatr": 5217,
      "ĠMÃ¼l": 5218,
      "elig": 5219,
      "Ġindem": 5220,
      "ĠSen": 5221,
      "ĠFischen": 5222,
      "ĠFabrik": 5223,
      "ĠHorn": 5224,
      "annen": 5225,
      "iefel": 5226,
      "ĠBull": 5227,
      "ĠBanner": 5228,
      "schnei": 5229,
      "onnen": 5230,
      "weiÃŁes": 5231,
      "asier": 5232,
      "Ġhart": 5233,
      "als": 5234,
      "ĠPon": 5235,
      "ĠPink": 5236,
      "ĠPadd": 5237,
      "ĠPlan": 5238,
      "genommen": 5239,
      "Ġdiese": 5240,
      "Ġgesen": 5241,
      "Ġgeschnitten": 5242,
      "ĠWach": 5243,
      "ĠWoll": 5244,
      "ĠWette": 5245,
      "ĠWaffe": 5246,
      "ĠScheibe": 5247,
      "ĠJohn": 5248,
      "bereit": 5249,
      "ĠReg": 5250,
      "ĠRahmen": 5251,
      "reis": 5252,
      "reiter": 5253,
      "etze": 5254,
      "ĠLass": 5255,
      "allow": 5256,
      "ĠApp": 5257,
      "ĠApfel": 5258,
      "ĠAfrikan": 5259,
      "ĠStrumpf": 5260,
      "Ġschwingen": 5261,
      "Ġschwebt": 5262,
      "Ġrost": 5263,
      "Ġweil": 5264,
      "denk": 5265,
      "ĠGehen": 5266,
      "ĠGeschw": 5267,
      "ĠStunt": 5268,
      "ĠStÃ¶cke": 5269,
      "Ġtri": 5270,
      "Ġtreiben": 5271,
      "Ã¶st": 5272,
      "ike": 5273,
      "ĠÃ¼berw": 5274,
      "ĠOfen": 5275,
      "ĠZyl": 5276,
      "ĠZucker": 5277,
      "ĠDJ": 5278,
      "ĠDock": 5279,
      "ims": 5280,
      "ĠWasserrutsche": 5281,
      "ĠNetze": 5282,
      "iss": 5283,
      "isse": 5284,
      "egten": 5285,
      "heben": 5286,
      "heke": 5287,
      "Ġverm": 5288,
      "Ġverw": 5289,
      "ĠvergnÃ¼": 5290,
      "Ġverteilt": 5291,
      "graben": 5292,
      "ktem": 5293,
      "ĠVert": 5294,
      "oss": 5295,
      "Ġkleineren": 5296,
      "Ã¤cher": 5297,
      "ĠCity": 5298,
      "spielern": 5299,
      "Ġgehender": 5300,
      "ome": 5301,
      "ĠArzt": 5302,
      "Ġwirbelt": 5303,
      "Ġtraur": 5304,
      "ierende": 5305,
      "Ġoranger": 5306,
      "Ġerk": 5307,
      "blick": 5308,
      "agger": 5309,
      "Ã¼tzt": 5310,
      "ackelt": 5311,
      "ingpool": 5312,
      "ĠFuÃŁballdress": 5313,
      "Ġberg": 5314,
      "Ã¤rlich": 5315,
      "ĠAuge": 5316,
      "ĠAutobahn": 5317,
      "ffiz": 5318,
      "Ġabgeb": 5319,
      "Ġabgeworfen": 5320,
      "ĠErzeug": 5321,
      "ĠBabys": 5322,
      "ĠHolzbank": 5323,
      "ĠHÃ¤nd": 5324,
      "ĠHÃ¤ndchen": 5325,
      "ĠBaseballschlÃ¤ger": 5326,
      "Ġverschw": 5327,
      "ĠReis": 5328,
      "Ġbraunhaariger": 5329,
      "ĠHelme": 5330,
      "ĠBandmit": 5331,
      "ĠKragen": 5332,
      "ienten": 5333,
      "astanien": 5334,
      "ĠEiscreme": 5335,
      "ietung": 5336,
      "Ġhohe": 5337,
      "Ġhoher": 5338,
      "ĠVorders": 5339,
      "licherweise": 5340,
      "schwimmen": 5341,
      "ĠKarussell": 5342,
      "skl": 5343,
      "Ġknall": 5344,
      "springt": 5345,
      "sprecher": 5346,
      "ĠRode": 5347,
      "ĠMitarbeiter": 5348,
      "ĠmÃ¤nnlichen": 5349,
      "studio": 5350,
      "Ġruhen": 5351,
      "Ġrudern": 5352,
      "Ġteilnehmen": 5353,
      "ĠGlÃ¤sern": 5354,
      "Ġgemacht": 5355,
      "Ġverschiedenfarb": 5356,
      "ĠgefÃ¼llten": 5357,
      "Ġgefleck": 5358,
      "ĠSchlagmann": 5359,
      "arbietung": 5360,
      "werker": 5361,
      "ĠRollschuh": 5362,
      "ĠCowboys": 5363,
      "mannschaften": 5364,
      "ĠShirts": 5365,
      "ĠFelsvor": 5366,
      "ĠTÃ¼rÃ¶ffnung": 5367,
      "echten": 5368,
      "ĠKante": 5369,
      "ĠUntergrund": 5370,
      "kopf": 5371,
      "ĠObststand": 5372,
      "Ġdritte": 5373,
      "ĠVolleyballspieler": 5374,
      "okal": 5375,
      "ĠHerz": 5376,
      "ĠKerle": 5377,
      "Ġdeut": 5378,
      "spannt": 5379,
      "ĠFuÃŁgÃ¤ngern": 5380,
      "Ġleuchtenden": 5381,
      "ummel": 5382,
      "ĠObje": 5383,
      "ĠTurnschuhen": 5384,
      "ĠKatzen": 5385,
      "erlead": 5386,
      "ĠPassag": 5387,
      "Ġsilberfarbenen": 5388,
      "ĠKaffeet": 5389,
      "ĠWasserspren": 5390,
      "ĠLaptops": 5391,
      "Ġpinkfarbener": 5392,
      "mÃ¤her": 5393,
      "ĠTiere": 5394,
      "ĠhellhÃ¤utige": 5395,
      "ĠClowns": 5396,
      "Fahrrad": 5397,
      "ĠschÃ¼tteln": 5398,
      "ĠGelÃ¤ndewagen": 5399,
      "Ġbesteht": 5400,
      "Ġbekleidet": 5401,
      "Ġbekleidete": 5402,
      "Ġbekleideter": 5403,
      "projekt": 5404,
      "ĠSÃ¤ulen": 5405,
      "Ġgeschminkt": 5406,
      "ĠNachbar": 5407,
      "Ġafroamerikanischer": 5408,
      "Ġorientalische": 5409,
      "FuÃŁgÃ¤nger": 5410,
      "ĠGegenstÃ¤nden": 5411,
      "ĠFecht": 5412,
      "rosa": 5413,
      "Ġkrat": 5414,
      "ĠgesÃ¤um": 5415,
      "ĠPicknick": 5416,
      "ĠBrettspiel": 5417,
      "ĠKarton": 5418,
      "ĠEisenbahn": 5419,
      "Ã¼llen": 5420,
      "ĠlangÃ¤rmeligen": 5421,
      "Ġsammeln": 5422,
      "Ġunterschiedlichen": 5423,
      "ĠMÃ¶bel": 5424,
      "ĠPerlen": 5425,
      "ĠBanan": 5426,
      "ĠExperi": 5427,
      "zufangen": 5428,
      "Ġseltsamen": 5429,
      "GeschÃ¤ft": 5430,
      "ĠSmok": 5431,
      "ĠFrÃ¼chte": 5432,
      "einwohner": 5433,
      "trÃ¤gern": 5434,
      "ĠLebensmitteln": 5435,
      "Ġbietet": 5436,
      "Ġgesprungen": 5437,
      "ĠWebstuhl": 5438,
      "Erwachsen": 5439,
      "Ġpassenden": 5440,
      "ĠGÃ¼rtel": 5441,
      "ĠPizz": 5442,
      "ĠStammes": 5443,
      "ĠZebr": 5444,
      "ĠstÃ¶ÃŁt": 5445,
      "ĠEinkaufstasche": 5446,
      "Ġflauschiger": 5447,
      "Ġattrakt": 5448,
      "Ġserviert": 5449,
      "ĠLegg": 5450,
      "Ġjapanischen": 5451,
      "ĠKÃ¼rbis": 5452,
      "ĠSÃ¤ugling": 5453,
      "ĠmÃ¶glicherweise": 5454,
      "ĠÃ¶rtlichen": 5455,
      "arterback": 5456,
      "Ġtransportiert": 5457,
      "ĠBallerina": 5458,
      "ĠFreude": 5459,
      "ĠprÃ¤sentiert": 5460,
      "ĠPfadfinder": 5461,
      "ĠPferdeschwanz": 5462,
      "ĠLaborkittel": 5463,
      "dunkelten": 5464,
      "ĠTÃ¶pfer": 5465,
      "ĠrÃ¼ckwÃ¤rts": 5466,
      "ĠBeachvolleyball": 5467,
      "wehrauto": 5468,
      "wimmingpool": 5469,
      "zunehmen": 5470,
      "ĠZylinder": 5471,
      "ĠVorderseite": 5472,
      "Am": 5473,
      "Braut": 5474,
      "El": 5475,
      "Gel": 5476,
      "Hier": 5477,
      "Kleidung": 5478,
      "Mensch": 5479,
      "bu": 5480,
      "bÃ¼rste": 5481,
      "deln": 5482,
      "fig": 5483,
      "feuert": 5484,
      "garten": 5485,
      "gitter": 5486,
      "guckt": 5487,
      "iften": 5488,
      "jacken": 5489,
      "kater": 5490,
      "karren": 5491,
      "lÃ¼ck": 5492,
      "laub": 5493,
      "mo": 5494,
      "ou": 5495,
      "offen": 5496,
      "ph": 5497,
      "part": 5498,
      "rieben": 5499,
      "sol": 5500,
      "seil": 5501,
      "tlichkeit": 5502,
      "udio": 5503,
      "wol": 5504,
      "wander": 5505,
      "wÃ¼r": 5506,
      "xikan": 5507,
      "zw": 5508,
      "zelt": 5509,
      "Ġol": 5510,
      "iner": 5511,
      "inner": 5512,
      "iniert": 5513,
      "endet": 5514,
      "erfen": 5515,
      "einem": 5516,
      "Ġeinf": 5517,
      "auten": 5518,
      "anad": 5519,
      "emen": 5520,
      "unifor": 5521,
      "Einer": 5522,
      "eiter": 5523,
      "eide": 5524,
      "Ã¤um": 5525,
      "ĠMa": 5526,
      "ĠMaler": 5527,
      "ĠMaschinen": 5528,
      "ital": 5529,
      "elzen": 5530,
      "ĠSl": 5531,
      "ĠStern": 5532,
      "ĠSatt": 5533,
      "ĠSwimmingpool": 5534,
      "Ġmischt": 5535,
      "ĠmilitÃ¤r": 5536,
      "Ġmeisten": 5537,
      "ĠFont": 5538,
      "arte": 5539,
      "arfe": 5540,
      "Ã¼cke": 5541,
      "Ã¼chern": 5542,
      "ĠHab": 5543,
      "ĠHÃ¶r": 5544,
      "ĠHerk": 5545,
      "ĠHallen": 5546,
      "ĠHeim": 5547,
      "Ġburg": 5548,
      "ĠBle": 5549,
      "ĠBildern": 5550,
      "schung": 5551,
      "schiff": 5552,
      "schÃ¼ssel": 5553,
      "onischen": 5554,
      "stellen": 5555,
      "steiger": 5556,
      "ĠvÃ¶": 5557,
      "ĠKit": 5558,
      "ĠKauf": 5559,
      "ĠKick": 5560,
      "ĠKasse": 5561,
      "weil": 5562,
      "asken": 5563,
      "ĠGarn": 5564,
      "Ġhist": 5565,
      "alde": 5566,
      "esse": 5567,
      "ĠPir": 5568,
      "ĠPuppe": 5569,
      "ĠPull": 5570,
      "ĠPortrÃ¤t": 5571,
      "ĠPrÃ¤sentation": 5572,
      "genen": 5573,
      "Ġderen": 5574,
      "Ġkunst": 5575,
      "ĠTomaten": 5576,
      "Ġgesp": 5577,
      "Ġgefl": 5578,
      "Ġgesehen": 5579,
      "Ġangebracht": 5580,
      "Ġfischen": 5581,
      "Ġfischt": 5582,
      "ĠSchnei": 5583,
      "ĠSchaum": 5584,
      "ĠScheinw": 5585,
      "ĠSchutt": 5586,
      "ĠSchrift": 5587,
      "ĠJeep": 5588,
      "ĠRicht": 5589,
      "reicht": 5590,
      "ierung": 5591,
      "ĠLampen": 5592,
      "ĠLeinwand": 5593,
      "Ġblocken": 5594,
      "nerischen": 5595,
      "ĠAxt": 5596,
      "urz": 5597,
      "leimer": 5598,
      "ĠStÃ¶cken": 5599,
      "ĠStelzen": 5600,
      "Ġtrot": 5601,
      "ischem": 5602,
      "ĠÃ¼berall": 5603,
      "Ġrund": 5604,
      "ĠEier": 5605,
      "ĠEsst": 5606,
      "ĠZahl": 5607,
      "ĠMenschenansammlung": 5608,
      "Ġnasser": 5609,
      "Ġnamen": 5610,
      "ĠDel": 5611,
      "ĠDÃ¤mmerung": 5612,
      "becher": 5613,
      "isp": 5614,
      "Ġpl": 5615,
      "ĠHandschuhe": 5616,
      "Ġunterrichtet": 5617,
      "ĠBootes": 5618,
      "ochten": 5619,
      "spielt": 5620,
      "spielzeug": 5621,
      "ĠHood": 5622,
      "gelegt": 5623,
      "ĠFahrradhelm": 5624,
      "ĠSkil": 5625,
      "Ġtie": 5626,
      "ĠlieÃŁt": 5627,
      "ĠerhÃ¤lt": 5628,
      "blickt": 5629,
      "ĠStrands": 5630,
      "Ġsto": 5631,
      "Ġstolz": 5632,
      "ĠTracht": 5633,
      "ĠTransport": 5634,
      "ĠBauarbeiten": 5635,
      "Ġhochzu": 5636,
      "ĠSchneeschuhen": 5637,
      "ausstellung": 5638,
      "Ã¼hrer": 5639,
      "ĠFuÃŁballmannschaft": 5640,
      "ertag": 5641,
      "ĠKlasse": 5642,
      "Ġabgestellt": 5643,
      "ssaal": 5644,
      "ĠMotorhaube": 5645,
      "ĠEssensstand": 5646,
      "ĠHolzboden": 5647,
      "ĠHolzzaun": 5648,
      "ĠlÃ¤chelnden": 5649,
      "ĠPaare": 5650,
      "ĠEinsatz": 5651,
      "ffentlichkeit": 5652,
      "Ġkurze": 5653,
      "llig": 5654,
      "ĠUnfall": 5655,
      "Ġunorden": 5656,
      "ĠKÃ¼hl": 5657,
      "ĠspÃ¤rlich": 5658,
      "ĠSprÃ¼h": 5659,
      "iene": 5660,
      "ĠBergsteiger": 5661,
      "ĠPfeil": 5662,
      "ĠAufzug": 5663,
      "ĠFrieden": 5664,
      "ĠVorrichtung": 5665,
      "Ġstrahl": 5666,
      "Ġstreichen": 5667,
      "ĠPost": 5668,
      "ĠSchutzausrÃ¼stung": 5669,
      "ĠKleinkinder": 5670,
      "oldaten": 5671,
      "ĠEnte": 5672,
      "Ġfremden": 5673,
      "ĠmÃ¤nnliches": 5674,
      "ĠTurm": 5675,
      "ĠSchnur": 5676,
      "ĠLandstraÃŁe": 5677,
      "Scheibe": 5678,
      "ĠAusstellung": 5679,
      "glÃ¤sern": 5680,
      "Ġfestgebunden": 5681,
      "Ġgefolgt": 5682,
      "ĠFrisur": 5683,
      "ĠSchaulust": 5684,
      "paratur": 5685,
      "ĠToil": 5686,
      "ĠHerrn": 5687,
      "ĠHalskette": 5688,
      "Ġschminkt": 5689,
      "Ġschneit": 5690,
      "Ġliegenden": 5691,
      "fernung": 5692,
      "ĠUnterwÃ¤sche": 5693,
      "ĠÃ¶ffent": 5694,
      "ĠZiegelwand": 5695,
      "ĠZiegelsteinen": 5696,
      "ĠJugendlichen": 5697,
      "Ġrutschen": 5698,
      "Ġbewalde": 5699,
      "ĠDrink": 5700,
      "Ġkurzem": 5701,
      "konzert": 5702,
      "udel": 5703,
      "ĠPartie": 5704,
      "Ġstrecken": 5705,
      "ĠEimern": 5706,
      "ĠTelefonz": 5707,
      "ĠKostÃ¼me": 5708,
      "Ġeingeschla": 5709,
      "ĠSchmetter": 5710,
      "ips": 5711,
      "ĠjÃ¼ngerer": 5712,
      "ĠPflanze": 5713,
      "Ġafrikanischen": 5714,
      "ĠSieg": 5715,
      "ĠOveralls": 5716,
      "Ġverwenden": 5717,
      "ĠSchlauchboot": 5718,
      "front": 5719,
      "alerie": 5720,
      "Ġformt": 5721,
      "dachloser": 5722,
      "ĠSÃ¤ule": 5723,
      "ĠKrankenschw": 5724,
      "ĠRÃ¼ckseite": 5725,
      "ĠRÃ¼cksitz": 5726,
      "Ġaufgeregt": 5727,
      "ĠZiellinie": 5728,
      "rosse": 5729,
      "Ġfliegenden": 5730,
      "ĠGleisen": 5731,
      "ĠwunderschÃ¶ne": 5732,
      "ĠGitarristen": 5733,
      "ĠamÃ¼siert": 5734,
      "ĠBoxer": 5735,
      "ĠErdhÃ¼gel": 5736,
      "Ġjeder": 5737,
      "Ġerklimmen": 5738,
      "ĠfrÃ¶hlich": 5739,
      "viertel": 5740,
      "ĠLagerfeuer": 5741,
      "Ġregnerischen": 5742,
      "ĠÃĸffentlichkeit": 5743,
      "ĠBanjo": 5744,
      "Ġblondhaarige": 5745,
      "ĠProfi": 5746,
      "ĠFreizeitpark": 5747,
      "ĠGummi": 5748,
      "Ġkauert": 5749,
      "Blick": 5750,
      "ĠStromschn": 5751,
      "Ġverbunden": 5752,
      "zeichnung": 5753,
      "ĠKÃ¶rben": 5754,
      "ĠlÃ¶schen": 5755,
      "ĠEntfernung": 5756,
      "ĠgrÃ¶ÃŁeren": 5757,
      "Radfahrer": 5758,
      "ĠKlappstuhl": 5759,
      "ĠPlÃ¼scht": 5760,
      "ĠungewÃ¶hnlichen": 5761,
      "Ġmedizin": 5762,
      "ĠÃ¼bergewichtiger": 5763,
      "Ġoberen": 5764,
      "ĠRedner": 5765,
      "Ġheruntergekommen": 5766,
      "Ġfilmt": 5767,
      "Ġniedrigen": 5768,
      "Ġebenfalls": 5769,
      "ĠLaternen": 5770,
      "krÃ¤fte": 5771,
      "sauger": 5772,
      "robat": 5773,
      "ĠLacrosse": 5774,
      "Ġstaubigen": 5775,
      "Ġaufgereiht": 5776,
      "ĠRikscha": 5777,
      "ynch": 5778,
      "ĠMÃ¼lleimer": 5779,
      "ĠLasso": 5780,
      "Ġtrifft": 5781,
      "ĠvergnÃ¼gt": 5782,
      "ĠVerteid": 5783,
      "Ġabgebildet": 5784,
      "ĠErzeugnisse": 5785,
      "Ġkratzt": 5786,
      "ĠExperiment": 5787,
      "ĠLeggings": 5788,
      "uniformen": 5789,
      "ĠHerkunft": 5790,
      "Ġburgunder": 5791,
      "Ġhistor": 5792,
      "ĠRichtungen": 5793,
      "Ġnamens": 5794,
      "Ġunordentlichen": 5795,
      "Ġeingeschlafen": 5796,
      "Aut": 5797,
      "Be": 5798,
      "Band": 5799,
      "Hunde": 5800,
      "Man": 5801,
      "Tour": 5802,
      "Vater": 5803,
      "appt": 5804,
      "bÃ¼": 5805,
      "ble": 5806,
      "bbelt": 5807,
      "bÃ¤umen": 5808,
      "cre": 5809,
      "cont": 5810,
      "digen": 5811,
      "dachten": 5812,
      "dukt": 5813,
      "ebe": 5814,
      "exikan": 5815,
      "fÃ¤lt": 5816,
      "frÃ¼": 5817,
      "flaschen": 5818,
      "gten": 5819,
      "gaben": 5820,
      "hel": 5821,
      "hoch": 5822,
      "hack": 5823,
      "hause": 5824,
      "horn": 5825,
      "iÃ¶": 5826,
      "ipfl": 5827,
      "kle": 5828,
      "keln": 5829,
      "lampe": 5830,
      "mor": 5831,
      "mpf": 5832,
      "mart": 5833,
      "maler": 5834,
      "mÃ¼tzen": 5835,
      "ochen": 5836,
      "ragen": 5837,
      "raten": 5838,
      "rennfahrer": 5839,
      "saal": 5840,
      "tem": 5841,
      "uhr": 5842,
      "uhen": 5843,
      "upp": 5844,
      "uert": 5845,
      "udenten": 5846,
      "wa": 5847,
      "zus": 5848,
      "Ġ,": 5849,
      "ins": 5850,
      "inz": 5851,
      "inos": 5852,
      "chsen": 5853,
      "auber": 5854,
      "aupt": 5855,
      "eist": 5856,
      "eife": 5857,
      "Ã¤ge": 5858,
      "Ġdu": 5859,
      "ĠMÃ¶n": 5860,
      "ĠMorgen": 5861,
      "ĠSicht": 5862,
      "ĠmÃ¼": 5863,
      "ĠmÃ¤ht": 5864,
      "ĠFische": 5865,
      "ĠFarb": 5866,
      "geben": 5867,
      "Ã¼ge": 5868,
      "Ã¼nen": 5869,
      "Ã¼lt": 5870,
      "ĠHor": 5871,
      "ĠHambur": 5872,
      "ĠHallow": 5873,
      "iesen": 5874,
      "ĠbÃ¼r": 5875,
      "Ġbuck": 5876,
      "Ġbindet": 5877,
      "Ġbzw": 5878,
      "ĠBrillen": 5879,
      "schr": 5880,
      "schÃ¼r": 5881,
      "stall": 5882,
      "stÃ¶": 5883,
      "ĠiP": 5884,
      "ĠGab": 5885,
      "ĠGlast": 5886,
      "trachter": 5887,
      "ĠPullo": 5888,
      "rochen": 5889,
      "roll": 5890,
      "Ġkastanien": 5891,
      "ĠTim": 5892,
      "ĠTop": 5893,
      "pielzeug": 5894,
      "Ġdiesen": 5895,
      "Ġdiesel": 5896,
      "amte": 5897,
      "Ġgedr": 5898,
      "Ġgespannt": 5899,
      "Ġwahr": 5900,
      "Ġwett": 5901,
      "ĠwÃ¼rde": 5902,
      "Ġwissenschaft": 5903,
      "ĠfÃ¶rm": 5904,
      "Ġfasst": 5905,
      "Ġfolgen": 5906,
      "ĠfÃ¼llen": 5907,
      "Ġlau": 5908,
      "ĠSchok": 5909,
      "indigkeit": 5910,
      "ĠRosa": 5911,
      "ĠvorfÃ¼hrt": 5912,
      "ĠLade": 5913,
      "ĠLampe": 5914,
      "ĠLokal": 5915,
      "Ġklaren": 5916,
      "ĠAqu": 5917,
      "ĠAmer": 5918,
      "ĠStreich": 5919,
      "ump": 5920,
      "ata": 5921,
      "Ġsicht": 5922,
      "adung": 5923,
      "uth": 5924,
      "ĠStation": 5925,
      "ĠStativ": 5926,
      "legt": 5927,
      "Ġbedienen": 5928,
      "ĠZus": 5929,
      "ĠZeich": 5930,
      "Ġspring": 5931,
      "Ġspritzen": 5932,
      "ĠDes": 5933,
      "ĠDurch": 5934,
      "ĠDarbietung": 5935,
      "imer": 5936,
      "ĠWasserbecken": 5937,
      "ĠWasserflÃ¤che": 5938,
      "ish": 5939,
      "Ġentfer": 5940,
      "Ġpark": 5941,
      "Ġplatz": 5942,
      "Ġpassiert": 5943,
      "Ġverbr": 5944,
      "Ġvergn": 5945,
      "Ġverwir": 5946,
      "gramm": 5947,
      "griff": 5948,
      "ĠFahrg": 5949,
      "ĠFahrzeuge": 5950,
      "Ġgelangen": 5951,
      "Ġunteren": 5952,
      "ĠBoard": 5953,
      "ĠOberflÃ¤che": 5954,
      "ĠCon": 5955,
      "ĠCollege": 5956,
      "ĠCello": 5957,
      "Ġhervor": 5958,
      "ĠBlas": 5959,
      "ĠBlasen": 5960,
      "Ġtags": 5961,
      "uld": 5962,
      "ierenden": 5963,
      "Ġerreichen": 5964,
      "Ġerhobenen": 5965,
      "blase": 5966,
      "Ġsteile": 5967,
      "ĠstÃ¼rzt": 5968,
      "Derby": 5969,
      "ĠBauwerk": 5970,
      "ĠKleidungs": 5971,
      "ĠKopfschmuck": 5972,
      "Ã¼ndet": 5973,
      "schauen": 5974,
      "ĠFlip": 5975,
      "ĠFlipfl": 5976,
      "ĠAng": 5977,
      "ĠFuÃŁballtrikot": 5978,
      "ocknet": 5979,
      "Ã¤rmen": 5980,
      "ĠStraÃŁenfest": 5981,
      "ĠStraÃŁenseite": 5982,
      "ĠStraÃŁenverkÃ¤ufer": 5983,
      "Ġwarm": 5984,
      "Ġwarmen": 5985,
      "ĠPferder": 5986,
      "objekt": 5987,
      "ĠSkateboards": 5988,
      "Ġheller": 5989,
      "izont": 5990,
      "ĠHolzkonstruktion": 5991,
      "ĠStudent": 5992,
      "ĠText": 5993,
      "ĠTexas": 5994,
      "Ġwieder": 5995,
      "ĠInter": 5996,
      "Ġdarin": 5997,
      "Ġdaran": 5998,
      "Ġbetreten": 5999,
      "ĠBildes": 6000,
      "ĠTennisplatz": 6001,
      "ĠSteintreppe": 6002,
      "ĠKraft": 6003,
      "ĠMusikgruppe": 6004,
      "ĠBruder": 6005,
      "ĠFenstern": 6006,
      "ĠEiswagen": 6007,
      "ĠAufnahme": 6008,
      "Ġhohes": 6009,
      "ĠRegenbogen": 6010,
      "ĠRegenmantel": 6011,
      "ĠFeuerwerk": 6012,
      "ĠFeuerwehrauto": 6013,
      "schluss": 6014,
      "ĠZeitschriften": 6015,
      "ĠSchutzkleidung": 6016,
      "ĠKarohemd": 6017,
      "ĠFlusses": 6018,
      "ĠFlussufer": 6019,
      "ĠRennens": 6020,
      "digt": 6021,
      "Ġangehalten": 6022,
      "ĠKonstruktion": 6023,
      "ĠZauns": 6024,
      "ĠMitglied": 6025,
      "ĠAlter": 6026,
      "Ġgrin": 6027,
      "Ġfreien": 6028,
      "Ġorangefarbenes": 6029,
      "Ġschneebedeckte": 6030,
      "Ġschneebedecktes": 6031,
      "ĠEinkaufstÃ¼ten": 6032,
      "Ġgefangen": 6033,
      "Ġsonnen": 6034,
      "Ġspaziert": 6035,
      "Ġaussehendes": 6036,
      "ĠPlate": 6037,
      "ĠBiker": 6038,
      "ĠGericht": 6039,
      "ĠRasenflÃ¤che": 6040,
      "ĠFelsbrocken": 6041,
      "Ġbesucht": 6042,
      "ĠSchÃ¼rzen": 6043,
      "ĠParcours": 6044,
      "ĠAkten": 6045,
      "Ġdritter": 6046,
      "ĠschÃ¼tzen": 6047,
      "ĠschÃ¼tzt": 6048,
      "awai": 6049,
      "ĠHockeyspiel": 6050,
      "ĠFeuerwehrleute": 6051,
      "ĠheraushÃ¤ngen": 6052,
      "ĠTanzflÃ¤che": 6053,
      "Ġweiteren": 6054,
      "ĠKampfsportler": 6055,
      "handschuh": 6056,
      "Ġamerikanischer": 6057,
      "Ġbeleuchtet": 6058,
      "verkehr": 6059,
      "Ġflach": 6060,
      "ĠMarathonlÃ¤ufer": 6061,
      "armon": 6062,
      "ĠLaufbahn": 6063,
      "Ġschaukeln": 6064,
      "Ġholen": 6065,
      "Ġangezogener": 6066,
      "Ã¤hnlichen": 6067,
      "ĠTeilnehmer": 6068,
      "ĠBegeister": 6069,
      "Ġausgezogen": 6070,
      "ĠVerkaufsstand": 6071,
      "show": 6072,
      "ĠFischernetz": 6073,
      "ĠPlatte": 6074,
      "ĠWindhund": 6075,
      "ĠNachrichten": 6076,
      "Ġorientalisch": 6077,
      "ĠFlÃ¼geln": 6078,
      "ĠAuÃŁenbereich": 6079,
      "ĠKapuzenpullover": 6080,
      "ĠÃ¤rmellos": 6081,
      "ĠBadem": 6082,
      "Ġkrab": 6083,
      "ĠSpeise": 6084,
      "ĠSicherheitsweste": 6085,
      "ĠGleich": 6086,
      "Ġbestellen": 6087,
      "ĠKartons": 6088,
      "ĠhÃ¼bschen": 6089,
      "ĠhÃ¼bsche": 6090,
      "Ġanhaben": 6091,
      "Ġjeweil": 6092,
      "Ġverzierten": 6093,
      "scheinlich": 6094,
      "Ġgetroffen": 6095,
      "ĠOld": 6096,
      "Ġex": 6097,
      "ĠDunkel": 6098,
      "ĠÃ¼berprÃ¼fen": 6099,
      "pferd": 6100,
      "ĠNamensschild": 6101,
      "ĠtÃ¼rki": 6102,
      "ĠtÃ¤towierte": 6103,
      "Team": 6104,
      "ĠSegelboot": 6105,
      "ĠUreinwohner": 6106,
      "Ġelektrischen": 6107,
      "ĠNotiz": 6108,
      "Ġformeller": 6109,
      "Ġmuskul": 6110,
      "Ġboxen": 6111,
      "wettbewerb": 6112,
      "ĠSchachtel": 6113,
      "groÃŁen": 6114,
      "ĠÃ¤hnlich": 6115,
      "ĠSessel": 6116,
      "ĠBauernmarkt": 6117,
      "StraÃŁen": 6118,
      "gabe": 6119,
      "Ġmoder": 6120,
      "ĠMusikinstrumente": 6121,
      "club": 6122,
      "Ġakust": 6123,
      "trieb": 6124,
      "ĠPatienten": 6125,
      "Ġbefahrenen": 6126,
      "Ġschlendert": 6127,
      "ĠReklametafel": 6128,
      "Ġprotestiert": 6129,
      "Ġerleuchteten": 6130,
      "putzer": 6131,
      "Ġschlammigen": 6132,
      "ĠChina": 6133,
      "Ġausgestreckt": 6134,
      "ĠIrokesenschnitt": 6135,
      "kohol": 6136,
      "ĠWakeboard": 6137,
      "ĠNeugeborenes": 6138,
      "ĠCamping": 6139,
      "Ġdahinter": 6140,
      "Ġ2012": 6141,
      "Cheerleader": 6142,
      "Ġseichten": 6143,
      "Ã¤bchen": 6144,
      "ĠKilt": 6145,
      "ĠKneipe": 6146,
      "ĠWolken": 6147,
      "ĠRÃ¶hre": 6148,
      "ĠAmpel": 6149,
      "Ġbedruckten": 6150,
      "Ġumringt": 6151,
      "ĠHinterbeinen": 6152,
      "ĠSpeer": 6153,
      "ĠunglÃ¼ck": 6154,
      "Ġdribbelt": 6155,
      "eligiÃ¶": 6156,
      "ĠGeschwindigkeit": 6157,
      "ĠHÃ¤ndler": 6158,
      "ĠFelsvorsprung": 6159,
      "ĠNachbarschaft": 6160,
      "Erwachsene": 6161,
      "ĠPizza": 6162,
      "Ġattraktive": 6163,
      "ĠSattel": 6164,
      "ĠBlech": 6165,
      "ĠvÃ¶llig": 6166,
      "ĠPullunder": 6167,
      "ĠScheinwerfer": 6168,
      "ĠHoodie": 6169,
      "ĠFriedens": 6170,
      "Ġbewaldeten": 6171,
      "ĠStromschnellen": 6172,
      "Ġheruntergekommenen": 6173,
      "ynchron": 6174,
      "ĠVerteidiger": 6175,
      "ĠHamburger": 6176,
      "ĠHalloween": 6177,
      "ĠSchokol": 6178,
      "ĠZusammen": 6179,
      "Ġentfernen": 6180,
      "ĠvergnÃ¼gen": 6181,
      "ĠtagsÃ¼ber": 6182,
      "ĠFlipflops": 6183,
      "ĠBegeisterung": 6184,
      "Ġjeweils": 6185,
      "\".": 6186,
      "Acht": 6187,
      "Base": 6188,
      "Ich": 6189,
      "Ski": 6190,
      "Soldaten": 6191,
      "Wei": 6192,
      "Xyl": 6193,
      "aster": 6194,
      "bie": 6195,
      "bten": 6196,
      "bÃ¤r": 6197,
      "bÃ¤llen": 6198,
      "ddy": 6199,
      "eter": 6200,
      "ehen": 6201,
      "fol": 6202,
      "fuÃŁ": 6203,
      "farbe": 6204,
      "fession": 6205,
      "ging": 6206,
      "gibt": 6207,
      "gucken": 6208,
      "girl": 6209,
      "hte": 6210,
      "kas": 6211,
      "losen": 6212,
      "lose": 6213,
      "nungen": 6214,
      "oter": 6215,
      "paar": 6216,
      "punkt": 6217,
      "persp": 6218,
      "rÃ¤n": 6219,
      "ring": 6220,
      "roren": 6221,
      "sem": 6222,
      "set": 6223,
      "swagen": 6224,
      "szug": 6225,
      "timer": 6226,
      "vern": 6227,
      "wel": 6228,
      "werfen": 6229,
      "yer": 6230,
      "ydr": 6231,
      "zie": 6232,
      "zone": 6233,
      "zeichnet": 6234,
      "Ġ4": 6235,
      "Ġ9": 6236,
      "ĠXyl": 6237,
      "enzt": 6238,
      "ernen": 6239,
      "erbe": 6240,
      "eremon": 6241,
      "Ġeiniger": 6242,
      "Ġeingew": 6243,
      "Ġeinheim": 6244,
      "ĠsÃ¤gt": 6245,
      "Ġska": 6246,
      "Eink": 6247,
      "eimer": 6248,
      "Ã¤ck": 6249,
      "Ã¤gen": 6250,
      "Ã¤cke": 6251,
      "Ã¤he": 6252,
      "Ġdicken": 6253,
      "itu": 6254,
      "itor": 6255,
      "Ġindian": 6256,
      "ĠSqu": 6257,
      "ĠSub": 6258,
      "Ġmuss": 6259,
      "ĠmeiÃŁ": 6260,
      "ĠFang": 6261,
      "ĠFÃ¤cher": 6262,
      "gef": 6263,
      "arin": 6264,
      "Ġaufges": 6265,
      "Ã¼gt": 6266,
      "Ã¼henden": 6267,
      "ĠHause": 6268,
      "ĠHalle": 6269,
      "Ġbast": 6270,
      "Ġbocken": 6271,
      "Ġbrechen": 6272,
      "ĠBla": 6273,
      "ĠBest": 6274,
      "ĠBark": 6275,
      "ĠBusses": 6276,
      "ĠBÃ¼ndel": 6277,
      "schrau": 6278,
      "schieden": 6279,
      "schienen": 6280,
      "onne": 6281,
      "onder": 6282,
      "stem": 6283,
      "staben": 6284,
      "strauÃŁ": 6285,
      "hren": 6286,
      "ĠKul": 6287,
      "ĠKÃ¶che": 6288,
      "ash": 6289,
      "asz": 6290,
      "ĠGrau": 6291,
      "ĠGurt": 6292,
      "ĠGipfel": 6293,
      "orch": 6294,
      "orte": 6295,
      "orten": 6296,
      "altet": 6297,
      "tragen": 6298,
      "tromm": 6299,
      "treide": 6300,
      "espiel": 6301,
      "ckigen": 6302,
      "ĠPop": 6303,
      "Ġzerr": 6304,
      "Ġschlei": 6305,
      "Ġkap": 6306,
      "Ġkanad": 6307,
      "ĠThem": 6308,
      "ĠTÃ¼ten": 6309,
      "ĠTemp": 6310,
      "Ġgespielt": 6311,
      "Ġwel": 6312,
      "ĠwÃ¼r": 6313,
      "Ġansehen": 6314,
      "Ġfern": 6315,
      "Ġfasz": 6316,
      "Ġlos": 6317,
      "Ġlack": 6318,
      "Ġloh": 6319,
      "Ġlernen": 6320,
      "ĠSchieÃŁ": 6321,
      "ĠJet": 6322,
      "ĠzuhÃ¶rt": 6323,
      "itzern": 6324,
      "ĠRasier": 6325,
      "ierc": 6326,
      "Ġvorsicht": 6327,
      "ĠLin": 6328,
      "ĠLeit": 6329,
      "allt": 6330,
      "Ġblockt": 6331,
      "athlet": 6332,
      "pper": 6333,
      "ilien": 6334,
      "Ġschwenken": 6335,
      "utscht": 6336,
      "oly": 6337,
      "ĠStaffel": 6338,
      "ĠStiefel": 6339,
      "endem": 6340,
      "Ã¶ser": 6341,
      "gerÃ¤ten": 6342,
      "ĠbeiÃŁen": 6343,
      "iken": 6344,
      "Ġbeh": 6345,
      "Ġbeten": 6346,
      "Ġbetet": 6347,
      "ĠrÃ¼hrt": 6348,
      "Ġrichten": 6349,
      "ĠOP": 6350,
      "ĠOsten": 6351,
      "Ġauszu": 6352,
      "ĠauslÃ¤nd": 6353,
      "ĠZelten": 6354,
      "ĠZeremon": 6355,
      "ĠsprÃ¼ht": 6356,
      "ehren": 6357,
      "pfahl": 6358,
      "pfosten": 6359,
      "ĠDie": 6360,
      "ĠDig": 6361,
      "bewegung": 6362,
      "bewegungen": 6363,
      "ĠNad": 6364,
      "ĠNahaufnahme": 6365,
      "isst": 6366,
      "egelt": 6367,
      "hebt": 6368,
      "Ġpasst": 6369,
      "ĠFahrzeugen": 6370,
      "ĠVolk": 6371,
      "Ã¤cht": 6372,
      "ucher": 6373,
      "ĠFelskl": 6374,
      "gelber": 6375,
      "igten": 6376,
      "ĠBlask": 6377,
      "fahrrad": 6378,
      "Ġtun": 6379,
      "Ġthe": 6380,
      "ulkinder": 6381,
      "Ġerle": 6382,
      "bluse": 6383,
      "ĠstÃ¼r": 6384,
      "Ġstap": 6385,
      "Ġof": 6386,
      "ĠTrink": 6387,
      "Ġhochhack": 6388,
      "Ġrothaariger": 6389,
      "apier": 6390,
      "ammert": 6391,
      "artungs": 6392,
      "artphon": 6393,
      "itteln": 6394,
      "striert": 6395,
      "ĠGehstock": 6396,
      "opoly": 6397,
      "Ġbefind": 6398,
      "ĠFeldhockey": 6399,
      "ĠSonnenlicht": 6400,
      "ĠStadtpark": 6401,
      "ĠStraÃŁenarbeiter": 6402,
      "ĠStraÃŁenrennen": 6403,
      "stens": 6404,
      "ĠSandhÃ¼gel": 6405,
      "ĠSandburg": 6406,
      "elmarkt": 6407,
      "Ġregen": 6408,
      "ĠhellgrÃ¼nen": 6409,
      "ĠSchlucht": 6410,
      "ĠSchwimmflÃ¼": 6411,
      "ĠStudio": 6412,
      "ĠTeddy": 6413,
      "ĠReparatur": 6414,
      "ĠHÃ¤ngem": 6415,
      "flip": 6416,
      "Ã¤tte": 6417,
      "ĠInder": 6418,
      "ĠIndien": 6419,
      "ĠdarÃ¼ber": 6420,
      "ĠBaseballfeld": 6421,
      "ĠArbeitern": 6422,
      "ĠHÃ¼pf": 6423,
      "ĠHÃ¼fte": 6424,
      "ĠUnivers": 6425,
      "ĠverschrÃ¤n": 6426,
      "aken": 6427,
      "Ġuns": 6428,
      "ĠHosentrÃ¤gern": 6429,
      "ĠSteinbank": 6430,
      "ĠBetrachter": 6431,
      "ĠspÃ¤ht": 6432,
      "ĠArmee": 6433,
      "ĠPfanne": 6434,
      "gestÃ¼r": 6435,
      "mpfen": 6436,
      "ĠFootballspiel": 6437,
      "ĠBÃ¤cker": 6438,
      "Ġhocken": 6439,
      "Ġhohem": 6440,
      "ĠPolohemd": 6441,
      "ĠSporthalle": 6442,
      "ĠVorfÃ¼hrung": 6443,
      "ĠFeuerstelle": 6444,
      "blauer": 6445,
      "ĠBuchstaben": 6446,
      "ĠLeucht": 6447,
      "ĠHandys": 6448,
      "ĠMetallstange": 6449,
      "springer": 6450,
      "ektive": 6451,
      "ĠPuppen": 6452,
      "ĠRosen": 6453,
      "ĠPapiert": 6454,
      "ogo": 6455,
      "ĠKonf": 6456,
      "ĠProdukt": 6457,
      "ĠMitspieler": 6458,
      "hÃ¶rer": 6459,
      "ĠBetonmauer": 6460,
      "ĠBetonplat": 6461,
      "ĠFamilien": 6462,
      "ĠAuslage": 6463,
      "Ġumgebenen": 6464,
      "ĠgefÃ¤r": 6465,
      "Ġgefallen": 6466,
      "Ġgefroren": 6467,
      "klettert": 6468,
      "parcours": 6469,
      "Ġraus": 6470,
      "ĠRollers": 6471,
      "ĠkÃ¤mpft": 6472,
      "ubschrau": 6473,
      "ĠKopfbedeckungen": 6474,
      "Ġlachende": 6475,
      "ĠAbsatz": 6476,
      "ĠHochstuhl": 6477,
      "grÃ¼n": 6478,
      "kommt": 6479,
      "Ġschmalen": 6480,
      "ĠschnÃ¼ffelt": 6481,
      "Ġschnappt": 6482,
      "ĠMarmor": 6483,
      "ĠschÃ¶ner": 6484,
      "ĠUnterhemd": 6485,
      "Ġgewinnen": 6486,
      "ĠZiegelgebÃ¤ude": 6487,
      "ĠZiegelbau": 6488,
      "kostÃ¼men": 6489,
      "ĠMopp": 6490,
      "ĠMÃ¼llcont": 6491,
      "ĠParas": 6492,
      "Ġdritten": 6493,
      "Ġunbekann": 6494,
      "udd": 6495,
      "ĠGeldautomaten": 6496,
      "vorrichtung": 6497,
      "Ġweiterer": 6498,
      "ĠTaube": 6499,
      "ummern": 6500,
      "ĠRandstein": 6501,
      "ipe": 6502,
      "uktur": 6503,
      "formation": 6504,
      "formationen": 6505,
      "ĠSpiegelbild": 6506,
      "ĠSeifenblase": 6507,
      "ĠAnzahl": 6508,
      "Ġsilberne": 6509,
      "ĠLÃ¤uferin": 6510,
      "dose": 6511,
      "verkauf": 6512,
      "ĠChef": 6513,
      "ĠCheerlead": 6514,
      "gnis": 6515,
      "ĠBacksteinmauer": 6516,
      "ĠWaschmaschine": 6517,
      "Ġgepflasterte": 6518,
      "ĠLaufband": 6519,
      "ĠBaumstumpf": 6520,
      "Ġangezogene": 6521,
      "Ġchinesische": 6522,
      "Ġsoeben": 6523,
      "ĠFlugzeugs": 6524,
      "Ġirgendeinem": 6525,
      "Ã¤mmen": 6526,
      "Ã¤mpfer": 6527,
      "ĠTourist": 6528,
      "Ġausgeschnitten": 6529,
      "ĠÃ¶ffnen": 6530,
      "ĠgeschmÃ¼ckt": 6531,
      "ĠFliege": 6532,
      "struktur": 6533,
      "Ġfrischem": 6534,
      "shorts": 6535,
      "ĠPlatten": 6536,
      "Ġafroamerikanisches": 6537,
      "Ġorientalischer": 6538,
      "Ġruhig": 6539,
      "Ġgelegenen": 6540,
      "ĠGesichtsaus": 6541,
      "ĠSchlafzimmer": 6542,
      "ĠSicherheitswesten": 6543,
      "ospieler": 6544,
      "ĠProjektor": 6545,
      "ĠQuarterback": 6546,
      "Ġschaufeln": 6547,
      "Ġbestehend": 6548,
      "ĠKartoff": 6549,
      "ĠForm": 6550,
      "Ġaufblasbare": 6551,
      "Ġerklimmt": 6552,
      "Ġsaugt": 6553,
      "ĠGrÃ¼nflÃ¤che": 6554,
      "ĠKameram": 6555,
      "ĠFuÃŁgÃ¤ngerÃ¼bergang": 6556,
      "ĠmÃ¶chte": 6557,
      "Ġdekoriert": 6558,
      "Ġbreiten": 6559,
      "ĠWildnis": 6560,
      "ĠVÃ¶geln": 6561,
      "ĠSpielsachen": 6562,
      "ĠSmartphon": 6563,
      "Ġgehol": 6564,
      "ĠImbiss": 6565,
      "Ġelektronischen": 6566,
      "ĠMonopoly": 6567,
      "ĠFiguren": 6568,
      "ĠPapp": 6569,
      "ĠStaubsauger": 6570,
      "ĠOzeans": 6571,
      "ĠZahnbÃ¼rste": 6572,
      "Ġmehrfarbigen": 6573,
      "ĠWalmart": 6574,
      "ĠJogging": 6575,
      "gestellten": 6576,
      "traktion": 6577,
      "ĠSchneem": 6578,
      "ĠStabhoch": 6579,
      "ĠZiegen": 6580,
      "Ġbrennende": 6581,
      "Unter": 6582,
      "wettkampf": 6583,
      "ĠSchachteln": 6584,
      "ĠLaster": 6585,
      "Ġtrockenen": 6586,
      "ĠNagel": 6587,
      "Ġmittelalter": 6588,
      "Flops": 6589,
      "ĠBatman": 6590,
      "ĠSommertag": 6591,
      "ĠGarage": 6592,
      "ĠSupermarkt": 6593,
      "Ġaltmodischen": 6594,
      "ĠPeace": 6595,
      "Ġfaulenzen": 6596,
      "leitung": 6597,
      "kreuzten": 6598,
      "Ġkompletter": 6599,
      "ĠOlympischen": 6600,
      "GroÃŁer": 6601,
      "Verschieden": 6602,
      "Ġrosaroten": 6603,
      "Ġlegerer": 6604,
      "Ġuniformierter": 6605,
      "Ġprobiert": 6606,
      "ĠFernseher": 6607,
      "Ġbeteil": 6608,
      "orangefarbenen": 6609,
      "ĠPelz": 6610,
      "ĠPilot": 6611,
      "Ġschlecht": 6612,
      "Ġangemalt": 6613,
      "ĠEuropa": 6614,
      "liegenden": 6615,
      "Polizisten": 6616,
      "ĠSommer": 6617,
      "ĠBillard": 6618,
      "ĠGlatze": 6619,
      "Ġvorderen": 6620,
      "ĠAnweisungen": 6621,
      "Ġbegeistert": 6622,
      "mittag": 6623,
      "ĠWachmann": 6624,
      "ĠWollmÃ¼tze": 6625,
      "ĠStrumpfhose": 6626,
      "Ġrostigen": 6627,
      "ĠWassersprenger": 6628,
      "ĠSmoking": 6629,
      "wolke": 6630,
      "ĠFontÃ¤ne": 6631,
      "ĠKaufhaus": 6632,
      "Ġgeflochten": 6633,
      "ĠEsstisch": 6634,
      "ĠTelefonzelle": 6635,
      "ĠPlÃ¼schtier": 6636,
      "Touristen": 6637,
      "inosaur": 6638,
      "ĠHorizont": 6639,
      "ĠbÃ¼rstet": 6640,
      "Ġdieselbe": 6641,
      "Ġwettei": 6642,
      "ĠLadeflÃ¤che": 6643,
      "ĠheraushÃ¤ngender": 6644,
      "armonika": 6645,
      "ĠGleichgewicht": 6646,
      "ĠOldtimer": 6647,
      "ĠDunkelheit": 6648,
      "ĠmuskulÃ¶ser": 6649,
      "perspektive": 6650,
      "ydranten": 6651,
      "ĠXylophon": 6652,
      "Ġeingewickelt": 6653,
      "Ġskatet": 6654,
      "ĠmeiÃŁelt": 6655,
      "Ġbockenden": 6656,
      "Ġvorsichtig": 6657,
      "ĠZeremonie": 6658,
      "ĠBlaskapelle": 6659,
      "ĠHÃ¤ngematte": 6660,
      "ĠverschrÃ¤nkten": 6661,
      "ubschrauber": 6662,
      "00": 6663,
      "Bo": 6664,
      "CE": 6665,
      "DrauÃŁen": 6666,
      "Fre": 6667,
      "Fest": 6668,
      "Jugend": 6669,
      "Ki": 6670,
      "Kunden": 6671,
      "MS": 6672,
      "Motorrad": 6673,
      "Park": 6674,
      "Wagen": 6675,
      "Wett": 6676,
      "WeiÃŁ": 6677,
      "av": 6678,
      "adet": 6679,
      "bter": 6680,
      "brot": 6681,
      "ca": 6682,
      "caf": 6683,
      "dreht": 6684,
      "frau": 6685,
      "fÃ¤l": 6686,
      "fÃ¼hrer": 6687,
      "galerie": 6688,
      "hat": 6689,
      "hÃ¤ngt": 6690,
      "hÃ¼tte": 6691,
      "iffen": 6692,
      "katen": 6693,
      "karten": 6694,
      "kunft": 6695,
      "loch": 6696,
      "mÃ¶": 6697,
      "mark": 6698,
      "nach": 6699,
      "nummer": 6700,
      "po": 6701,
      "puppe": 6702,
      "pla": 6703,
      "pert": 6704,
      "plan": 6705,
      "pult": 6706,
      "raft": 6707,
      "rahmen": 6708,
      "rami": 6709,
      "tÃ¼r": 6710,
      "uten": 6711,
      "upf": 6712,
      "uell": 6713,
      "vr": 6714,
      "wend": 6715,
      "wirt": 6716,
      "wohl": 6717,
      "zur": 6718,
      "Ġc": 6719,
      "ĠEine": 6720,
      "Ġeu": 6721,
      "Ġern": 6722,
      "Ġeigen": 6723,
      "Ġcreme": 6724,
      "inchen": 6725,
      "enen": 6726,
      "enga": 6727,
      "ertern": 6728,
      "einig": 6729,
      "eindr": 6730,
      "einfahrt": 6731,
      "Ġseit": 6732,
      "Ġseicht": 6733,
      "Ġsegelt": 6734,
      "eis": 6735,
      "Ã¤ter": 6736,
      "Ã¤den": 6737,
      "ĠMil": 6738,
      "ĠMus": 6739,
      "itischen": 6740,
      "itÃ¤ten": 6741,
      "ĠSer": 6742,
      "ĠSar": 6743,
      "ĠSims": 6744,
      "ĠSÃ¤ge": 6745,
      "Ġmexikan": 6746,
      "ĠFu": 6747,
      "ĠFir": 6748,
      "ĠFle": 6749,
      "ĠFangen": 6750,
      "ĠFood": 6751,
      "gegend": 6752,
      "Ġaufeinander": 6753,
      "Ġaufgenommen": 6754,
      "ĠHawai": 6755,
      "ieh": 6756,
      "tete": 6757,
      "techn": 6758,
      "Ġbinden": 6759,
      "ĠBong": 6760,
      "ĠBagger": 6761,
      "schÃ¼t": 6762,
      "schlie": 6763,
      "school": 6764,
      "schildern": 6765,
      "stÃ¤": 6766,
      "stab": 6767,
      "stiefeln": 6768,
      "stÃ¶cken": 6769,
      "streifen": 6770,
      "storte": 6771,
      "rauf": 6772,
      "rauben": 6773,
      "hrt": 6774,
      "ĠKuss": 6775,
      "ĠKinn": 6776,
      "ĠKÃ¶nnen": 6777,
      "ĠGok": 6778,
      "orgt": 6779,
      "oreiter": 6780,
      "Ġheim": 6781,
      "Ġhackt": 6782,
      "alat": 6783,
      "alteten": 6784,
      "troll": 6785,
      "treten": 6786,
      "ĠPul": 6787,
      "ĠPult": 6788,
      "ĠPistole": 6789,
      "ichteten": 6790,
      "Ġschenkt": 6791,
      "roter": 6792,
      "ropÃ¤": 6793,
      "iellen": 6794,
      "Ġganzen": 6795,
      "ĠTut": 6796,
      "amter": 6797,
      "Ġgeflie": 6798,
      "Ġwenn": 6799,
      "Ġwilden": 6800,
      "dest": 6801,
      "Ġant": 6802,
      "Ġanzug": 6803,
      "ĠWa": 6804,
      "ĠWetter": 6805,
      "ĠWippe": 6806,
      "ĠWanne": 6807,
      "ĠWaffel": 6808,
      "ĠWissenschaft": 6809,
      "ĠWaffen": 6810,
      "ĠWarte": 6811,
      "Ġlust": 6812,
      "ĠlÃ¤dt": 6813,
      "Ġleitet": 6814,
      "ĠJenga": 6815,
      "Ġzurecht": 6816,
      "Ġzuhause": 6817,
      "Ġsteuert": 6818,
      "ney": 6819,
      "ĠRu": 6820,
      "ĠRast": 6821,
      "ungsk": 6822,
      "ungsm": 6823,
      "reignis": 6824,
      "ierend": 6825,
      "Ġvoran": 6826,
      "etscher": 6827,
      "ĠLaut": 6828,
      "ĠLatz": 6829,
      "ĠLenk": 6830,
      "Ġbleiben": 6831,
      "Ġbleibt": 6832,
      "ĠStreet": 6833,
      "uren": 6834,
      "urfer": 6835,
      "Ġschwere": 6836,
      "ĠHunder": 6837,
      "utaten": 6838,
      "ĠGrund": 6839,
      "ĠGraben": 6840,
      "olster": 6841,
      "ĠGetreide": 6842,
      "ĠStil": 6843,
      "Ġdenkt": 6844,
      "Ġtromm": 6845,
      "Ã¶vr": 6846,
      "Ã¤nzern": 6847,
      "ikel": 6848,
      "Ġbeeindr": 6849,
      "Ġricht": 6850,
      "ĠreligiÃ¶": 6851,
      "ĠOchsen": 6852,
      "ballspiel": 6853,
      "unterricht": 6854,
      "ĠEs": 6855,
      "ĠEreignis": 6856,
      "ĠZitr": 6857,
      "Ġnied": 6858,
      "ĠumzÃ¤unten": 6859,
      "pfeln": 6860,
      "Ġanderem": 6861,
      "ĠDom": 6862,
      "ĠDosen": 6863,
      "ĠDose": 6864,
      "ĠDschung": 6865,
      "imon": 6866,
      "ĠWasserstraÃŁe": 6867,
      "ĠNummern": 6868,
      "ellern": 6869,
      "isur": 6870,
      "egte": 6871,
      "later": 6872,
      "Ġspielenden": 6873,
      "hedr": 6874,
      "Ġentwe": 6875,
      "Ġpatr": 6876,
      "abteil": 6877,
      "gress": 6878,
      "gruppen": 6879,
      "grube": 6880,
      "ĠHandwerker": 6881,
      "boxen": 6882,
      "ĠBoote": 6883,
      "ĠBody": 6884,
      "Ġzweite": 6885,
      "anzt": 6886,
      "ĠSpielers": 6887,
      "ĠSpielern": 6888,
      "ĠCr": 6889,
      "ĠKok": 6890,
      "gelegten": 6891,
      "ĠUfers": 6892,
      "Ġsieben": 6893,
      "ĠBlut": 6894,
      "ĠBlock": 6895,
      "ĠFahrradrennen": 6896,
      "ĠSkim": 6897,
      "Ġtippt": 6898,
      "Ġhinweg": 6899,
      "Ġerziel": 6900,
      "ĠKamm": 6901,
      "blatt": 6902,
      "blÃ¤ser": 6903,
      "Ġalbern": 6904,
      "ĠBasken": 6905,
      "Ġhinteren": 6906,
      "etti": 6907,
      "ĠKopfstein": 6908,
      "Ġvorbeifahren": 6909,
      "ĠSpitz": 6910,
      "ĠSpinn": 6911,
      "ĠSchwebe": 6912,
      "ĠSchneeball": 6913,
      "Ã¼tz": 6914,
      "ĠFlammen": 6915,
      "ansicht": 6916,
      "stÃ¼cken": 6917,
      "aph": 6918,
      "erkl": 6919,
      "inke": 6920,
      "Ã¤rger": 6921,
      "ĠStadtszene": 6922,
      "ĠStraÃŁenszene": 6923,
      "Ġleben": 6924,
      "chtathlet": 6925,
      "ĠPferdes": 6926,
      "hohen": 6927,
      "ĠJeansshorts": 6928,
      "ĠGesellschaft": 6929,
      "ollie": 6930,
      "ĠHolzbrett": 6931,
      "Ã¤tzen": 6932,
      "ĠWandmaler": 6933,
      "ĠIndu": 6934,
      "ĠEinrichtung": 6935,
      "ketten": 6936,
      "ĠMed": 6937,
      "Ġgestreifte": 6938,
      "Ġverschm": 6939,
      "ĠGesichtsm": 6940,
      "ĠReihen": 6941,
      "affeln": 6942,
      "eeper": 6943,
      "rid": 6944,
      "riff": 6945,
      "ĠKÃ¼sten": 6946,
      "ĠBeutel": 6947,
      "ĠKunstgalerie": 6948,
      "Ġreicht": 6949,
      "ĠMusikinstrument": 6950,
      "ĠFelsens": 6951,
      "ĠBerglandschaft": 6952,
      "ĠPfeife": 6953,
      "astreifen": 6954,
      "ĠBasketballfeld": 6955,
      "bricht": 6956,
      "ĠFootballfeld": 6957,
      "ĠAufnah": 6958,
      "ĠLeop": 6959,
      "ĠVorstellung": 6960,
      "zeria": 6961,
      "ĠBadehosen": 6962,
      "ĠBadekappe": 6963,
      "schlange": 6964,
      "schlitten": 6965,
      "schwimmer": 6966,
      "Ġgenau": 6967,
      "essel": 6968,
      "ĠPok": 6969,
      "aterial": 6970,
      "blaue": 6971,
      "ĠWeiÃŁer": 6972,
      "Ġangefeuert": 6973,
      "ogie": 6974,
      "ĠEnd": 6975,
      "ĠEnten": 6976,
      "Ġfrischen": 6977,
      "Ġfrische": 6978,
      "ĠMitglieder": 6979,
      "ĠSchnorch": 6980,
      "ĠAlkohol": 6981,
      "Ġteilt": 6982,
      "Ġkarierter": 6983,
      "ĠLandung": 6984,
      "ĠBetonstufen": 6985,
      "Bahnstation": 6986,
      "Ġaller": 6987,
      "ĠGletscher": 6988,
      "ĠRennfahrer": 6989,
      "Ġtelefonieren": 6990,
      "ĠTorbogen": 6991,
      "schnell": 6992,
      "etzter": 6993,
      "ĠRockband": 6994,
      "ĠTeenagern": 6995,
      "grÃ¼ner": 6996,
      "ĠSchals": 6997,
      "ĠNeon": 6998,
      "lings": 6999,
      "ĠKanus": 7000,
      "ĠKaninchen": 7001,
      "ĠZigarre": 7002,
      "ĠWinterjacke": 7003,
      "ĠWintertag": 7004,
      "hÃ¼pfen": 7005,
      "ĠhÃ¼pfen": 7006,
      "ĠUnterhaltung": 7007,
      "ĠTrock": 7008,
      "ĠIhr": 7009,
      "ĠbesprÃ¼": 7010,
      "Ġbeginnen": 7011,
      "kost": 7012,
      "Ġgeschlagen": 7013,
      "Ġgeschrieben": 7014,
      "ĠLeichtathlet": 7015,
      "ĠVolleyballspiel": 7016,
      "ĠHerzen": 7017,
      "Ġvioletter": 7018,
      "ĠFischmarkt": 7019,
      "udeln": 7020,
      "ĠHandtaschen": 7021,
      "ĠBackflip": 7022,
      "ĠDekor": 7023,
      "ĠGeldbeutel": 7024,
      "ĠTauziehen": 7025,
      "ĠLadens": 7026,
      "ĠCoca": 7027,
      "Studenten": 7028,
      "ĠFahrzeugs": 7029,
      "Ġprofession": 7030,
      "handschuhen": 7031,
      "seligkeiten": 7032,
      "ĠKajaks": 7033,
      "ĠKnien": 7034,
      "Ġtraditionelle": 7035,
      "Ġlilafarbener": 7036,
      "Ġweiblichen": 7037,
      "ĠPassagieren": 7038,
      "Ġgepolster": 7039,
      "ĠHuhn": 7040,
      "ĠBacksteinstraÃŁe": 7041,
      "Ġabgesperr": 7042,
      "gliedern": 7043,
      "ĠFernsehen": 7044,
      "Ġgegnerische": 7045,
      "Ġlinke": 7046,
      "bewohner": 7047,
      "ĠglÃ¼ckliche": 7048,
      "ĠBaumstÃ¤mmen": 7049,
      "ĠLabrad": 7050,
      "ĠGelÃ¤ndefahrzeug": 7051,
      "Ġirgendeiner": 7052,
      "Ġdieses": 7053,
      "ĠInnenhof": 7054,
      "ĠInnenraum": 7055,
      "ĠÃľbung": 7056,
      "promenade": 7057,
      "ĠBeginn": 7058,
      "ĠBegriff": 7059,
      "ĠTages": 7060,
      "Ġeng": 7061,
      "ĠElmo": 7062,
      "ĠFliegen": 7063,
      "wÃ¤rtss": 7064,
      "ĠSoftballspieler": 7065,
      "ĠgieÃŁen": 7066,
      "Ġaufgeblasen": 7067,
      "ĠBades": 7068,
      "Ġkrie": 7069,
      "mitarbeiter": 7070,
      "Ġeinsamen": 7071,
      "Ġinteragieren": 7072,
      "Ġintervie": 7073,
      "ĠBÃ¼cherreg": 7074,
      "Ġdirigiert": 7075,
      "Ġbeschm": 7076,
      "Ġbraunhaariges": 7077,
      "ĠhÃ¼bsch": 7078,
      "instrumente": 7079,
      "ĠForscher": 7080,
      "ĠfrÃ¶hliche": 7081,
      "ĠGroÃŁstadt": 7082,
      "Ġpflanzen": 7083,
      "ĠPalme": 7084,
      "Ġgetragen": 7085,
      "ĠRingkampf": 7086,
      "Ġneuen": 7087,
      "ĠCheerleaderin": 7088,
      "Ġregelt": 7089,
      "Ġregnet": 7090,
      "ĠbarfÃ¼ÃŁiger": 7091,
      "ĠÃĸl": 7092,
      "Ġdekorativ": 7093,
      "ĠFilz": 7094,
      "Ġbreit": 7095,
      "ĠKabel": 7096,
      "ĠKabine": 7097,
      "Ġkhakifarbener": 7098,
      "ĠWildwasser": 7099,
      "ĠHundespielzeug": 7100,
      "Ġblondhaariger": 7101,
      "zufÃ¼hren": 7102,
      "fallenen": 7103,
      "ĠMotocrossfahrer": 7104,
      "Teenager": 7105,
      "Ġlanges": 7106,
      "ĠRugbyspieler": 7107,
      "Ġnassem": 7108,
      "ĠVersuch": 7109,
      "ĠViolett": 7110,
      "ĠUrlaub": 7111,
      "uscheln": 7112,
      "ĠHÃ¤user": 7113,
      "ĠLebensmittelmarkt": 7114,
      "ĠSchritt": 7115,
      "Ġschlafend": 7116,
      "Ġschlafendes": 7117,
      "ĠKÃ¤se": 7118,
      "ĠKÃ¤fig": 7119,
      "askott": 7120,
      "Ġanzusehen": 7121,
      "ĠZiege": 7122,
      "ĠkÃ¼mmern": 7123,
      "Ġbrennenden": 7124,
      "Mitglieder": 7125,
      "ĠFassade": 7126,
      "ĠPizzeria": 7127,
      "ĠWarnweste": 7128,
      "ĠRuderboot": 7129,
      "ĠLÃ¶wen": 7130,
      "ĠStartlinie": 7131,
      "ĠNahen": 7132,
      "ĠEinkaufstaschen": 7133,
      "Trikot": 7134,
      "ĠSchlittschuhen": 7135,
      "ĠSchlittschuh": 7136,
      "ĠPlÃ¼sch": 7137,
      "ĠdÃ¼nnen": 7138,
      "ĠPinsel": 7139,
      "ĠMusikinstrumenten": 7140,
      "ĠAbsperrung": 7141,
      "Ġfaulenzt": 7142,
      "ĠerhÃ¶h": 7143,
      "dianer": 7144,
      "Ġausgebreitet": 7145,
      "Ġausgebreiteten": 7146,
      "arium": 7147,
      "ĠStraÃŁenmusiker": 7148,
      "Basketballspieler": 7149,
      "ĠsÃ¤ubert": 7150,
      "Ġsortiert": 7151,
      "ĠFackel": 7152,
      "ĠTankstelle": 7153,
      "Ġreflektierenden": 7154,
      "Ġgemusterten": 7155,
      "jungfern": 7156,
      "kÃ¶rben": 7157,
      "ĠFitnes": 7158,
      "iegs": 7159,
      "ĠBroschÃ¼r": 7160,
      "Ġzielt": 7161,
      "ĠtrÃ¼ben": 7162,
      "Ġtropischen": 7163,
      "ĠDemonstration": 7164,
      "ĠWassermelonen": 7165,
      "ĠBohrmaschine": 7166,
      "Ġversteckt": 7167,
      "ĠPflasterstraÃŁe": 7168,
      "gestreiften": 7169,
      "ĠKontrolle": 7170,
      "ÃĦltere": 7171,
      "ĠMcDonalds": 7172,
      "ĠSeni": 7173,
      "ĠApple": 7174,
      "ĠAfrikaner": 7175,
      "Ġverschwommen": 7176,
      "ĠRodeoreiter": 7177,
      "Ġgefleckter": 7178,
      "ĠObjekte": 7179,
      "ĠPassagiere": 7180,
      "ĠKaffeetasse": 7181,
      "Fahrradfahrer": 7182,
      "ĠgesÃ¤umte": 7183,
      "ĠBananen": 7184,
      "ĠStammeskleidung": 7185,
      "ĠZebrastreifen": 7186,
      "Ġeinfachen": 7187,
      "ĠHabseligkeiten": 7188,
      "ĠPiraten": 7189,
      "Ġtrottet": 7190,
      "ispan": 7191,
      "Ġhochzuklettern": 7192,
      "ĠToiletten": 7193,
      "Ġburgunderroten": 7194,
      "Ġhistorischen": 7195,
      "bÃ¼hne": 7196,
      "Ġbuckeln": 7197,
      "ĠiPod": 7198,
      "ĠGlastÃ¼r": 7199,
      "ĠPullovern": 7200,
      "ĠTimes": 7201,
      "Ġwahrscheinlich": 7202,
      "ĠAktentasche": 7203,
      "Ġkrabbelt": 7204,
      "ĠtÃ¼rkisen": 7205,
      "ĠFriedenszeichen": 7206,
      "ĠSchokoladen": 7207,
      "ĠSquare": 7208,
      "ĠBlazer": 7209,
      "ĠBarkeeper": 7210,
      "ĠPopc": 7211,
      "Ġschleift": 7212,
      "ĠStaffelei": 7213,
      "ĠDigital": 7214,
      "ĠFelsklippe": 7215,
      "Ġhochhackigen": 7216,
      "gestÃ¼rzten": 7217,
      "ĠMÃ¼llcontainer": 7218,
      "ĠCheerleadern": 7219,
      "ĠGesichtsausdruck": 7220,
      "ĠKameramann": 7221,
      "ĠSmartphone": 7222,
      "Verschiedene": 7223,
      "Ġgeflochtenen": 7224,
      "cafÃ©": 7225,
      "ĠeuropÃ¤": 7226,
      "Ġseichtem": 7227,
      "ĠGokart": 7228,
      "Ġbeeindrucken": 7229,
      "ĠDschungel": 7230,
      "Ġentweder": 7231,
      "ĠBaskenmÃ¼tze": 7232,
      "ĠKopfsteinpflaster": 7233,
      "ĠSchwebebalken": 7234,
      "ĠWandmalerei": 7235,
      "ĠIndustr": 7236,
      "askottchen": 7237,
      "Air": 7238,
      "BH": 7239,
      "Co": 7240,
      "Cola": 7241,
      "Eis": 7242,
      "Fr": 7243,
      "Foto": 7244,
      "Kon": 7245,
      "KÃ¼nstler": 7246,
      "KÃ¶che": 7247,
      "Neben": 7248,
      "Pro": 7249,
      "Pass": 7250,
      "Wir": 7251,
      "bh": 7252,
      "bun": 7253,
      "bon": 7254,
      "baby": 7255,
      "bÃ¤lle": 7256,
      "brechen": 7257,
      "ct": 7258,
      "car": 7259,
      "fiel": 7260,
      "fisch": 7261,
      "fass": 7262,
      "fÃ¼hren": 7263,
      "gurt": 7264,
      "hol": 7265,
      "hÃ¤n": 7266,
      "hom": 7267,
      "hstÃ¼ck": 7268,
      "hemden": 7269,
      "if": 7270,
      "ide": 7271,
      "ider": 7272,
      "izen": 7273,
      "jama": 7274,
      "kn": 7275,
      "kÃ¤": 7276,
      "kie": 7277,
      "kollegen": 7278,
      "kapelle": 7279,
      "lim": 7280,
      "lassen": 7281,
      "mun": 7282,
      "mittel": 7283,
      "meister": 7284,
      "ness": 7285,
      "ober": 7286,
      "ostÃ¼men": 7287,
      "ove": 7288,
      "outfit": 7289,
      "person": 7290,
      "pern": 7291,
      "packt": 7292,
      "position": 7293,
      "pistole": 7294,
      "papier": 7295,
      "pipe": 7296,
      "ragt": 7297,
      "respiel": 7298,
      "saft": 7299,
      "teln": 7300,
      "tuch": 7301,
      "tÃ¤nzer": 7302,
      "tunnel": 7303,
      "teile": 7304,
      "usche": 7305,
      "wart": 7306,
      "wahl": 7307,
      "wiese": 7308,
      "watte": 7309,
      "werfer": 7310,
      "waffe": 7311,
      "wÃ¤rmen": 7312,
      "ye": 7313,
      "inis": 7314,
      "ench": 7315,
      "ende": 7316,
      "erie": 7317,
      "Ġeink": 7318,
      "Ġeinger": 7319,
      "Ġeinzufangen": 7320,
      "chor": 7321,
      "chtet": 7322,
      "aunen": 7323,
      "anell": 7324,
      "untr": 7325,
      "ĠsÃ¼": 7326,
      "Ġsenk": 7327,
      "Ġsorg": 7328,
      "eisen": 7329,
      "Ã¤sch": 7330,
      "ĠdÃ¼": 7331,
      "Ġdreck": 7332,
      "ĠMeg": 7333,
      "Ġintens": 7334,
      "ĠSMS": 7335,
      "ĠSalat": 7336,
      "underk": 7337,
      "undgebung": 7338,
      "Ġmobil": 7339,
      "Ġmensch": 7340,
      "ĠFan": 7341,
      "ĠFÃ¤u": 7342,
      "ĠauÃŁen": 7343,
      "gesch": 7344,
      "getrÃ¤n": 7345,
      "gestÃ¼hlen": 7346,
      "arden": 7347,
      "ards": 7348,
      "Ġaufrecht": 7349,
      "Ġaufhat": 7350,
      "Ã¼cher": 7351,
      "Ã¼bungen": 7352,
      "ĠHasen": 7353,
      "ĠHaut": 7354,
      "ĠHalb": 7355,
      "ĠHaken": 7356,
      "ĠHydranten": 7357,
      "ĠHubschrauber": 7358,
      "ieÃŁt": 7359,
      "Ġbett": 7360,
      "Ġbess": 7361,
      "ĠBur": 7362,
      "ĠBlei": 7363,
      "ĠBarr": 7364,
      "ĠBusch": 7365,
      "schle": 7366,
      "schauf": 7367,
      "schuss": 7368,
      "oners": 7369,
      "onern": 7370,
      "stil": 7371,
      "stÃ¤nd": 7372,
      "ĠKief": 7373,
      "ĠKittel": 7374,
      "ĠKunde": 7375,
      "ĠKegeln": 7376,
      "ĠKimon": 7377,
      "tennis": 7378,
      "ĠGo": 7379,
      "ĠGas": 7380,
      "ĠGÃ¤n": 7381,
      "order": 7382,
      "Ġhelle": 7383,
      "trock": 7384,
      "train": 7385,
      "tresen": 7386,
      "ĠPow": 7387,
      "ĠPing": 7388,
      "ĠPain": 7389,
      "ĠPosition": 7390,
      "gendet": 7391,
      "Ġzeich": 7392,
      "Ġzahl": 7393,
      "ĠzÃ¼ndet": 7394,
      "ichert": 7395,
      "ĠschÃ¤lt": 7396,
      "Ġschick": 7397,
      "Ġschatt": 7398,
      "Ġschippt": 7399,
      "rotes": 7400,
      "Ġkeine": 7401,
      "Ġkicken": 7402,
      "Ġkehren": 7403,
      "ĠTiger": 7404,
      "ĠTauch": 7405,
      "ĠTÃ¤nzern": 7406,
      "Ġgeschn": 7407,
      "Ġgefahren": 7408,
      "Ġgehoben": 7409,
      "ĠgekÃ¼": 7410,
      "Ġgepfle": 7411,
      "Ġwolk": 7412,
      "Ġanschaut": 7413,
      "ĠWhe": 7414,
      "ĠWÃ¤nde": 7415,
      "ĠWerbe": 7416,
      "ĠWunderk": 7417,
      "Ġfal": 7418,
      "ĠfrÃ¼": 7419,
      "Ġfeuert": 7420,
      "Ġleiden": 7421,
      "ĠSchle": 7422,
      "ĠSchÃ¤r": 7423,
      "ĠSchÃ¤d": 7424,
      "ĠSchienen": 7425,
      "ĠSchrauben": 7426,
      "ĠJu": 7427,
      "ĠJung": 7428,
      "nev": 7429,
      "erste": 7430,
      "ĠRÃ¼": 7431,
      "ĠRingen": 7432,
      "ĠRummel": 7433,
      "reit": 7434,
      "reibt": 7435,
      "ierer": 7436,
      "ierender": 7437,
      "ĠLo": 7438,
      "ĠLu": 7439,
      "ĠLig": 7440,
      "ĠLive": 7441,
      "allye": 7442,
      "ĠblÃ¼henden": 7443,
      "nern": 7444,
      "ĠAbst": 7445,
      "ĠStruktur": 7446,
      "atein": 7447,
      "ator": 7448,
      "atze": 7449,
      "Ġsicher": 7450,
      "urnier": 7451,
      "ppel": 7452,
      "illen": 7453,
      "Ġschweren": 7454,
      "ĠGriff": 7455,
      "olf": 7456,
      "nneren": 7457,
      "ĠschwarzweiÃŁer": 7458,
      "ĠGed": 7459,
      "ĠState": 7460,
      "ĠStelle": 7461,
      "Ġtrocknet": 7462,
      "Ã¶ÃŁe": 7463,
      "assage": 7464,
      "Ã¤nteln": 7465,
      "lex": 7466,
      "leger": 7467,
      "Ġbeigen": 7468,
      "ĠÃ¼berblickt": 7469,
      "ĠÃ¼berdachten": 7470,
      "Ġbeauf": 7471,
      "Ġbequ": 7472,
      "Ġbeendet": 7473,
      "Ġruft": 7474,
      "ĠEt": 7475,
      "ĠEben": 7476,
      "ĠEmpf": 7477,
      "ĠHemdbluse": 7478,
      "ĠZelte": 7479,
      "ĠZauber": 7480,
      "ĠZutaten": 7481,
      "ĠumgestÃ¼rzten": 7482,
      "pfÃ¼tze": 7483,
      "ĠDis": 7484,
      "ĠDess": 7485,
      "ĠDinosaur": 7486,
      "imate": 7487,
      "rest": 7488,
      "Ġpar": 7489,
      "Ġpinken": 7490,
      "absperr": 7491,
      "Ġverlegt": 7492,
      "ĠverÃ¤rger": 7493,
      "ustet": 7494,
      "ĠHandgel": 7495,
      "boss": 7496,
      "booten": 7497,
      "boote": 7498,
      "afft": 7499,
      "fert": 7500,
      "Ġuntergeht": 7501,
      "immten": 7502,
      "oshirt": 7503,
      "anzeige": 7504,
      "Ġkleinere": 7505,
      "uchs": 7506,
      "ĠSpielmann": 7507,
      "ĠSpielzeuge": 7508,
      "ĠCar": 7509,
      "ĠCom": 7510,
      "auffÃ¼hrung": 7511,
      "aufgerÃ¤": 7512,
      "ĠKom": 7513,
      "Ġherein": 7514,
      "Ġheran": 7515,
      "gelb": 7516,
      "bÃ¤ude": 7517,
      "ĠUlt": 7518,
      "ĠBlument": 7519,
      "Ġethn": 7520,
      "Ġetwa": 7521,
      "Ġtackelt": 7522,
      "uller": 7523,
      "ĠFuÃŁweg": 7524,
      "Ġorg": 7525,
      "Ġversehen": 7526,
      "ĠerzÃ¤": 7527,
      "Ġerreicht": 7528,
      "boarden": 7529,
      "bligen": 7530,
      "blumen": 7531,
      "ĠStrandpromenade": 7532,
      "Ġstill": 7533,
      "Ġstud": 7534,
      "ĠTrinken": 7535,
      "ĠTransp": 7536,
      "ĠTrench": 7537,
      "zenerie": 7538,
      "ettel": 7539,
      "ĠhochhÃ¤lt": 7540,
      "Ġhochspringt": 7541,
      "ĠSpag": 7542,
      "ĠSchwanz": 7543,
      "agiert": 7544,
      "agaz": 7545,
      "ĠTischdecke": 7546,
      "ĠTischtennis": 7547,
      "ĠFlanell": 7548,
      "Ġrothaarigen": 7549,
      "font": 7550,
      "ĠFuÃŁballteam": 7551,
      "ĠFuÃŁballteams": 7552,
      "stron": 7553,
      "ĠGitarrespiel": 7554,
      "sstudio": 7555,
      "ĠbefÃ¶r": 7556,
      "ĠStraÃŁenbahn": 7557,
      "ĠStraÃŁenmarkt": 7558,
      "Ġlebh": 7559,
      "Ind": 7560,
      "ffet": 7561,
      "Ġabgest": 7562,
      "ĠSandskulptur": 7563,
      "ĠMotorboot": 7564,
      "splatz": 7565,
      "spassage": 7566,
      "Ġfahrenden": 7567,
      "ĠGehwegs": 7568,
      "ĠSkateboardpark": 7569,
      "ĠSkateboardtrick": 7570,
      "Ġhellgelben": 7571,
      "deckten": 7572,
      "ĠGesichter": 7573,
      "ĠSchloss": 7574,
      "ollt": 7575,
      "ĠSchwimmwesten": 7576,
      "ĠHolztisch": 7577,
      "ĠHolzplat": 7578,
      "ĠTechn": 7579,
      "Ġwiegt": 7580,
      "ĠHÃ¤nge": 7581,
      "ĠBaums": 7582,
      "ĠInhalt": 7583,
      "ĠEinzel": 7584,
      "ĠBÃ¼rste": 7585,
      "ĠBaseballkleidung": 7586,
      "ford": 7587,
      "ĠReisen": 7588,
      "ĠReise": 7589,
      "Ġhaltend": 7590,
      "ĠMotorradfahrern": 7591,
      "schaftlich": 7592,
      "ĠdreikÃ¶pfige": 7593,
      "ĠunaufgerÃ¤": 7594,
      "ĠRadio": 7595,
      "ĠTennisschuhen": 7596,
      "ĠKrug": 7597,
      "Ã¼ckten": 7598,
      "ĠMusikern": 7599,
      "Ġsport": 7600,
      "ĠspÃ¼lt": 7601,
      "Ġgelbbrauner": 7602,
      "ĠArmband": 7603,
      "ĠBergg": 7604,
      "ĠPfannen": 7605,
      "ĠBron": 7606,
      "ĠMikrofone": 7607,
      "ĠMikrofonen": 7608,
      "braunem": 7609,
      "Ã¼llte": 7610,
      "ĠEisbahn": 7611,
      "ĠEislaufen": 7612,
      "ĠSpielzeugauto": 7613,
      "ĠAufschlag": 7614,
      "ĠAufmerksam": 7615,
      "ĠBlumenstrauÃŁ": 7616,
      "iven": 7617,
      "ivitÃ¤t": 7618,
      "steckt": 7619,
      "ĠPolo": 7620,
      "ĠPoloshirt": 7621,
      "ĠVorles": 7622,
      "ĠBadekleidung": 7623,
      "Ġstrickt": 7624,
      "schlacht": 7625,
      "Ġessend": 7626,
      "ĠZeitungen": 7627,
      "ĠMaulkÃ¶rben": 7628,
      "essor": 7629,
      "Ġbuntes": 7630,
      "ĠPose": 7631,
      "attle": 7632,
      "ĠKarnev": 7633,
      "blaues": 7634,
      "skuchen": 7635,
      "smittel": 7636,
      "ĠKasten": 7637,
      "ĠMetallzaun": 7638,
      "Ġnav": 7639,
      "ĠSpielerin": 7640,
      "autos": 7641,
      "ĠUmhÃ¤ngen": 7642,
      "ĠUmhÃ¤n": 7643,
      "Ã¤sser": 7644,
      "Ġumgedre": 7645,
      "Ġknie": 7646,
      "ĠSeilspringen": 7647,
      "ĠSchulkinder": 7648,
      "ĠPromenade": 7649,
      "ĠSchnÃ¼r": 7650,
      "ĠSchnell": 7651,
      "ĠSchnuller": 7652,
      "hÃ¶rern": 7653,
      "Ġteilnimmt": 7654,
      "ĠLandkarte": 7655,
      "ĠBetonbank": 7656,
      "ĠgemÃ¼t": 7657,
      "ĠAusschau": 7658,
      "ĠAusflug": 7659,
      "ĠAuswahl": 7660,
      "ĠEinkaufspassage": 7661,
      "ohmarkt": 7662,
      "ĠGemein": 7663,
      "klasse": 7664,
      "Ġgeradeaus": 7665,
      "werkzeug": 7666,
      "Ġraufen": 7667,
      "Ġoffener": 7668,
      "ĠRollern": 7669,
      "ĠCowgirl": 7670,
      "ĠAutositz": 7671,
      "Ġkommun": 7672,
      "ĠOrd": 7673,
      "ĠBikinis": 7674,
      "ĠWanderweg": 7675,
      "ĠSchÃ¼lern": 7676,
      "ĠRasenmÃ¤her": 7677,
      "Ġbricht": 7678,
      "ĠTeenagerin": 7679,
      "ĠToten": 7680,
      "ĠKampfkunst": 7681,
      "echan": 7682,
      "ĠSchale": 7683,
      "Ġschmettert": 7684,
      "Ġliegende": 7685,
      "hÃ¼te": 7686,
      "hÃ¼ten": 7687,
      "Ġbesuchen": 7688,
      "amerikanische": 7689,
      "koffer": 7690,
      "ĠMÃ¼lltÃ¼te": 7691,
      "ĠÃ¼pp": 7692,
      "ĠglÃ¤t": 7693,
      "ĠStÃ¼cke": 7694,
      "ĠWeihnachten": 7695,
      "ĠDress": 7696,
      "ĠNachtclub": 7697,
      "Ġfarbenfroh": 7698,
      "Ġdecken": 7699,
      "Ġsurfen": 7700,
      "ĠGebir": 7701,
      "krÃ¶te": 7702,
      "ĠWettlauf": 7703,
      "ĠSaal": 7704,
      "ĠMannschaftsk": 7705,
      "Ġausgestopf": 7706,
      "ĠFuÃŁgÃ¤ngerbrÃ¼cke": 7707,
      "kÃ¶pfigen": 7708,
      "ĠObdachloser": 7709,
      "ĠHochzeitskleidung": 7710,
      "ĠHochzeitstorte": 7711,
      "Ġgebaut": 7712,
      "Ġbalgen": 7713,
      "ĠjÃ¼ngeres": 7714,
      "ĠKajakfahrer": 7715,
      "ĠKathedr": 7716,
      "Ġdurchsucht": 7717,
      "ĠkostÃ¼m": 7718,
      "ĠWohnung": 7719,
      "Ġirgendet": 7720,
      "ĠWerkzeugen": 7721,
      "ĠgegenÃ¼berliegenden": 7722,
      "ĠTÃ¤nzerinnen": 7723,
      "Ġverkleideter": 7724,
      "bike": 7725,
      "Ġabgedunkelten": 7726,
      "coat": 7727,
      "farbigen": 7728,
      "mÃ¤dchen": 7729,
      "ĠFernrohr": 7730,
      "ĠwÃ¤re": 7731,
      "ĠwÃ¤hlt": 7732,
      "ĠFuÃŁballspielen": 7733,
      "ĠglÃ¼ckliches": 7734,
      "halm": 7735,
      "ĠSchaufeln": 7736,
      "Ġverfolgen": 7737,
      "Ġchinesischer": 7738,
      "ĠBulle": 7739,
      "ĠTraining": 7740,
      "Ġschmutziges": 7741,
      "ĠGolfplatz": 7742,
      "Ġerwachsenen": 7743,
      "ĠSteg": 7744,
      "Ġobwohl": 7745,
      "dienung": 7746,
      "produ": 7747,
      "ĠMilitÃ¤rangehÃ¶r": 7748,
      "ĠBegleiter": 7749,
      "ĠwunderschÃ¶n": 7750,
      "ĠRÃ¼ckwÃ¤rtss": 7751,
      "ĠKarateanzug": 7752,
      "ĠKarateanzÃ¼gen": 7753,
      "ĠHindernisparcours": 7754,
      "Ġkontroll": 7755,
      "ĠLiebl": 7756,
      "ĠLiegestÃ¼hlen": 7757,
      "ĠZÃ¤hnen": 7758,
      "ĠNachmittag": 7759,
      "ĠMeeresfrÃ¼": 7760,
      "Ġweinendes": 7761,
      "Ġruhigem": 7762,
      "ĠBadmin": 7763,
      "ĠKek": 7764,
      "Ġwurden": 7765,
      "ĠSeitenlinie": 7766,
      "ĠBullenreiter": 7767,
      "ĠgeschÃ¤ftige": 7768,
      "ĠSchaufensterfront": 7769,
      "gegenstand": 7770,
      "ĠGleis": 7771,
      "ĠvorÃ¼bergehen": 7772,
      "ĠbeschÃ¤d": 7773,
      "Ġbestellt": 7774,
      "ica": 7775,
      "Ġfarbige": 7776,
      "ĠFestival": 7777,
      "Ġbedeckter": 7778,
      "ĠGewehren": 7779,
      "ĠKÃ¼chentresen": 7780,
      "stehenden": 7781,
      "ĠfrÃ¶hliches": 7782,
      "ĠpflÃ¼ckt": 7783,
      "Ġwenig": 7784,
      "Ġevent": 7785,
      "Ġgerichtet": 7786,
      "Ġgoldfarbenen": 7787,
      "ĠDunkeln": 7788,
      "ĠTaucheranzug": 7789,
      "Ġunterschiedlicher": 7790,
      "besitz": 7791,
      "ĠMÃ¶wen": 7792,
      "ĠPerÃ¼cke": 7793,
      "ĠKartenspiel": 7794,
      "ĠÃĸff": 7795,
      "Ġverlassenen": 7796,
      "Ġdekorierten": 7797,
      "ĠSoftballspiel": 7798,
      "wirft": 7799,
      "unktion": 7800,
      "ĠKabeln": 7801,
      "Ġnackte": 7802,
      "Ġnackten": 7803,
      "Ġnacktes": 7804,
      "ĠtÃ¤towierter": 7805,
      "ĠProfessor": 7806,
      "Ġbegutachten": 7807,
      "GebÃ¤ude": 7808,
      "ĠFrÃ¼hstÃ¼ck": 7809,
      "ĠgehÃ¼llt": 7810,
      "ĠfÃ¼ttern": 7811,
      "Ġentgegenges": 7812,
      "ĠFreizeitkleidung": 7813,
      "ĠSpazierstock": 7814,
      "Ġbuntem": 7815,
      "ĠHochzeitskleid": 7816,
      "ĠWeihnachtsmannkostÃ¼m": 7817,
      "ĠBesuch": 7818,
      "ĠPaket": 7819,
      "ĠNotizen": 7820,
      "Ġmehrfarbige": 7821,
      "ĠVideospiele": 7822,
      "ymb": 7823,
      "ĠPitch": 7824,
      "Ġkaukas": 7825,
      "ĠJoggen": 7826,
      "ĠJogger": 7827,
      "gestellte": 7828,
      "ĠKrankenhausbett": 7829,
      "Ġarmen": 7830,
      "Ġbohrt": 7831,
      "Ã¤ngst": 7832,
      "Ġhochgehoben": 7833,
      "ĠEssenswagen": 7834,
      "ĠFingernÃ¤": 7835,
      "ĠModellflugzeug": 7836,
      "Mitarbeiter": 7837,
      "ailing": 7838,
      "ĠKÃ¶rbe": 7839,
      "ĠGÃ¼rteln": 7840,
      "ĠWarnwesten": 7841,
      "ĠVideokamera": 7842,
      "Ġservieren": 7843,
      "ĠBatik": 7844,
      "Ġangelein": 7845,
      "ĠLippenstift": 7846,
      "ĠDoppel": 7847,
      "ĠKlappstÃ¼hlen": 7848,
      "ĠBordsteinkante": 7849,
      "ĠSchotterweg": 7850,
      "ĠSchotterstraÃŁe": 7851,
      "Footballspieler": 7852,
      "ĠMinig": 7853,
      "ĠSommerk": 7854,
      "ĠGaragen": 7855,
      "ĠLimon": 7856,
      "ĠLimous": 7857,
      "ĠÃĦrm": 7858,
      "Ġakrobat": 7859,
      "Ġbefahrene": 7860,
      "Ġschlendern": 7861,
      "ĠSaiteninstrument": 7862,
      "Ġirgendwo": 7863,
      "Ġkompliz": 7864,
      "ĠgeÃ¶ffnetem": 7865,
      "Sport": 7866,
      "indestens": 7867,
      "elstreifen": 7868,
      "Ġinspizieren": 7869,
      "Ġinspiziert": 7870,
      "ĠHighschool": 7871,
      "ĠKhakihose": 7872,
      "ĠPunkten": 7873,
      "Ġfreut": 7874,
      "ĠAktion": 7875,
      "Ġuniformierte": 7876,
      "Ġprobieren": 7877,
      "ĠFernseh": 7878,
      "ĠHotdogs": 7879,
      "Ġqual": 7880,
      "ĠSackhÃ¼pfen": 7881,
      "Ġerwischt": 7882,
      "blÃ¤tter": 7883,
      "blÃ¤ttern": 7884,
      "Ġrauchend": 7885,
      "ĠStofftier": 7886,
      "FeuerwehrmÃ¤nner": 7887,
      "ĠPyrami": 7888,
      "ĠAmboss": 7889,
      "gerÃ¤te": 7890,
      "ĠEiswaffeln": 7891,
      "ĠBahngleisen": 7892,
      "Ġmarineblauen": 7893,
      "Ġgeschminkten": 7894,
      "ĠtÃ¼rkisfarbenen": 7895,
      "ĠBulldo": 7896,
      "schneiden": 7897,
      "ĠPony": 7898,
      "Ġgesenktem": 7899,
      "bereitung": 7900,
      "ĠZuckerwatte": 7901,
      "ĠMÃ¶belstÃ¼ck": 7902,
      "party": 7903,
      "wÃ¼rd": 7904,
      "Ġolymp": 7905,
      "Ã¤umt": 7906,
      "ĠHÃ¶rsaal": 7907,
      "Ġkunstvollen": 7908,
      "Ġplant": 7909,
      "Ġtiefen": 7910,
      "ĠSchaulustige": 7911,
      "ĠSchmetterling": 7912,
      "crew": 7913,
      "fÃ¤ltig": 7914,
      "ĠAquarium": 7915,
      "ĠDurchgang": 7916,
      "Ġplatziert": 7917,
      "Ġverwirrt": 7918,
      "ĠTextnach": 7919,
      "ĠÃ¤rmellosem": 7920,
      "ĠSpeisekarte": 7921,
      "Ġmodernen": 7922,
      "Ġakustische": 7923,
      "ĠSubway": 7924,
      "arinette": 7925,
      "ĠThema": 7926,
      "ĠTempel": 7927,
      "Ġfasziniert": 7928,
      "ĠNadelstreifen": 7929,
      "Ġbefindlichen": 7930,
      "Ġregenbogen": 7931,
      "ĠSchwimmflÃ¼geln": 7932,
      "ĠHÃ¼pfburg": 7933,
      "ĠKonfetti": 7934,
      "ĠBetonplatte": 7935,
      "ĠParasailing": 7936,
      "ĠStabhochsprung": 7937,
      "Ġbeteiligt": 7938,
      "Ġwetteifern": 7939,
      "Ġseitlich": 7940,
      "ĠHawaii": 7941,
      "ĠDomino": 7942,
      "ĠLeoparden": 7943,
      "ĠSchnorchel": 7944,
      "ĠDekorationen": 7945,
      "Ġabgesperrten": 7946,
      "Ġaufgeblasenen": 7947,
      "ĠBÃ¼cherregal": 7948,
      "Ġdekorativen": 7949,
      "ĠFilzhut": 7950,
      "ĠFitnessstudio": 7951,
      "ĠSenioren": 7952,
      "ĠPopcorn": 7953,
      "ĠDigitalkamera": 7954,
      "ĠKopfsteinpflasterstraÃŁe": 7955,
      "ĠIndustrie": 7956,
      "Konzert": 7957,
      "bunten": 7958,
      "oberflÃ¤che": 7959,
      "untry": 7960,
      "ĠsorgfÃ¤ltig": 7961,
      "Ġintensiv": 7962,
      "schaufel": 7963,
      "ĠKiefern": 7964,
      "Ġzeichnen": 7965,
      "ĠWunderker": 7966,
      "Ġbeaufsicht": 7967,
      "ĠEmpfang": 7968,
      "ĠverÃ¤rgert": 7969,
      "ĠSpielmannszug": 7970,
      "ĠUltimate": 7971,
      "Ġstudiert": 7972,
      "ĠTrenchcoat": 7973,
      "ĠunaufgerÃ¤umten": 7974,
      "ĠAufmerksamkeit": 7975,
      "ĠVorlesung": 7976,
      "ĠUmhÃ¤nge": 7977,
      "ĠKathedrale": 7978,
      "Ġirgendetwas": 7979,
      "ĠBadminton": 7980,
      "Ġeventuell": 7981,
      "ĠLimousine": 7982,
      "ĠPyramide": 7983,
      ".âĢľ": 7984,
      "Ball": 7985,
      "Bob": 7986,
      "Bade": 7987,
      "Beim": 7988,
      "Cow": 7989,
      "Compu": 7990,
      "Demonstr": 7991,
      "Fischer": 7992,
      "Hund": 7993,
      "Hinter": 7994,
      "Kr": 7995,
      "Kam": 7996,
      "Kopf": 7997,
      "Le": 7998,
      "Land": 7999,
      "Mar": 8000,
      "MÃ¤nn": 8001,
      "Ob": 8002,
      "Or": 8003,
      "Paar": 8004,
      "Rot": 8005,
      "Renn": 8006,
      "Rennen": 8007,
      "Restaurant": 8008,
      "So": 8009,
      "Sand": 8010,
      "Skate": 8011,
      "Skater": 8012,
      "Tisch": 8013,
      "Typ": 8014,
      "TÃ¤nzer": 8015,
      "Tunnel": 8016,
      "Tattoo": 8017,
      "Werbung": 8018,
      "ages": 8019,
      "bein": 8020,
      "biet": 8021,
      "bÃ¼ndel": 8022,
      "cap": 8023,
      "eck": 8024,
      "eut": 8025,
      "eckt": 8026,
      "fz": 8027,
      "fchen": 8028,
      "ftet": 8029,
      "fleisch": 8030,
      "fÃ¤lle": 8031,
      "fpipe": 8032,
      "gar": 8033,
      "gter": 8034,
      "gumm": 8035,
      "gÃ¼rt": 8036,
      "gÃ¤ste": 8037,
      "ham": 8038,
      "helmen": 8039,
      "hÃ¤ng": 8040,
      "ix": 8041,
      "iot": 8042,
      "icke": 8043,
      "iqu": 8044,
      "iemen": 8045,
      "junge": 8046,
      "jagt": 8047,
      "ky": 8048,
      "kelt": 8049,
      "kart": 8050,
      "kissen": 8051,
      "kiste": 8052,
      "lers": 8053,
      "llen": 8054,
      "lÃ¤ufern": 8055,
      "met": 8056,
      "mischer": 8057,
      "mobil": 8058,
      "masten": 8059,
      "mÃ¤nteln": 8060,
      "nte": 8061,
      "nÃ¤he": 8062,
      "opp": 8063,
      "ofen": 8064,
      "pl": 8065,
      "pit": 8066,
      "por": 8067,
      "passen": 8068,
      "pullover": 8069,
      "piste": 8070,
      "pierc": 8071,
      "rat": 8072,
      "ringen": 8073,
      "rasse": 8074,
      "ruh": 8075,
      "rutscht": 8076,
      "sein": 8077,
      "ses": 8078,
      "sÃ¤nger": 8079,
      "sgeschÃ¤ft": 8080,
      "sfest": 8081,
      "ts": 8082,
      "theke": 8083,
      "uen": 8084,
      "ugt": 8085,
      "uteten": 8086,
      "voller": 8087,
      "vÃ¶l": 8088,
      "wt": 8089,
      "ware": 8090,
      "zz": 8091,
      "zchen": 8092,
      "zieht": 8093,
      "zuschau": 8094,
      "zahl": 8095,
      "Ãľ": 8096,
      "Ġ&": 8097,
      "Ġ8": 8098,
      "Ġel": 8099,
      "Ġatt": 8100,
      "entr": 8101,
      "Ġeinzu": 8102,
      "Ġeinschlie": 8103,
      "ane": 8104,
      "any": 8105,
      "anas": 8106,
      "anis": 8107,
      "unner": 8108,
      "Ġsan": 8109,
      "Ġsumpf": 8110,
      "Ġsynchron": 8111,
      "Ã¤nen": 8112,
      "Ã¤hnen": 8113,
      "Ã¤fchen": 8114,
      "Ġdeu": 8115,
      "Ġdaf": 8116,
      "Ġdicker": 8117,
      "ĠMel": 8118,
      "ĠMal": 8119,
      "ĠMach": 8120,
      "ĠMast": 8121,
      "ĠMake": 8122,
      "ĠMasken": 8123,
      "ĠMesse": 8124,
      "ĠMaterial": 8125,
      "itiert": 8126,
      "eld": 8127,
      "elie": 8128,
      "elfer": 8129,
      "eleine": 8130,
      "Ġinner": 8131,
      "Ġinform": 8132,
      "ĠSan": 8133,
      "ĠSam": 8134,
      "ĠSol": 8135,
      "ĠSÃ¶": 8136,
      "ĠSaft": 8137,
      "ĠSumpf": 8138,
      "ĠSari": 8139,
      "ĠSymb": 8140,
      "Ġmet": 8141,
      "Ġmat": 8142,
      "Ġmerk": 8143,
      "Ġmaler": 8144,
      "Ġmisst": 8145,
      "Ġmindestens": 8146,
      "ĠFund": 8147,
      "ĠFar": 8148,
      "ĠFast": 8149,
      "ĠFÃ¼hrung": 8150,
      "ĠFaust": 8151,
      "geschen": 8152,
      "geBob": 8153,
      "ars": 8154,
      "arat": 8155,
      "artet": 8156,
      "Ġaufgeb": 8157,
      "Ã¼sten": 8158,
      "Ã¼hlt": 8159,
      "ĠHÃ¼t": 8160,
      "ĠHart": 8161,
      "ĠHaust": 8162,
      "ĠHarfe": 8163,
      "ĠHaupt": 8164,
      "iefer": 8165,
      "iester": 8166,
      "iegend": 8167,
      "tetes": 8168,
      "Ġbumm": 8169,
      "ĠBÃ¶": 8170,
      "ĠBahnen": 8171,
      "ĠBÃ¤ren": 8172,
      "schale": 8173,
      "schonern": 8174,
      "ongeBob": 8175,
      "start": 8176,
      "steigt": 8177,
      "stÃ¶cke": 8178,
      "raun": 8179,
      "ÃŁten": 8180,
      "ÃŁlich": 8181,
      "ĠKau": 8182,
      "ĠKre": 8183,
      "ĠKirm": 8184,
      "ĠKutsche": 8185,
      "ĠKollegen": 8186,
      "ĠGÃ¤ste": 8187,
      "orb": 8188,
      "orangen": 8189,
      "Ġhal": 8190,
      "Ġharten": 8191,
      "alie": 8192,
      "altes": 8193,
      "trieben": 8194,
      "esst": 8195,
      "ĠPrei": 8196,
      "ĠPrÃ¼": 8197,
      "ĠPack": 8198,
      "ĠPatr": 8199,
      "ĠPunkt": 8200,
      "Ġzerb": 8201,
      "Ġzerkl": 8202,
      "ĠschrÃ¤": 8203,
      "rote": 8204,
      "Ġkein": 8205,
      "Ġkrei": 8206,
      "ĠkÃ¼nst": 8207,
      "ĠkÃ¼nstler": 8208,
      "ĠTun": 8209,
      "ĠTrau": 8210,
      "ĠTÃ¼te": 8211,
      "ĠTinten": 8212,
      "ĠTellern": 8213,
      "ame": 8214,
      "ames": 8215,
      "ament": 8216,
      "Ġgesche": 8217,
      "Ġgeschl": 8218,
      "Ġgebogen": 8219,
      "Ġgesteckt": 8220,
      "Ġgejagt": 8221,
      "Ġwe": 8222,
      "Ġwaten": 8223,
      "Ġwinken": 8224,
      "Ġwasser": 8225,
      "Ġwinz": 8226,
      "Ġanger": 8227,
      "Ġanschein": 8228,
      "Ġanschauen": 8229,
      "ĠWh": 8230,
      "ĠWÃ¤l": 8231,
      "ĠWÃ¼r": 8232,
      "ĠWelt": 8233,
      "ĠWort": 8234,
      "ĠWangen": 8235,
      "ĠWerb": 8236,
      "ĠWartungs": 8237,
      "ĠWÃ¤sch": 8238,
      "Ġfein": 8239,
      "Ġfechten": 8240,
      "Ġfunktion": 8241,
      "Ġlok": 8242,
      "Ġlehrt": 8243,
      "Ġlenkt": 8244,
      "Ġletzten": 8245,
      "ĠSchweiÃŁ": 8246,
      "ĠSchanze": 8247,
      "Ġzueinander": 8248,
      "Ġzupft": 8249,
      "Ġzugeht": 8250,
      "ĠzuhÃ¶ren": 8251,
      "Ġzuguckt": 8252,
      "Ġzugucken": 8253,
      "Ġstecken": 8254,
      "nete": 8255,
      "ĠReit": 8256,
      "ĠRunde": 8257,
      "ĠRollen": 8258,
      "ĠRampen": 8259,
      "ĠRiesen": 8260,
      "ĠRallye": 8261,
      "ĠRiemen": 8262,
      "reich": 8263,
      "achte": 8264,
      "ierigkeiten": 8265,
      "Ġsitzend": 8266,
      "Ġsitzendes": 8267,
      "Ġvorbereiten": 8268,
      "etch": 8269,
      "ĠLi": 8270,
      "ĠLob": 8271,
      "ĠLichtern": 8272,
      "ĠLÃ¤ufern": 8273,
      "ĠLadung": 8274,
      "Ġklar": 8275,
      "Ġklass": 8276,
      "ĠAcker": 8277,
      "umor": 8278,
      "atuen": 8279,
      "ure": 8280,
      "adem": 8281,
      "Ġdemon": 8282,
      "ilf": 8283,
      "ilde": 8284,
      "Ġrollen": 8285,
      "utschen": 8286,
      "utlich": 8287,
      "olpert": 8288,
      "euen": 8289,
      "euten": 8290,
      "eugen": 8291,
      "eudert": 8292,
      "ota": 8293,
      "ĠschwarzweiÃŁen": 8294,
      "ĠStiel": 8295,
      "ĠStach": 8296,
      "ĠStaff": 8297,
      "ĠStoÃŁ": 8298,
      "ĠSturm": 8299,
      "ĠSturz": 8300,
      "irigen": 8301,
      "irurg": 8302,
      "ĠblaugrÃ¼nen": 8303,
      "ĠjÃ¼d": 8304,
      "Ã¶s": 8305,
      "Ã¶ch": 8306,
      "legen": 8307,
      "ikatur": 8308,
      "ĠÃ¼berkreuzten": 8309,
      "Ã¤uchen": 8310,
      "Ġbeschn": 8311,
      "Ġbeenden": 8312,
      "ĠbevÃ¶l": 8313,
      "Ġrang": 8314,
      "ĠrÃ¤umt": 8315,
      "ĠOpen": 8316,
      "ĠOffiz": 8317,
      "ĠZw": 8318,
      "ĠZom": 8319,
      "ckepack": 8320,
      "Ġnebligen": 8321,
      "Ġnasse": 8322,
      "Ġnippt": 8323,
      "Ġumkl": 8324,
      "ehrs": 8325,
      "ĠDon": 8326,
      "ĠDirt": 8327,
      "ĠDart": 8328,
      "ĠDrÃ¤": 8329,
      "ĠDog": 8330,
      "ĠDerb": 8331,
      "ĠDay": 8332,
      "ĠDenk": 8333,
      "ĠDirigen": 8334,
      "ington": 8335,
      "ĠWasserfahrzeug": 8336,
      "ĠWasserlauf": 8337,
      "ĠWasserfont": 8338,
      "ĠNasen": 8339,
      "ĠNike": 8340,
      "ĠNudeln": 8341,
      "ellauf": 8342,
      "isierten": 8343,
      "lakat": 8344,
      "Ġper": 8345,
      "Ġpacken": 8346,
      "Ġpustet": 8347,
      "Ġverd": 8348,
      "Ġverteilen": 8349,
      "Ġvereisten": 8350,
      "Ġverdunkelten": 8351,
      "boter": 8352,
      "book": 8353,
      "ktor": 8354,
      "teiligen": 8355,
      "fertigen": 8356,
      "ĠVan": 8357,
      "ĠBoogie": 8358,
      "ĠOberhemd": 8359,
      "osk": 8360,
      "osn": 8361,
      "Ġentlanggehen": 8362,
      "ĠKindergruppe": 8363,
      "Ġzweiter": 8364,
      "Ġzweiten": 8365,
      "ennbahn": 8366,
      "ĠweiÃŁhaariger": 8367,
      "Ã¤chlich": 8368,
      "uchten": 8369,
      "ĠSpielzug": 8370,
      "ĠSpielzeugen": 8371,
      "ĠCam": 8372,
      "ĠCock": 8373,
      "ĠCola": 8374,
      "ĠCollie": 8375,
      "auftritt": 8376,
      "aufgaben": 8377,
      "ĠKop": 8378,
      "igner": 8379,
      "igtes": 8380,
      "igebiet": 8381,
      "ĠBlu": 8382,
      "ĠFahrradreifen": 8383,
      "ĠSkist": 8384,
      "ĠSkigebiet": 8385,
      "fahrzeuge": 8386,
      "Ġwirken": 8387,
      "ĠBallbesitz": 8388,
      "farbene": 8389,
      "farbenes": 8390,
      "ĠFuÃŁboden": 8391,
      "ĠFuÃŁtritt": 8392,
      "Ġord": 8393,
      "Ġverspr": 8394,
      "Ġersch": 8395,
      "Ġerst": 8396,
      "Ġerhalten": 8397,
      "ĠKamin": 8398,
      "blÃ¶cke": 8399,
      "Ġsteiner": 8400,
      "ĠstÃ¤mm": 8401,
      "ĠstÃ¼tzt": 8402,
      "Ġstolpert": 8403,
      "Ġoper": 8404,
      "ĠTritt": 8405,
      "ĠTruth": 8406,
      "Ġalber": 8407,
      "ĠBauer": 8408,
      "Ġhochklettert": 8409,
      "ĠSpider": 8410,
      "ĠSchwertern": 8411,
      "ĠSchwierigkeiten": 8412,
      "ĠSchneehaufen": 8413,
      "agg": 8414,
      "ĠTische": 8415,
      "ĠHaarschnitt": 8416,
      "latten": 8417,
      "ĠBÃ¼sche": 8418,
      "ĠBÃ¼chern": 8419,
      "ĠAnt": 8420,
      "ĠAnsicht": 8421,
      "ĠAnsammlung": 8422,
      "ĠAngriff": 8423,
      "ingham": 8424,
      "ammung": 8425,
      "strich": 8426,
      "ĠParks": 8427,
      "Ġberuh": 8428,
      "sstatue": 8429,
      "Ġbefragt": 8430,
      "eigung": 8431,
      "eignis": 8432,
      "Ã¤rten": 8433,
      "ĠKlarinette": 8434,
      "ĠStadtplatz": 8435,
      "Ġgraues": 8436,
      "Ġgrauhaarige": 8437,
      "Ġgrauhaariger": 8438,
      "ĠStraÃŁenlater": 8439,
      "ĠStraÃŁencafÃ©": 8440,
      "Ġleere": 8441,
      "Ġabgel": 8442,
      "ĠMotorroll": 8443,
      "spur": 8444,
      "Ġunterhalb": 8445,
      "Ġreagieren": 8446,
      "ĠSkateboardrampe": 8447,
      "wache": 8448,
      "ĠgestÃ¼tzt": 8449,
      "Ġhellrosa": 8450,
      "ĠGeste": 8451,
      "ĠBabyschaukel": 8452,
      "ĠSchwimmerin": 8453,
      "ĠHolzstuhl": 8454,
      "ĠHolzboot": 8455,
      "afting": 8456,
      "ĠHÃ¤ngeb": 8457,
      "fluteten": 8458,
      "Ã¤tzchen": 8459,
      "ĠInformationen": 8460,
      "ĠIndianer": 8461,
      "ĠEiner": 8462,
      "ĠEinfahrt": 8463,
      "rÃ¤dr": 8464,
      "ĠArbeiten": 8465,
      "ĠMehl": 8466,
      "Ġbetritt": 8467,
      "Ġbetrunken": 8468,
      "akes": 8469,
      "ĠRadrennfahrer": 8470,
      "ĠTennisspielen": 8471,
      "ĠSeife": 8472,
      "ĠGewicht": 8473,
      "ĠKrab": 8474,
      "ĠBedienung": 8475,
      "ĠKunstausstellung": 8476,
      "ĠSpritz": 8477,
      "ĠSprache": 8478,
      "ĠRestaurantkÃ¼che": 8479,
      "ĠBerghang": 8480,
      "ĠPfoten": 8481,
      "ĠBrief": 8482,
      "ĠBasketballkorb": 8483,
      "ĠEisschnell": 8484,
      "ahm": 8485,
      "ĠAufkle": 8486,
      "ĠAufgabe": 8487,
      "ĠAufwÃ¤rmen": 8488,
      "ĠLehm": 8489,
      "ĠBlumenwiese": 8490,
      "ĠFensterputzer": 8491,
      "ĠFried": 8492,
      "ĠFront": 8493,
      "Ġverkehrt": 8494,
      "Ġverkehrs": 8495,
      "ĠVordach": 8496,
      "ĠKleinigkeit": 8497,
      "ĠKleinstadt": 8498,
      "schwarm": 8499,
      "ĠGeschÃ¤ftsmann": 8500,
      "azz": 8501,
      "ĠSchutzwesten": 8502,
      "ĠKara": 8503,
      "ĠKarikatur": 8504,
      "Ġspringenden": 8505,
      "ĠRucksÃ¤cke": 8506,
      "omplex": 8507,
      "ski": 8508,
      "herum": 8509,
      "ĠMetallgegenstand": 8510,
      "istolen": 8511,
      "ĠSurfen": 8512,
      "ĠPolizeibe": 8513,
      "Ġhechtet": 8514,
      "Ġumgeki": 8515,
      "Ġkni": 8516,
      "ĠSeilschaukel": 8517,
      "ĠMarktstand": 8518,
      "ĠRoboter": 8519,
      "ĠPapa": 8520,
      "ĠSchulk": 8521,
      "ĠKongress": 8522,
      "Ġfremd": 8523,
      "ĠGegenspieler": 8524,
      "Ġrustik": 8525,
      "Ã¤rtner": 8526,
      "ĠHalfpipe": 8527,
      "ĠBetonrampe": 8528,
      "Ġgemisch": 8529,
      "Ġgemalt": 8530,
      "ĠRennbahn": 8531,
      "ĠAuszeichnung": 8532,
      "glÃ¤ser": 8533,
      "ĠArbeitsk": 8534,
      "ĠgefÃ¤l": 8535,
      "Ġschreiendes": 8536,
      "ĠSchauspieler": 8537,
      "ĠToreinfahrt": 8538,
      "ĠRollstÃ¼hlen": 8539,
      "Ġjemandes": 8540,
      "Ã¼nstlern": 8541,
      "Ġgute": 8542,
      "Ã¤dtische": 8543,
      "Mannschaft": 8544,
      "ĠbrÃ¤t": 8545,
      "ĠAbdeck": 8546,
      "ĠAbhang": 8547,
      "ĠAbschluss": 8548,
      "ĠFelsblock": 8549,
      "grÃ¼nes": 8550,
      "grÃ¼nem": 8551,
      "ĠvierkÃ¶pfige": 8552,
      "ĠTÃ¼reingang": 8553,
      "ĠSchalter": 8554,
      "ĠSpielplatzgerÃ¤t": 8555,
      "gesicht": 8556,
      "gesellschaft": 8557,
      "ĠHalsketten": 8558,
      "ĠKanal": 8559,
      "ĠZigaretten": 8560,
      "ĠWintermantel": 8561,
      "hauses": 8562,
      "Ġhellbraune": 8563,
      "Ġhellbraunem": 8564,
      "ĠUnterricht": 8565,
      "ĠIs": 8566,
      "ĠInneren": 8567,
      "amerikaner": 8568,
      "Ġgewonnen": 8569,
      "Ġgeschossen": 8570,
      "Ġgeschoben": 8571,
      "turnier": 8572,
      "ĠKorrid": 8573,
      "Ġverliert": 8574,
      "Ġverletzt": 8575,
      "Ġverloren": 8576,
      "ĠdrÃ¤ngen": 8577,
      "ĠauÃŁerdem": 8578,
      "ĠvollstÃ¤nd": 8579,
      "Ġnichts": 8580,
      "issenen": 8581,
      "ĠUferweg": 8582,
      "kappen": 8583,
      "ĠKerze": 8584,
      "Ġfarbenfrohe": 8585,
      "Ġdeckt": 8586,
      "Ġdeutsche": 8587,
      "ĠGartenstuhl": 8588,
      "ĠGrills": 8589,
      "ĠPartner": 8590,
      "ĠmanÃ¶vr": 8591,
      "treffen": 8592,
      "ĠArtikel": 8593,
      "kragen": 8594,
      "kremp": 8595,
      "Ġherausge": 8596,
      "vorstellung": 8597,
      "ĠCoach": 8598,
      "ĠBrunnens": 8599,
      "ĠBrautjungfern": 8600,
      "ĠPolizistin": 8601,
      "ĠTurnier": 8602,
      "streckt": 8603,
      "ĠgebÃ¼ck": 8604,
      "ĠVogelperspektive": 8605,
      "ĠKlettern": 8606,
      "ĠKletterwand": 8607,
      "ĠSchminke": 8608,
      "Ġprobt": 8609,
      "handwerk": 8610,
      "handschuhe": 8611,
      "selben": 8612,
      "ĠWarenkorb": 8613,
      "Ġtraditionell": 8614,
      "Ġdurchsicht": 8615,
      "ĠSeattle": 8616,
      "Ġkosten": 8617,
      "ĠGolden": 8618,
      "pflanzen": 8619,
      "ĠVaters": 8620,
      "ĠLedermantel": 8621,
      "ĠHuckepack": 8622,
      "ĠnÃ¤her": 8623,
      "Ġpinkfarbene": 8624,
      "ĠMarathonlauf": 8625,
      "ĠBacksteinwand": 8626,
      "ĠKirchen": 8627,
      "ĠFreundes": 8628,
      "ĠFreundinnen": 8629,
      "Ġschwimmenden": 8630,
      "Ã¤hnliches": 8631,
      "Ġschmutzige": 8632,
      "ĠWeihnachtsgeschen": 8633,
      "ĠGolfspieler": 8634,
      "frisur": 8635,
      "ĠÃľbungen": 8636,
      "ĠSteuer": 8637,
      "ĠSchaufenstern": 8638,
      "ĠSchÃ¼lerin": 8639,
      "ĠMilitÃ¤rs": 8640,
      "ĠTax": 8641,
      "ĠWÃ¼sten": 8642,
      "ĠKopftÃ¼chern": 8643,
      "ĠgeschmÃ¼ckten": 8644,
      "Ġenge": 8645,
      "ĠFlieger": 8646,
      "ĠLastwagens": 8647,
      "Ã¼sse": 8648,
      "ĠheiÃŁt": 8649,
      "ĠWindhunde": 8650,
      "Ġfelsige": 8651,
      "ĠLiegest": 8652,
      "ĠBalkonen": 8653,
      "Ġapp": 8654,
      "ĠbrÃ¼nettes": 8655,
      "ĠWeinglÃ¤sern": 8656,
      "ĠBlattwerk": 8657,
      "ĠAuÃŁenseite": 8658,
      "Ġbefestigen": 8659,
      "ĠFedern": 8660,
      "ĠTerrier": 8661,
      "ĠEishockeyspiel": 8662,
      "mitte": 8663,
      "Ġschlafenden": 8664,
      "Schwimm": 8665,
      "ĠEisen": 8666,
      "ĠErdboden": 8667,
      "instrumenten": 8668,
      "Ġverzieht": 8669,
      "ĠlangÃ¤rmligen": 8670,
      "ĠBlÃ¤tterhaufen": 8671,
      "Ġeinzelne": 8672,
      "ĠHead": 8673,
      "ĠHebe": 8674,
      "Ġneugeboren": 8675,
      "Ġneugeborenes": 8676,
      "ĠnÃ¤chtlichen": 8677,
      "Ġdunkelhaariges": 8678,
      "Ġstreicheln": 8679,
      "ĠvornÃ¼ber": 8680,
      "ĠbarfÃ¼ÃŁiges": 8681,
      "Ġunterschiedliche": 8682,
      "Ġfertigen": 8683,
      "Ġfertigt": 8684,
      "Ġverlassene": 8685,
      "ĠExp": 8686,
      "Ġnackter": 8687,
      "stattung": 8688,
      "ĠSchotten": 8689,
      "ĠSchiffs": 8690,
      "ĠSkulpturen": 8691,
      "ĠHochzeitsfeier": 8692,
      "ĠHochzeitsgesellschaft": 8693,
      "ĠMontur": 8694,
      "ĠHafengebiet": 8695,
      "ĠPriester": 8696,
      "ĠLehrerin": 8697,
      "Ġstattf": 8698,
      "flieger": 8699,
      "ĠPlakatwand": 8700,
      "ĠKniestrÃ¼": 8701,
      "ĠWerkzeuggÃ¼rt": 8702,
      "ĠAfroamerikanerin": 8703,
      "Ġgespritzt": 8704,
      "nehm": 8705,
      "Ġklatschen": 8706,
      "Ġschlafender": 8707,
      "Ġbewundern": 8708,
      "ĠJockeys": 8709,
      "Ġarab": 8710,
      "Ġhalbw": 8711,
      "Ġwadet": 8712,
      "Ġanzuziehen": 8713,
      "ĠZuhÃ¶rer": 8714,
      "ĠBekleidungsgeschÃ¤ft": 8715,
      "Uniform": 8716,
      "empor": 8717,
      "eidigen": 8718,
      "ĠLappen": 8719,
      "ĠAthlet": 8720,
      "olizist": 8721,
      "ĠZehen": 8722,
      "lastwagen": 8723,
      "ĠstÃ¶bern": 8724,
      "Ġbeladenen": 8725,
      "Ġflauschigen": 8726,
      "Ġselbstgeb": 8727,
      "Als": 8728,
      "Alte": 8729,
      "ĠLego": 8730,
      "ĠKamelen": 8731,
      "ĠBauernhof": 8732,
      "ĠKonferenzt": 8733,
      "ĠWasserskifahrer": 8734,
      "ĠOperationssaal": 8735,
      "Ã¤gers": 8736,
      "ĠdÃ¼nne": 8737,
      "ĠPinata": 8738,
      "ĠDiadem": 8739,
      "ĠOrangensaft": 8740,
      "ĠAbsperrband": 8741,
      "ĠElternteil": 8742,
      "ĠÃĦrmel": 8743,
      "ĠPatient": 8744,
      "ĠReklame": 8745,
      "Ġirgendwel": 8746,
      "Ġerleuchtet": 8747,
      "AusrÃ¼stung": 8748,
      "Ġfreund": 8749,
      "Ġzugewandt": 8750,
      "ĠLangarm": 8751,
      "ĠgroÃŁem": 8752,
      "Ġverteidigen": 8753,
      "ĠStraÃŁenmusik": 8754,
      "Ġausgestrecktem": 8755,
      "figuren": 8756,
      "Ġeis": 8757,
      "Ġsortieren": 8758,
      "ĠMix": 8759,
      "ĠMiami": 8760,
      "ĠFackeln": 8761,
      "Ġspanischer": 8762,
      "ĠMÃ¼nz": 8763,
      "ĠFitness": 8764,
      "ĠbrÃ¤unlicher": 8765,
      "ĠPyjama": 8766,
      "ĠSchusswaffe": 8767,
      "ĠJapaner": 8768,
      "ĠWassermelone": 8769,
      "Ġpoliert": 8770,
      "Ġpolitischen": 8771,
      "Ġherrlichen": 8772,
      "ĠEiswaffel": 8773,
      "ĠFliesenboden": 8774,
      "Ġinteressanten": 8775,
      "ÃĦlterer": 8776,
      "Ġeinzig": 8777,
      "ĠMatrosen": 8778,
      "ĠMatratze": 8779,
      "ĠPonch": 8780,
      "ĠPlane": 8781,
      "ĠRegal": 8782,
      "Ġvermutlich": 8783,
      "Ġtraurig": 8784,
      "ĠBandmitglieder": 8785,
      "ĠKragenhemd": 8786,
      "Ġknallbunten": 8787,
      "Ġverschiedenfarbigen": 8788,
      "Ġgeschminktem": 8789,
      "Eltern": 8790,
      "bude": 8791,
      "ĠMais": 8792,
      "ĠKites": 8793,
      "Ġgesprei": 8794,
      "ĠSchaumbad": 8795,
      "Ġrundes": 8796,
      "ĠSkilift": 8797,
      "ĠstoÃŁen": 8798,
      "ĠKrankenschwester": 8799,
      "ĠKrankenschwestern": 8800,
      "Ġblondhaariges": 8801,
      "Ġverbundenen": 8802,
      "Ġmedizinischen": 8803,
      "ĠRednerpult": 8804,
      "ĠMÃ¶nch": 8805,
      "ĠGabel": 8806,
      "Ġkastanienbraunen": 8807,
      "ĠgedrÃ¤ngt": 8808,
      "ĠZeichnung": 8809,
      "ĠDesign": 8810,
      "Ġparken": 8811,
      "Ġverbringen": 8812,
      "uldig": 8813,
      "ĠPferderennen": 8814,
      "Ġgrinsen": 8815,
      "Ġflaches": 8816,
      "ĠBademantel": 8817,
      "Teams": 8818,
      "ĠunglÃ¼cklich": 8819,
      "ĠScheinwerferlicht": 8820,
      "Ġeinheimischer": 8821,
      "EinkÃ¤ufer": 8822,
      "Ġbastelt": 8823,
      "ĠKulisse": 8824,
      "Ġkaput": 8825,
      "Ġkanadischen": 8826,
      "ĠwÃ¼rden": 8827,
      "Ġlackiert": 8828,
      "Ġlohfarbener": 8829,
      "Ġerledigen": 8830,
      "ĠTeddybÃ¤r": 8831,
      "ĠRollerskates": 8832,
      "Ġgeholfen": 8833,
      "ĠSchneemann": 8834,
      "Ġangemaltem": 8835,
      "Freunde": 8836,
      "Jugendliche": 8837,
      "Kids": 8838,
      "plane": 8839,
[...]
