{
  "version": "1.0",
  "truncation": null,
  "padding": null,
  "added_tokens": [
    {
      "id": 0,
      "content": "<pad>",
      "single_word": false,
      "lstrip": false,
      "rstrip": false,
      "normalized": false,
      "special": true
    },
    {
      "id": 1,
      "content": "<sos>",
      "single_word": false,
      "lstrip": false,
      "rstrip": false,
      "normalized": false,
      "special": true
    },
    {
      "id": 2,
      "content": "<eos>",
      "single_word": false,
      "lstrip": false,
      "rstrip": false,
      "normalized": false,
      "special": true
    },
    {
      "id": 3,
      "content": "<unk>",
      "single_word": false,
      "lstrip": false,
      "rstrip": false,
      "normalized": false,
      "special": true
    }
  ],
  "normalizer": null,
  "pre_tokenizer": {
    "type": "ByteLevel",
    "add_prefix_space": false,
    "trim_offsets": true,
    "use_regex": true
  },
  "post_processor": null,
  "decoder": {
    "type": "ByteLevel",
    "add_prefix_space": true,
    "trim_offsets": true,
    "use_regex": true
  },
  "model": {
    "type": "BPE",
    "dropout": null,
    "unk_token": "<unk>",
    "continuing_subword_prefix": null,
    "end_of_word_suffix": null,
    "fuse_unk": false,
    "byte_fallback": false,
    "ignore_merges": false,
    "vocab": {
      "<pad>": 0,
      "<sos>": 1,
      "<eos>": 2,
      "<unk>": 3,
      "!": 4,
      "\"": 5,
      "#": 6,
      "$": 7,
      "%": 8,
      "&": 9,
      "'": 10,
      "(": 11,
      ")": 12,
      "*": 13,
      "+": 14,
      ",": 15,
      "-": 16,
      ".": 17,
      "/": 18,
      "0": 19,
      "1": 20,
      "2": 21,
      "3": 22,
      "4": 23,
      "5": 24,
      "6": 25,
      "7": 26,
      "8": 27,
      "9": 28,
      ":": 29,
      ";": 30,
      "<": 31,
      "=": 32,
      ">": 33,
      "?": 34,
      "@": 35,
      "A": 36,
      "B": 37,
      "C": 38,
      "D": 39,
      "E": 40,
      "F": 41,
      "G": 42,
      "H": 43,
      "I": 44,
      "J": 45,
      "K": 46,
      "L": 47,
      "M": 48,
      "N": 49,
      "O": 50,
      "P": 51,
      "Q": 52,
      "R": 53,
      "S": 54,
      "T": 55,
      "U": 56,
      "V": 57,
      "W": 58,
      "X": 59,
      "Y": 60,
      "Z": 61,
      "[": 62,
      "\\": 63,
      "]": 64,
      "^": 65,
      "_": 66,
      "`": 67,
      "a": 68,
      "b": 69,
      "c": 70,
      "d": 71,
      "e": 72,
      "f": 73,
      "g": 74,
      "h": 75,
      "i": 76,
      "j": 77,
      "k": 78,
      "l": 79,
      "m": 80,
      "n": 81,
      "o": 82,
      "p": 83,
      "q": 84,
      "r": 85,
      "s": 86,
      "t": 87,
      "u": 88,
      "v": 89,
      "w": 90,
      "x": 91,
      "y": 92,
      "z": 93,
      "{": 94,
      "|": 95,
      "}": 96,
      "~": 97,
      "¡": 98,
      "¢": 99,
      "£": 100,
      "¤": 101,
      "¥": 102,
      "¦": 103,
      "§": 104,
      "¨": 105,
      "©": 106,
      "ª": 107,
      "«": 108,
      "¬": 109,
      "®": 110,
      "¯": 111,
      "°": 112,
      "±": 113,
      "²": 114,
      "³": 115,
      "´": 116,
      "µ": 117,
      "¶": 118,
      "·": 119,
      "¸": 120,
      "¹": 121,
      "º": 122,
      "»": 123,
      "¼": 124,
      "½": 125,
      "¾": 126,
      "¿": 127,
      "À": 128,
      "Á": 129,
      "Â": 130,
      "Ã": 131,
      "Ä": 132,
      "Å": 133,
      "Æ": 134,
      "Ç": 135,
      "È": 136,
      "É": 137,
      "Ê": 138,
      "Ë": 139,
      "Ì": 140,
      "Í": 141,
      "Î": 142,
      "Ï": 143,
      "Ð": 144,
      "Ñ": 145,
      "Ò": 146,
      "Ó": 147,
      "Ô": 148,
      "Õ": 149,
      "Ö": 150,
      "×": 151,
      "Ø": 152,
      "Ù": 153,
      "Ú": 154,
      "Û": 155,
      "Ü": 156,
      "Ý": 157,
      "Þ": 158,
      "ß": 159,
      "à": 160,
      "á": 161,
      "â": 162,
      "ã": 163,
      "ä": 164,
      "å": 165,
      "æ": 166,
      "ç": 167,
      "è": 168,
      "é": 169,
      "ê": 170,
      "ë": 171,
      "ì": 172,
      "í": 173,
      "î": 174,
      "ï": 175,
      "ð": 176,
      "ñ": 177,
      "ò": 178,
      "ó": 179,
      "ô": 180,
      "õ": 181,
      "ö": 182,
      "÷": 183,
      "ø": 184,
      "ù": 185,
      "ú": 186,
      "û": 187,
      "ü": 188,
      "ý": 189,
      "þ": 190,
      "ÿ": 191,
      "Ā": 192,
      "ā": 193,
      "Ă": 194,
      "ă": 195,
      "Ą": 196,
      "ą": 197,
      "Ć": 198,
      "ć": 199,
      "Ĉ": 200,
      "ĉ": 201,
      "Ċ": 202,
      "ċ": 203,
      "Č": 204,
      "č": 205,
      "Ď": 206,
      "ď": 207,
      "Đ": 208,
      "đ": 209,
      "Ē": 210,
      "ē": 211,
      "Ĕ": 212,
      "ĕ": 213,
      "Ė": 214,
      "ė": 215,
      "Ę": 216,
      "ę": 217,
      "Ě": 218,
      "ě": 219,
      "Ĝ": 220,
      "ĝ": 221,
      "Ğ": 222,
      "ğ": 223,
      "Ġ": 224,
      "ġ": 225,
      "Ģ": 226,
      "ģ": 227,
      "Ĥ": 228,
      "ĥ": 229,
      "Ħ": 230,
      "ħ": 231,
      "Ĩ": 232,
      "ĩ": 233,
      "Ī": 234,
      "ī": 235,
      "Ĭ": 236,
      "ĭ": 237,
      "Į": 238,
      "į": 239,
      "İ": 240,
      "ı": 241,
      "Ĳ": 242,
      "ĳ": 243,
      "Ĵ": 244,
      "ĵ": 245,
      "Ķ": 246,
      "ķ": 247,
      "ĸ": 248,
      "Ĺ": 249,
      "ĺ": 250,
      "Ļ": 251,
      "ļ": 252,
      "Ľ": 253,
      "ľ": 254,
      "Ŀ": 255,
      "ŀ": 256,
      "Ł": 257,
      "ł": 258,
      "Ń": 259,
      "Ġa": 260,
      "in": 261,
      "ing": 262,
      "Ġs": 263,
      "Ġw": 264,
      "Ġt": 265,
      "Ġo": 266,
      "an": 267,
      "Ġb": 268,
      "he": 269,
      "re": 270,
      "Ġin": 271,
      "it": 272,
      "Ġp": 273,
      "Ġm": 274,
      "er": 275,
      "Ġc": 276,
      "le": 277,
      "is": 278,
      "ro": 279,
      "Ġthe": 280,
      "ar": 281,
      "nd": 282,
      "Ġg": 283,
      "Ġon": 284,
      "Ġh": 285,
      "Ġd": 286,
      "Ġf": 287,
      "al": 288,
      "la": 289,
      "ir": 290,
      "at": 291,
      "en": 292,
      "Ġis": 293,
      "Ġman": 294,
      "Ġof": 295,
      "Ġand": 296,
      "om": 297,
      "Ġst": 298,
      "ck": 299,
      "lo": 300,
      "ith": 301,
      "Ġwith": 302,
      "or": 303,
      "ld": 304,
      "et": 305,
      "un": 306,
      "es": 307,
      "Ġto": 308,
      "Ġwom": 309,
      "id": 310,
      "on": 311,
      "Ġwh": 312,
      "Ġsh": 313,
      "Ġdo": 314,
      "and": 315,
      "rou": 316,
      "king": 317,
      "Ġare": 318,
      "op": 319,
      "wo": 320,
      "ra": 321,
      "ed": 322,
      "ear": 323,
      "Ġwoman": 324,
      "ss": 325,
      "her": 326,
      "ic": 327,
      "Ġbo": 328,
      "Ġpla": 329,
      "ut": 330,
      "Ġat": 331,
      "all": 332,
      "irt": 333,
      "eop": 334,
      "eople": 335,
      "Two": 336,
      "Ġy": 337,
      "Ġre": 338,
      "Ġplay": 339,
      "ting": 340,
      "Ġl": 341,
      "ch": 342,
      "oun": 343,
      "ers": 344,
      "Ġwear": 345,
      "Ġan": 346,
      "Ġwearing": 347,
      "Ġsit": 348,
      "Ġstand": 349,
      "Ġpeople": 350,
      "wn": 351,
      "Ġr": 352,
      "st": 353,
      "ide": 354,
      "ur": 355,
      "ge": 356,
      "ite": 357,
      "Ġshirt": 358,
      "ild": 359,
      "Ġn": 360,
      "oung": 361,
      "Ġj": 362,
      "ile": 363,
      "gh": 364,
      "Ġlo": 365,
      "Ġho": 366,
      "Ġch": 367,
      "Ġba": 368,
      "Ġwhite": 369,
      "irl": 370,
      "Ġco": 371,
      "Ġyoung": 372,
      "el": 373,
      "um": 374,
      "Ġwal": 375,
      "ad": 376,
      "Ġgirl": 377,
      "ot": 378,
      "ue": 379,
      "Ġdog": 380,
      "lack": 381,
      "Ġfro": 382,
      "Ġout": 383,
      "Ġblack": 384,
      "Ġhis": 385,
      "Ġboy": 386,
      "Ġbl": 387,
      "Ġbe": 388,
      "Ġwhile": 389,
      "Ġwat": 390,
      "il": 391,
      "Ġblue": 392,
      "Ġth": 393,
      "us": 394,
      "ce": 395,
      "am": 396,
      "Ġred": 397,
      "Ġe": 398,
      "ver": 399,
      "ts": 400,
      "Ġgrou": 401,
      "Ġsitting": 402,
      "Ġmen": 403,
      "up": 404,
      "ri": 405,
      "Ġhold": 406,
      "Ġstanding": 407,
      "Ġro": 408,
      "Ġplaying": 409,
      "Ġstre": 410,
      "Ġchild": 411,
      "ard": 412,
      "Ġloo": 413,
      "Ġgroup": 414,
      "Ġstreet": 415,
      "oo": 416,
      "Ġdown": 417,
      "ve": 418,
      "ree": 419,
      "nt": 420,
      "im": 421,
      "Ġwalking": 422,
      "round": 423,
      "Ġla": 424,
      "ow": 425,
      "Ġsm": 426,
      "Ġher": 427,
      "low": 428,
      "The": 429,
      "Ġfront": 430,
      "Ġta": 431,
      "Ġholding": 432,
      "ks": 433,
      "ke": 434,
      "ul": 435,
      "ress": 436,
      "Ġhe": 437,
      "ent": 438,
      "air": 439,
      "as": 440,
      "Ġgra": 441,
      "Ġwater": 442,
      "ct": 443,
      "ion": 444,
      "side": 445,
      "Ġk": 446,
      "ie": 447,
      "ach": 448,
      "Ġcar": 449,
      "Ġdress": 450,
      "bo": 451,
      "Ġpo": 452,
      "ying": 453,
      "ain": 454,
      "Ġby": 455,
      "tle": 456,
      "ump": 457,
      "Ġfor": 458,
      "Ġsom": 459,
      "Th": 460,
      "Ġup": 461,
      "Ġas": 462,
      "Ġra": 463,
      "reen": 464,
      "hing": 465,
      "Ġrun": 466,
      "se": 467,
      "ay": 468,
      "igh": 469,
      "ack": 470,
      "Ġbu": 471,
      "Ġback": 472,
      "Ġwor": 473,
      "ark": 474,
      "red": 475,
      "Ġjump": 476,
      "uit": 477,
      "Ġne": 478,
      "An": 479,
      "Ġgreen": 480,
      "Ġwomen": 481,
      "ittle": 482,
      "Ġone": 483,
      "Ġsw": 484,
      "for": 485,
      "row": 486,
      "ap": 487,
      "Ġlooking": 488,
      "Ġsk": 489,
      "one": 490,
      "Ġhat": 491,
      "Ġsn": 492,
      "Ġoutside": 493,
      "Ġrid": 494,
      "form": 495,
      "to": 496,
      "Ġbro": 497,
      "ble": 498,
      "Three": 499,
      "ood": 500,
      "ind": 501,
      "Ġle": 502,
      "arge": 503,
      "ren": 504,
      "Ġlittle": 505,
      "rough": 506,
      "Ġside": 507,
      "Ġlarge": 508,
      "Ġbi": 509,
      "ther": 510,
      "Ġthrough": 511,
      "Ġv": 512,
      "ball": 513,
      "Ġother": 514,
      "ellow": 515,
      "Ġor": 516,
      "Ġsnow": 517,
      "Ġball": 518,
      "Ġbrown": 519,
      "Ġyellow": 520,
      "Ġtwo": 521,
      "erson": 522,
      "ly": 523,
      "Ġsp": 524,
      "Ġover": 525,
      "Ġtra": 526,
      "lass": 527,
      "yc": 528,
      "em": 529,
      "ian": 530,
      "Ġfrom": 531,
      "che": 532,
      "ure": 533,
      "Ġtheir": 534,
      "ng": 535,
      "Ġinto": 536,
      "Ġfo": 537,
      "xt": 538,
      "Ġperson": 539,
      "Ġma": 540,
      "ning": 541,
      "Ġcon": 542,
      "Ġhand": 543,
      "Ġbuild": 544,
      "Ġbuilding": 545,
      "ink": 546,
      "alk": 547,
      "lder": 548,
      "Ġchildren": 549,
      "Ġnext": 550,
      "ig": 551,
      "Ġsmall": 552,
      "rowd": 553,
      "Ġnear": 554,
      "other": 555,
      "Ġjack": 556,
      "Ġdressed": 557,
      "Ġsome": 558,
      "Ġcrowd": 559,
      "Ġjacket": 560,
      "ight": 561,
      "Ġso": 562,
      "Ġgrass": 563,
      "ving": 564,
      "Ġclo": 565,
      "board": 566,
      "ĠA": 567,
      "ground": 568,
      "Ġte": 569,
      "ate": 570,
      "dy": 571,
      "walk": 572,
      "Ġwa": 573,
      "Ġriding": 574,
      "Ġse": 575,
      "age": 576,
      "Ġrunning": 577,
      "People": 578,
      "ph": 579,
      "ange": 580,
      "ling": 581,
      "Ġaround": 582,
      "Ġoff": 583,
      "Ġanother": 584,
      "ield": 585,
      "Ġsc": 586,
      "ount": 587,
      "ycle": 588,
      "ep": 589,
      "Ġpa": 590,
      "cer": 591,
      "Ġfield": 592,
      "ru": 593,
      "Ġtable": 594,
      "ick": 595,
      "Ġsidewalk": 596,
      "Man": 597,
      "lasses": 598,
      "ff": 599,
      "ity": 600,
      "Ġbeach": 601,
      "Ġorange": 602,
      "Ġcam": 603,
      "ist": 604,
      "rying": 605,
      "ine": 606,
      "Ġair": 607,
      "Ġmo": 608,
      "ross": 609,
      "Ġgo": 610,
      "Ġit": 611,
      "Ġar": 612,
      "Ġfa": 613,
      "ture": 614,
      "Ġstands": 615,
      "Ġpink": 616,
      "Ġper": 617,
      "Ġsits": 618,
      "Ġjumping": 619,
      "Ġbeh": 620,
      "Ġbehind": 621,
      "Ġblo": 622,
      "Ġwatch": 623,
      "Ġwork": 624,
      "Ġsun": 625,
      "ip": 626,
      "ll": 627,
      "iling": 628,
      "te": 629,
      "sh": 630,
      "ne": 631,
      "ter": 632,
      "Ġperform": 633,
      "Ġun": 634,
      "Ġpic": 635,
      "way": 636,
      "Ġbackground": 637,
      "get": 638,
      "ire": 639,
      "und": 640,
      "ans": 641,
      "Ġpark": 642,
      "Ġcom": 643,
      "ating": 644,
      "Ġcl": 645,
      "by": 646,
      "Ġtop": 647,
      "Ġtal": 648,
      "Ġhead": 649,
      "'s": 650,
      "Ġbike": 651,
      "Ġsho": 652,
      "Ġrock": 653,
      "Ġdr": 654,
      "ice": 655,
      "Ġwall": 656,
      "Ġread": 657,
      "Ġcity": 658,
      "cing": 659,
      "ves": 660,
      "Ġplayer": 661,
      "Ġgirls": 662,
      "ud": 663,
      "Ġpicture": 664,
      "Ġalo": 665,
      "Ġbic": 666,
      "Ġlooks": 667,
      "ame": 668,
      "Ġcamer": 669,
      "les": 670,
      "Ġshor": 671,
      "uitar": 672,
      "Ġsur": 673,
      "Ġguitar": 674,
      "veral": 675,
      "Ġthat": 676,
      "Ġpar": 677,
      "Ġdan": 678,
      "ool": 679,
      "Ġhair": 680,
      "Ġbus": 681,
      "ountain": 682,
      "Ġdogs": 683,
      "ches": 684,
      "ill": 685,
      "do": 686,
      "Ġclot": 687,
      "ub": 688,
      "pp": 689,
      "Ġcamera": 690,
      "Ġwood": 691,
      "Ġgu": 692,
      "Ġtalking": 693,
      "Ġac": 694,
      "ething": 695,
      "ors": 696,
      "Ġsomething": 697,
      "ant": 698,
      "ccer": 699,
      "Ġolder": 700,
      "Ġmid": 701,
      "Ġph": 702,
      "phone": 703,
      "Ġalong": 704,
      "Ġwalk": 705,
      "Ġwalks": 706,
      "ants": 707,
      "eat": 708,
      "dle": 709,
      "ive": 710,
      "Ġlady": 711,
      "Ġtoget": 712,
      "Ġsoccer": 713,
      "Ġtogether": 714,
      "Ġhel": 715,
      "Ġworking": 716,
      "Ġblond": 717,
      "Ġbri": 718,
      "Ġfood": 719,
      "Ġskate": 720,
      "Ġcolo": 721,
      "Ġboys": 722,
      "if": 723,
      "Ġgray": 724,
      "Ġad": 725,
      "ket": 726,
      "Ġben": 727,
      "ore": 728,
      "Ġbicycle": 729,
      "Ġsmiling": 730,
      "kes": 731,
      "our": 732,
      "qu": 733,
      "Ġhim": 734,
      "ign": 735,
      "ction": 736,
      "Ġuni": 737,
      "gg": 738,
      "Ġhas": 739,
      "ol": 740,
      "Ġgame": 741,
      "sian": 742,
      "Ġthem": 743,
      "Ġguy": 744,
      "Ġplays": 745,
      "Ġroad": 746,
      "Ġuniform": 747,
      "Ġholds": 748,
      "imb": 749,
      "Ġus": 750,
      "pe": 751,
      "Ġsand": 752,
      "Ġpre": 753,
      "Ġcomp": 754,
      "umb": 755,
      "ation": 756,
      "Four": 757,
      "Ġje": 758,
      "Se": 759,
      "Ġswim": 760,
      "Ġskateboard": 761,
      "are": 762,
      "shirt": 763,
      "Ġclimb": 764,
      "Ġbench": 765,
      "ale": 766,
      "Ġund": 767,
      "Ġche": 768,
      "Ġpants": 769,
      "Ġglasses": 770,
      "ath": 771,
      "Ġbr": 772,
      "Ġkid": 773,
      "Ġunder": 774,
      "est": 775,
      "Ġstage": 776,
      "Ġcoup": 777,
      "Ġshorts": 778,
      "gs": 779,
      "ies": 780,
      "sing": 781,
      "mer": 782,
      "Ġpur": 783,
      "Ġcarrying": 784,
      "Ġsuit": 785,
      "Ġdirt": 786,
      "ped": 787,
      "Ġabo": 788,
      "Ġget": 789,
      "Ġpain": 790,
      "Ġpro": 791,
      "ward": 792,
      "Ġbaby": 793,
      "Ġcouple": 794,
      "Ġmountain": 795,
      "ĠAsian": 796,
      "Ġtree": 797,
      "Ġface": 798,
      "Ġflo": 799,
      "Ġbase": 800,
      "Ġoutdo": 801,
      "Ġwait": 802,
      "ha": 803,
      "Ġsing": 804,
      "ell": 805,
      "hes": 806,
      "Ġfem": 807,
      "oto": 808,
      "Ġtan": 809,
      "led": 810,
      "Ġha": 811,
      "Ġen": 812,
      "Several": 813,
      "Ġbal": 814,
      "Ġbas": 815,
      "ping": 816,
      "Ġold": 817,
      "Ġpool": 818,
      "Ġfoot": 819,
      "Ġhor": 820,
      "ag": 821,
      "Ġstri": 822,
      "Ġlong": 823,
      "Ġjumps": 824,
      "ok": 825,
      "ust": 826,
      "Ġtri": 827,
      "Ġboat": 828,
      "Ġtaking": 829,
      "ull": 830,
      "Ġfl": 831,
      "Ġsign": 832,
      "Ġeach": 833,
      "Ġrace": 834,
      "Ġbasket": 835,
      "Ġmic": 836,
      "Ġchair": 837,
      "Ġshop": 838,
      "Ġdoing": 839,
      "Ġdark": 840,
      "Ġcoat": 841,
      "Ġmicro": 842,
      "Ġwatching": 843,
      "Ġacross": 844,
      "ican": 845,
      "uth": 846,
      "uring": 847,
      "Ġmus": 848,
      "Ġjeans": 849,
      "Ġmot": 850,
      "Ġarea": 851,
      "Ġteam": 852,
      "Ġcat": 853,
      "Ġmale": 854,
      "Ġmiddle": 855,
      "mp": 856,
      "Ġday": 857,
      "Ġatt": 858,
      "Ġphoto": 859,
      "Ġve": 860,
      "Ġhands": 861,
      "met": 862,
      "ple": 863,
      "Ġspe": 864,
      "Ġband": 865,
      "Ġhelmet": 866,
      "ugh": 867,
      "ence": 868,
      "Ġstore": 869,
      "ĠC": 870,
      "Ġrest": 871,
      "Ġground": 872,
      "Ġmotor": 873,
      "Ġwind": 874,
      "Ġwho": 875,
      "Ġhorse": 876,
      "Ġgat": 877,
      "Ġde": 878,
      "Ġroom": 879,
      "Ġbar": 880,
      "Ġperforming": 881,
      "ey": 882,
      "ome": 883,
      "Ġtoy": 884,
      "Ġswing": 885,
      "ĠS": 886,
      "stru": 887,
      "Ġsurf": 888,
      "ired": 889,
      "Ġeating": 890,
      "Ġfemale": 891,
      "Ġbeing": 892,
      "Ġsweat": 893,
      "Ġbaseball": 894,
      "ful": 895,
      "jo": 896,
      "Ġmouth": 897,
      "Ġcolor": 898,
      "Ġmusic": 899,
      "ry": 900,
      "Ġop": 901,
      "Ġusing": 902,
      "Wom": 903,
      "Ġex": 904,
      "Ġfootball": 905,
      "Ġten": 906,
      "Ġarm": 907,
      "Ġstriped": 908,
      "Ġshe": 909,
      "Ġset": 910,
      "rel": 911,
      "Ġpurple": 912,
      "glasses": 913,
      "ment": 914,
      "Ġca": 915,
      "iv": 916,
      "nis": 917,
      "Ġsl": 918,
      "cks": 919,
      "ess": 920,
      "Ġlook": 921,
      "Ġmar": 922,
      "Ġfis": 923,
      "Ġtoward": 924,
      "Ġprep": 925,
      "ming": 926,
      "Ġruns": 927,
      "aper": 928,
      "Ġtrain": 929,
      "Ġenjo": 930,
      "Ġwindow": 931,
      "Ġcross": 932,
      "Ġadul": 933,
      "struction": 934,
      "Young": 935,
      "ty": 936,
      "Ġwhe": 937,
      "Ġtre": 938,
      "haired": 939,
      "Ġag": 940,
      "Ġpast": 941,
      "dd": 942,
      "Ġob": 943,
      "Ġtennis": 944,
      "Ġsunglasses": 945,
      "Ġreading": 946,
      "Ġbot": 947,
      "ching": 948,
      "ner": 949,
      "Ġclothing": 950,
      "Ġplayers": 951,
      "Ġthree": 952,
      "Ġmicrophone": 953,
      "ents": 954,
      "cean": 955,
      "aur": 956,
      "oking": 957,
      "vered": 958,
      "There": 959,
      "Ġflow": 960,
      "ght": 961,
      "ak": 962,
      "ee": 963,
      "aring": 964,
      "Ġits": 965,
      "ted": 966,
      "Ġbasketball": 967,
      "Ġocean": 968,
      "Ġcap": 969,
      "Ġfla": 970,
      "ade": 971,
      "ance": 972,
      "Ġapp": 973,
      "Ġdis": 974,
      "Ġshow": 975,
      "Ġwatches": 976,
      "Ġduring": 977,
      "Ġmotorc": 978,
      "Ġsa": 979,
      "rest": 980,
      "Ġoutf": 981,
      "Ġpass": 982,
      "Ġcan": 983,
      "leep": 984,
      "Ġclimbing": 985,
      "Ġkids": 986,
      "Ġrestaur": 987,
      "lderly": 988,
      "Ġbright": 989,
      "use": 990,
      "Ġagain": 991,
      "Ġrestaurant": 992,
      "ix": 993,
      "Ġmark": 994,
      "Ġoutfit": 995,
      "Ġagainst": 996,
      "ley": 997,
      "Ġstick": 998,
      "ging": 999,
      "man": 1000,
      "Ġfire": 1001,
      "Ġumb": 1002,
      "Ġdancing": 1003,
      "rella": 1004,
      "Ġumbrella": 1005,
      "Ġbow": 1006,
      "str": 1007,
      "Ġsmile": 1008,
      "Ġrides": 1009,
      "ces": 1010,
      "Ġelderly": 1011,
      "Ġopen": 1012,
      "Ġthrow": 1013,
      "ft": 1014,
      "Ġhigh": 1015,
      "Ġhill": 1016,
      "Ġbag": 1017,
      "io": 1018,
      "Ġdri": 1019,
      "very": 1020,
      "Ġli": 1021,
      "One": 1022,
      "Ġdes": 1023,
      "Ġri": 1024,
      "Ġposing": 1025,
      "Ġwooden": 1026,
      "Ġtrees": 1027,
      "Ġabout": 1028,
      "je": 1029,
      "Ġoutdoor": 1030,
      "Ġhaving": 1031,
      "Ġcovered": 1032,
      "Ġthey": 1033,
      "ated": 1034,
      "Ġdrin": 1035,
      "Ġwaiting": 1036,
      "Ġmarket": 1037,
      "Ġall": 1038,
      "ort": 1039,
      "Ġswimming": 1040,
      "stum": 1041,
      "ruck": 1042,
      "Ġgetting": 1043,
      "Ġcolorful": 1044,
      "utting": 1045,
      "Ġcostum": 1046,
      "Ġfloor": 1047,
      "Ġtrying": 1048,
      "aning": 1049,
      "Ġbear": 1050,
      "ily": 1051,
      "Ġconstruction": 1052,
      "Ġworkers": 1053,
      "Ġmotorcycle": 1054,
      "Ġvery": 1055,
      "ycl": 1056,
      "Ġmat": 1057,
      "ial": 1058,
      "Ġcle": 1059,
      "Ġgr": 1060,
      "Ġbusy": 1061,
      "Ġice": 1062,
      "Ġcell": 1063,
      "Ġshirts": 1064,
      "Ġnight": 1065,
      "Ġsinging": 1066,
      "end": 1067,
      "vers": 1068,
      "Ġfence": 1069,
      "Ġkit": 1070,
      "Ġcart": 1071,
      "Ġpol": 1072,
      "vel": 1073,
      "Ġinstr": 1074,
      "Ġhu": 1075,
      "Ġnew": 1076,
      "Woman": 1077,
      "Ġinstrum": 1078,
      "ast": 1079,
      "Ġmet": 1080,
      "Ġbook": 1081,
      "This": 1082,
      "ier": 1083,
      "iff": 1084,
      "Ġfe": 1085,
      "ition": 1086,
      "Ġpath": 1087,
      "ron": 1088,
      "Ġlight": 1089,
      "ler": 1090,
      "od": 1091,
      "Ġbat": 1092,
      "Ġstair": 1093,
      "Ġcompet": 1094,
      "ject": 1095,
      "less": 1096,
      "Ġhan": 1097,
      "Some": 1098,
      "Ġboard": 1099,
      "Ġline": 1100,
      "Ġlaying": 1101,
      "chen": 1102,
      "Ġev": 1103,
      "Men": 1104,
      "Ġsleep": 1105,
      "Ġtruck": 1106,
      "Ġpie": 1107,
      "pack": 1108,
      "Ġpaper": 1109,
      "Ġbody": 1110,
      "Ġride": 1111,
      "Ġhats": 1112,
      "Ġclothes": 1113,
      "Ġinside": 1114,
      "Ġothers": 1115,
      "Ġbeard": 1116,
      "Ġkitchen": 1117,
      "ac": 1118,
      "cket": 1119,
      "Ġcellphone": 1120,
      "ys": 1121,
      "Ġcour": 1122,
      "Ġkick": 1123,
      "Ġmaking": 1124,
      "Ġgrassy": 1125,
      "Ġsurround": 1126,
      "Ġriver": 1127,
      "Ġpus": 1128,
      "Ġbackpack": 1129,
      "gra": 1130,
      "Ġ\"": 1131,
      "Ġtrack": 1132,
      "Ġbrick": 1133,
      "ĠM": 1134,
      "Ġlaugh": 1135,
      "Ġtakes": 1136,
      "Ġbik": 1137,
      "Ġmetal": 1138,
      "wing": 1139,
      "Ġbig": 1140,
      "Ġart": 1141,
      "Ġtowards": 1142,
      "Ġfull": 1143,
      "ckey": 1144,
      "Ġstep": 1145,
      "Ġenjoying": 1146,
      "sc": 1147,
      "als": 1148,
      "Ġmach": 1149,
      "Ġcow": 1150,
      "Ch": 1151,
      "iz": 1152,
      "Ġaf": 1153,
      "ny": 1154,
      "Ġready": 1155,
      "able": 1156,
      "Ġal": 1157,
      "Ġcre": 1158,
      "Ġhard": 1159,
      "Ġtank": 1160,
      "cor": 1161,
      "Ġcor": 1162,
      "br": 1163,
      "ses": 1164,
      "tic": 1165,
      "ines": 1166,
      "Ġme": 1167,
      "Ġgather": 1168,
      "Five": 1169,
      "ĠF": 1170,
      "Ġdrum": 1171,
      "ding": 1172,
      "oot": 1173,
      "pla": 1174,
      "Ġpainting": 1175,
      "Ġsweater": 1176,
      "Ġpiece": 1177,
      "Child": 1178,
      "ĠB": 1179,
      "Ġsub": 1180,
      "Ġlake": 1181,
      "Ġtrick": 1182,
      "Ġtr": 1183,
      "Ġpl": 1184,
      "Ġseveral": 1185,
      "Ġabove": 1186,
      "Ġphotogra": 1187,
      "rican": 1188,
      "Ġam": 1189,
      "ller": 1190,
      "iving": 1191,
      "hered": 1192,
      "Ġcount": 1193,
      "ird": 1194,
      "Ġgoing": 1195,
      "ere": 1196,
      "Ġbox": 1197,
      "Ġkne": 1198,
      "merican": 1199,
      "Ġmany": 1200,
      "Ġstone": 1201,
      "Ġsnowy": 1202,
      "Ġdance": 1203,
      "Ġcolored": 1204,
      "ved": 1205,
      "Ġbes": 1206,
      "art": 1207,
      "ork": 1208,
      "Ġvest": 1209,
      "Ġwave": 1210,
      "Ġbrid": 1211,
      "Ġshopping": 1212,
      "Ġwheel": 1213,
      "co": 1214,
      "ium": 1215,
      "we": 1216,
      "ym": 1217,
      "Ġclass": 1218,
      "Ġonto": 1219,
      "Ġhi": 1220,
      "ons": 1221,
      "riend": 1222,
      "Ġuniforms": 1223,
      "Ġsurrounded": 1224,
      "Ġtur": 1225,
      "ones": 1226,
      "ched": 1227,
      "Ġworker": 1228,
      "room": 1229,
      "Ġdra": 1230,
      "Ġfr": 1231,
      "elling": 1232,
      "Ġsnowboard": 1233,
      "sp": 1234,
      "Ġcra": 1235,
      "Ġsha": 1236,
      "Ġcrowded": 1237,
      "Ġsmiles": 1238,
      "Ġpra": 1239,
      "Ġoutdoors": 1240,
      "Ġbeside": 1241,
      "aut": 1242,
      "Ġbre": 1243,
      "Ġpul": 1244,
      "ists": 1245,
      "Ġgear": 1246,
      "Ġtodd": 1247,
      "Ġconvers": 1248,
      "Ġadults": 1249,
      "Ġstud": 1250,
      "Ġhouse": 1251,
      "Ġpole": 1252,
      "Ġrain": 1253,
      "Ġdrinking": 1254,
      "uch": 1255,
      "Ġlif": 1256,
      "amily": 1257,
      "Ġpoin": 1258,
      "Ġphone": 1259,
      "Ġafter": 1260,
      "ary": 1261,
      "Ġjo": 1262,
      "Ġlea": 1263,
      "Ġteen": 1264,
      "pt": 1265,
      "Ġfountain": 1266,
      "Ġdoor": 1267,
      "iew": 1268,
      "iful": 1269,
      "Ġgathered": 1270,
      "autiful": 1271,
      "Ġhit": 1272,
      "Ġboot": 1273,
      "Ġchas": 1274,
      "Ġleap": 1275,
      "Ġhanging": 1276,
      "Ġevent": 1277,
      "ates": 1278,
      "ather": 1279,
      "ich": 1280,
      "Ġele": 1281,
      "Ġcatch": 1282,
      "Ġsubway": 1283,
      "Ġbridge": 1284,
      "frican": 1285,
      "sel": 1286,
      "Ġap": 1287,
      "Ġwe": 1288,
      "Ġfriend": 1289,
      "Ġfamily": 1290,
      "ening": 1291,
      "Ġcarri": 1292,
      "ffit": 1293,
      "gging": 1294,
      "Ġballo": 1295,
      "Ġarms": 1296,
      "Ġflowers": 1297,
      "Ġaway": 1298,
      "Ġgym": 1299,
      "Ġgraffit": 1300,
      "Ġskirt": 1301,
      "aged": 1302,
      "Ġpreparing": 1303,
      "ane": 1304,
      "unch": 1305,
      "Ġlot": 1306,
      "Ġey": 1307,
      "Ġleaning": 1308,
      "ement": 1309,
      "Ġobject": 1310,
      "Ġcostume": 1311,
      "Ġtoddler": 1312,
      "bble": 1313,
      "hair": 1314,
      "Ġhockey": 1315,
      "Ġbeautiful": 1316,
      "Ġforest": 1317,
      "Ġoffic": 1318,
      "Many": 1319,
      "Ġshort": 1320,
      "Ġcomput": 1321,
      "Ġattem": 1322,
      "ious": 1323,
      "Ġsleeping": 1324,
      "Ġsteps": 1325,
      "Ġdoes": 1326,
      "Ġno": 1327,
      "ime": 1328,
      "Ġtake": 1329,
      "Ġski": 1330,
      "Ġtrail": 1331,
      "Ġmake": 1332,
      "Ġcont": 1333,
      "Ġguys": 1334,
      "Ġfishing": 1335,
      "Ġgraffiti": 1336,
      "Ġfil": 1337,
      "Ġplaid": 1338,
      "Ġrope": 1339,
      "Ġshoes": 1340,
      "Ġappear": 1341,
      "Ġmachine": 1342,
      "Children": 1343,
      "Ġpat": 1344,
      "ong": 1345,
      "Ġvol": 1346,
      "Ġprepare": 1347,
      "ĠT": 1348,
      "Ġstro": 1349,
      "Ġasian": 1350,
      "Ġfour": 1351,
      "Ġadult": 1352,
      "lic": 1353,
      "suit": 1354,
      "Ġwin": 1355,
      "ish": 1356,
      "Ġequ": 1357,
      "ash": 1358,
      "app": 1359,
      "Ġlike": 1360,
      "Ġpolice": 1361,
      "Ġstairs": 1362,
      "eep": 1363,
      "ĠI": 1364,
      "Ġcur": 1365,
      "entle": 1366,
      "Ġconc": 1367,
      "fe": 1368,
      "ho": 1369,
      "Ġselling": 1370,
      "Ġpub": 1371,
      "ery": 1372,
      "ersey": 1373,
      "Ġshirtless": 1374,
      "Ġlad": 1375,
      "ĠAfrican": 1376,
      "Ġpract": 1377,
      "ring": 1378,
      "Ġtall": 1379,
      "arf": 1380,
      "Ġjersey": 1381,
      "Ġsunny": 1382,
      "Ġsetting": 1383,
      "be": 1384,
      "out": 1385,
      "Ġbet": 1386,
      "Ġpe": 1387,
      "Ġglass": 1388,
      "Ġnumb": 1389,
      "Ġrocks": 1390,
      "ĠCh": 1391,
      "yclist": 1392,
      "bee": 1393,
      "ps": 1394,
      "Ġopp": 1395,
      "iting": 1396,
      "Ġcup": 1397,
      "Ġstat": 1398,
      "Ġpose": 1399,
      "Ġracing": 1400,
      "Ġsky": 1401,
      "Ġview": 1402,
      "Ġsil": 1403,
      "Ġwet": 1404,
      "Ġputting": 1405,
      "ering": 1406,
      "Ġgentle": 1407,
      "Ġlist": 1408,
      "Ġfore": 1409,
      "Ġchairs": 1410,
      "Ġcowbo": 1411,
      "Ġvolley": 1412,
      "Ġequip": 1413,
      "av": 1414,
      "isbee": 1415,
      "Ġboth": 1416,
      "Ġthrowing": 1417,
      "Ġpushing": 1418,
      "Ġcorner": 1419,
      "hic": 1420,
      "Ġblow": 1421,
      "ats": 1422,
      "Ġramp": 1423,
      "Ġdrink": 1424,
      "Ġparade": 1425,
      "Ġhave": 1426,
      "Ġsweatshirt": 1427,
      "Ġslide": 1428,
      "ween": 1429,
      "Ġpublic": 1430,
      "Ġbetween": 1431,
      "Ġvolleyball": 1432,
      "Ġplast": 1433,
      "Ġkis": 1434,
      "Ġflip": 1435,
      "Ġlaughing": 1436,
      "Ġladies": 1437,
      "ined": 1438,
      "Ġdist": 1439,
      "cture": 1440,
      "Ġworks": 1441,
      "Ġsomeone": 1442,
      "ĠAmerican": 1443,
      "Ġflag": 1444,
      "Ġinstruments": 1445,
      "Ġfruit": 1446,
      "Ġcomputer": 1447,
      "Ġequipment": 1448,
      "Ġent": 1449,
      "Ġsqu": 1450,
      "Ġpick": 1451,
      "Ġstop": 1452,
      "chool": 1453,
      "Ġhot": 1454,
      "Ġcouch": 1455,
      "ase": 1456,
      "Ġrail": 1457,
      "Ġscen": 1458,
      "Ġshou": 1459,
      "Ġpictures": 1460,
      "Ġvend": 1461,
      "Ġvehic": 1462,
      "Ġfish": 1463,
      "Ġdispla": 1464,
      "Ġwr": 1465,
      "Ġbed": 1466,
      "rete": 1467,
      "Ġgar": 1468,
      "Ġglo": 1469,
      "cking": 1470,
      "Ġwoods": 1471,
      "Ġspea": 1472,
      "Ġbottle": 1473,
      "Ġplastic": 1474,
      "Ġwhich": 1475,
      "Ġplayground": 1476,
      "Ġposes": 1477,
      "Ġparty": 1478,
      "Ġconcrete": 1479,
      "de": 1480,
      "ĠJ": 1481,
      "Ġbut": 1482,
      "Ġbird": 1483,
      "Ġpit": 1484,
      "Ġstru": 1485,
      "Ġdock": 1486,
      "ope": 1487,
      "Ġhood": 1488,
      "phones": 1489,
      "Ġstatue": 1490,
      "hed": 1491,
      "Ġcig": 1492,
      "iding": 1493,
      "ally": 1494,
      "Ġyard": 1495,
      "Ġgold": 1496,
      "Ġmidair": 1497,
      "Ġattemp": 1498,
      "Ġwinter": 1499,
      "ace": 1500,
      "ĠG": 1501,
      "Ġmas": 1502,
      "Ġnet": 1503,
      "Ġshovel": 1504,
      "ggles": 1505,
      "ĠD": 1506,
      "Ġear": 1507,
      "Ġwas": 1508,
      "Ġpad": 1509,
      "ert": 1510,
      "Ġbucket": 1511,
      "Ġbikes": 1512,
      "Ġnumber": 1513,
      "Ġcowboy": 1514,
      "ience": 1515,
      "os": 1516,
      "ining": 1517,
      "ators": 1518,
      "ical": 1519,
      "Ġveget": 1520,
      "Bo": 1521,
      "bor": 1522,
      "ms": 1523,
      "uff": 1524,
      "Ġtat": 1525,
      "ests": 1526,
      "Ġanim": 1527,
      "Ġemp": 1528,
      "ctor": 1529,
      "Ġseated": 1530,
      "Ġreads": 1531,
      "Ġattire": 1532,
      "Ġapron": 1533,
      "Ġite": 1534,
      "Ġhome": 1535,
      "Ġfall": 1536,
      "Ġstra": 1537,
      "Ġjust": 1538,
      "Ġleft": 1539,
      "Ġspor": 1540,
      "Ġcream": 1541,
      "Ġdistance": 1542,
      "cl": 1543,
      "ĠH": 1544,
      "Ġed": 1545,
      "Ġaud": 1546,
      "Ġind": 1547,
      "Ġcutting": 1548,
      "Ġhapp": 1549,
      "Ġwhat": 1550,
      "Ġcooking": 1551,
      "Ġblan": 1552,
      "Ġbeer": 1553,
      "Ġroo": 1554,
      "Ġkneel": 1555,
      "az": 1556,
      "ber": 1557,
      "ns": 1558,
      "ned": 1559,
      "ric": 1560,
      "ini": 1561,
      "Ġschool": 1562,
      "head": 1563,
      "Ġbags": 1564,
      "Ġvests": 1565,
      "Ġbuildings": 1566,
      "Ġcliff": 1567,
      "Ġwhere": 1568,
      "Ġnewsp": 1569,
      "Ġpulling": 1570,
      "Little": 1571,
      "ban": 1572,
      "fet": 1573,
      "too": 1574,
      "ĠP": 1575,
      "Ġser": 1576,
      "Ġtent": 1577,
      "Ġcut": 1578,
      "lee": 1579,
      "Ġstation": 1580,
      "Ġplat": 1581,
      "aching": 1582,
      "Ġrider": 1583,
      "aret": 1584,
      "Ġgrill": 1585,
      "ĠFr": 1586,
      "Ġcigaret": 1587,
      "ug": 1588,
      "Ġwrest": 1589,
      "Ġvar": 1590,
      "Ġbowl": 1591,
      "Ġappears": 1592,
      "Ġpractic": 1593,
      "Ġvegetable": 1594,
      "Ġtattoo": 1595,
      "Girl": 1596,
      "Ġinf": 1597,
      "Ġpot": 1598,
      "Ġhors": 1599,
      "ony": 1600,
      "Ġrela": 1601,
      "Ġbare": 1602,
      "ely": 1603,
      "ctators": 1604,
      "ights": 1605,
      "Ġmountains": 1606,
      "Ġcrossing": 1607,
      "Ġshowing": 1608,
      "Ġinstrument": 1609,
      "Ġcourt": 1610,
      "Ġedge": 1611,
      "Ġblanket": 1612,
      "Ġvi": 1613,
      "Ġscarf": 1614,
      "Ġpaint": 1615,
      "Ġstructure": 1616,
      "hle": 1617,
      "na": 1618,
      "pher": 1619,
      "ĠE": 1620,
      "ĠL": 1621,
      "ĠN": 1622,
      "ins": 1623,
      "Ġban": 1624,
      "Ġland": 1625,
      "Ġright": 1626,
      "ading": 1627,
      "Ġbubble": 1628,
      "Ġnearby": 1629,
      "Ġperforms": 1630,
      "Women": 1631,
      "Ġelect": 1632,
      "Ġfilled": 1633,
      "Ġhorses": 1634,
      "Ġpile": 1635,
      "arm": 1636,
      "Ġfix": 1637,
      "look": 1638,
      "lding": 1639,
      "cert": 1640,
      "Ġmusician": 1641,
      "Ġmart": 1642,
      "Ġdriving": 1643,
      "yclists": 1644,
      "Ġfew": 1645,
      "Ġcarries": 1646,
      "ĠFrisbee": 1647,
      "Grou": 1648,
      "cal": 1649,
      "ser": 1650,
      "Ġmul": 1651,
      "Ġmother": 1652,
      "ffee": 1653,
      "Ġgoal": 1654,
      "Ġshore": 1655,
      "Ġbowling": 1656,
      "Ġbreak": 1657,
      "Ġleaves": 1658,
      "Ġfriends": 1659,
      "ven": 1660,
      "Ġce": 1661,
      "nding": 1662,
      "key": 1663,
      "Ġcars": 1664,
      "Ġpost": 1665,
      "Ġparked": 1666,
      "Ġboots": 1667,
      "Ġcigarette": 1668,
      "du": 1669,
      "ives": 1670,
      "ings": 1671,
      "ens": 1672,
      "Ġlined": 1673,
      "Ġgoggles": 1674,
      "ival": 1675,
      "Ġflower": 1676,
      "Ġsnowboarder": 1677,
      "Ġvendor": 1678,
      "Ġdisplay": 1679,
      "Person": 1680,
      "cher": 1681,
      "Ġmud": 1682,
      "Ġshot": 1683,
      "ops": 1684,
      "Ġathle": 1685,
      "Ġcol": 1686,
      "Ġladd": 1687,
      "Ġrailing": 1688,
      "Ġspla": 1689,
      "Ġtalks": 1690,
      "Ġskateboarder": 1691,
      "Ġpainted": 1692,
      "Ġdrums": 1693,
      "Ġvehicle": 1694,
      "Ġmartial": 1695,
      "set": 1696,
      "Ġdire": 1697,
      "Ġdiff": 1698,
      "Ġlying": 1699,
      "Ġcoffee": 1700,
      "Ġroller": 1701,
      "Ġsmoking": 1702,
      "Ġdresses": 1703,
      "Ġform": 1704,
      "Ġconcert": 1705,
      "Ġrocky": 1706,
      "Ġflying": 1707,
      "ivid": 1708,
      "Ġalley": 1709,
      "Ġeyes": 1710,
      "men": 1711,
      "ĠO": 1712,
      "Ġtime": 1713,
      "Ġyounger": 1714,
      "Ġkn": 1715,
      "ighting": 1716,
      "Ġjackets": 1717,
      "Ġwaves": 1718,
      "Ġarts": 1719,
      "Ġswinging": 1720,
      "Ġexp": 1721,
      "Ġflags": 1722,
      "Ġsafet": 1723,
      "Ġbathing": 1724,
      "Ġkicking": 1725,
      "cord": 1726,
      "Ġconversation": 1727,
      "Ġprepares": 1728,
      "Ġroof": 1729,
      "Ġnewspaper": 1730,
      "Ġrelax": 1731,
      "Group": 1732,
      "Ġsafety": 1733,
      "ail": 1734,
      "ered": 1735,
      "ige": 1736,
      "ugg": 1737,
      "ĠR": 1738,
      "Ġbull": 1739,
      "itary": 1740,
      "rown": 1741,
      "Ġrode": 1742,
      "Ġclose": 1743,
      "Ġparking": 1744,
      "Ġspectators": 1745,
      "Ġcostumes": 1746,
      "Ġphotograph": 1747,
      "Ġcountry": 1748,
      "erent": 1749,
      "Ġhik": 1750,
      "Ġgymn": 1751,
      "Ġgentleman": 1752,
      "Ġgloves": 1753,
      "Ġpracticing": 1754,
      "ike": 1755,
      "Ġ2": 1756,
      "Ġqu": 1757,
      "Ġbunch": 1758,
      "Ġput": 1759,
      "Ġmil": 1760,
      "ise": 1761,
      "Ġonlook": 1762,
      "Ġdig": 1763,
      "Ġfun": 1764,
      "ater": 1765,
      "Ġrep": 1766,
      "Ġthis": 1767,
      "ush": 1768,
      "upp": 1769,
      "Ġuses": 1770,
      "Ġpres": 1771,
      "Ġcleaning": 1772,
      "Ġcompetition": 1773,
      "Ġlistening": 1774,
      "Ġladder": 1775,
      "Ġdifferent": 1776,
      "olo": 1777,
      "Ġthere": 1778,
      "Ġstaring": 1779,
      "Ġres": 1780,
      "Ġcoll": 1781,
      "ctive": 1782,
      "Ġspra": 1783,
      "Ġskateboarding": 1784,
      "Ġbearded": 1785,
      "Ġscene": 1786,
      "Ġitems": 1787,
      "ales": 1788,
      "cu": 1789,
      "Ġmon": 1790,
      "Ġcla": 1791,
      "Ġgiving": 1792,
      "Ġham": 1793,
      "looking": 1794,
      "ids": 1795,
      "ural": 1796,
      "Ġrow": 1797,
      "Ġlawn": 1798,
      "Ġscoot": 1799,
      "Ġbicycles": 1800,
      "Ġsurfer": 1801,
      "Ġsurfboard": 1802,
      "Ġdesk": 1803,
      "Ġbikini": 1804,
      "Ġmeal": 1805,
      "Ġballoon": 1806,
      "Ġmask": 1807,
      "Ġempty": 1808,
      "Ġaudience": 1809,
      "Ġvarious": 1810,
      "ividu": 1811,
      "ou": 1812,
      "ton": 1813,
      "ndian": 1814,
      "ette": 1815,
      "Ġlit": 1816,
      "ays": 1817,
      "Ġdrinks": 1818,
      "Someone": 1819,
      "ized": 1820,
      "Ġamong": 1821,
      "Ġleaps": 1822,
      "Ġsplas": 1823,
      "Ġrodeo": 1824,
      "Ġonlookers": 1825,
      "bb": 1826,
      "cting": 1827,
      "nic": 1828,
      "iness": 1829,
      "Ġwed": 1830,
      "Ġtro": 1831,
      "Ġtub": 1832,
      "alm": 1833,
      "irc": 1834,
      "enc": 1835,
      "Ġtow": 1836,
      "Ġnot": 1837,
      "Ġfol": 1838,
      "Ġpart": 1839,
      "Ġcheck": 1840,
      "Ġcake": 1841,
      "Ġsliding": 1842,
      "Ġgathering": 1843,
      "Ġpointing": 1844,
      "Ġsilver": 1845,
      "Boy": 1846,
      "Ġplatform": 1847,
      "Ġvegetables": 1848,
      "cts": 1849,
      "fore": 1850,
      "Ġcement": 1851,
      "Ġstreets": 1852,
      "Ġkay": 1853,
      "Ġsold": 1854,
      "Ġfacing": 1855,
      "Ġsuits": 1856,
      "Ġobser": 1857,
      "Ġfeet": 1858,
      "Ġteenag": 1859,
      "Ġsports": 1860,
      "Ġviol": 1861,
      "lf": 1862,
      "nel": 1863,
      "pes": 1864,
      "Ġbath": 1865,
      "Ġmem": 1866,
      "Ġbefore": 1867,
      "Ġwaters": 1868,
      "Ġrais": 1869,
      "Ġneck": 1870,
      "Ġhelmets": 1871,
      "Ġcompeting": 1872,
      "Ġbiker": 1873,
      "Ġspeaking": 1874,
      "Ġindividu": 1875,
      "Ġwedding": 1876,
      "Six": 1877,
      "cers": 1878,
      "dition": 1879,
      "ken": 1880,
      "mo": 1881,
      "rist": 1882,
      "ĠW": 1883,
      "Ġtie": 1884,
      "Ġint": 1885,
      "Ġincl": 1886,
      "Ġmed": 1887,
      "Ġfing": 1888,
      "eth": 1889,
      "Ġlapt": 1890,
      "Ġsweep": 1891,
      "Ġtradition": 1892,
      "Ġscul": 1893,
      "Ġcoming": 1894,
      "Ġbusiness": 1895,
      "Ġgets": 1896,
      "Ġteams": 1897,
      "Ġmatch": 1898,
      "Ġhuge": 1899,
      "Ġclassroom": 1900,
      "mas": 1901,
      "rin": 1902,
      "Ġur": 1903,
      "Ġim": 1904,
      "Ġdin": 1905,
      "allow": 1906,
      "Ġlap": 1907,
      "Ġscreen": 1908,
      "Ġclimbs": 1909,
      "athon": 1910,
      "Ġpurse": 1911,
      "Ġprodu": 1912,
      "Ġsings": 1913,
      "Ġtries": 1914,
      "Ġsurfing": 1915,
      "Ġstudents": 1916,
      "Ġgarb": 1917,
      "Ġtraditional": 1918,
      "Ġtalk": 1919,
      "Ġmir": 1920,
      "Ġcrou": 1921,
      "Ġcirc": 1922,
      "eng": 1923,
      "vert": 1924,
      "Ġclown": 1925,
      "Ġairp": 1926,
      "pped": 1927,
      "Ġbride": 1928,
      "Ġcano": 1929,
      "Ġcounter": 1930,
      "Ġchasing": 1931,
      "Ġkissing": 1932,
      "Ġanimal": 1933,
      "Ġmilitary": 1934,
      "Ġviolin": 1935,
      "Ġmirro": 1936,
      "aw": 1937,
      "case": 1938,
      "sk": 1939,
      "Ġsame": 1940,
      "Ġsled": 1941,
      "Ġpull": 1942,
      "Ġcard": 1943,
      "Ġda": 1944,
      "Ġfighting": 1945,
      "Ġref": 1946,
      "els": 1947,
      "Ġwalkway": 1948,
      "Ġtrun": 1949,
      "self": 1950,
      "Ġstroller": 1951,
      "Ġwriting": 1952,
      "foot": 1953,
      "oks": 1954,
      "uck": 1955,
      "Ġslo": 1956,
      "read": 1957,
      "ars": 1958,
      "Ġgun": 1959,
      "Ġsto": 1960,
      "Ġskier": 1961,
      "Ġvide": 1962,
      "Ġsunset": 1963,
      "Ġchef": 1964,
      "Ġwaits": 1965,
      "Ġfemales": 1966,
      "ustom": 1967,
      "Ġdecor": 1968,
      "Ġexam": 1969,
      "Ġartist": 1970,
      "ticip": 1971,
      "avy": 1972,
      "Ġshoulder": 1973,
      "Ġkneeling": 1974,
      "th": 1975,
      "Ġsort": 1976,
      "Ġwra": 1977,
      "Ġtun": 1978,
      "Ġtire": 1979,
      "Ġbur": 1980,
      "Ġindo": 1981,
      "Ġcand": 1982,
      "ides": 1983,
      "Ġshad": 1984,
      "Ġplace": 1985,
      "Ġend": 1986,
      "Ġrunner": 1987,
      "Ġwaving": 1988,
      "Ġcheer": 1989,
      "ession": 1990,
      "Ġattempting": 1991,
      "Ġbarefoot": 1992,
      "ristmas": 1993,
      "Ġsculp": 1994,
      "Ġmirror": 1995,
      "sed": 1996,
      "Ġson": 1997,
      "Ġinter": 1998,
      "ern": 1999,
      "Ġcr": 2000,
      "alle": 2001,
      "ator": 2002,
      "Ġmakes": 2003,
      "Ġseen": 2004,
      "Ġbalan": 2005,
      "Ġsigns": 2006,
      "Ġmarathon": 2007,
      "Ġenjoy": 2008,
      "Ġoutfits": 2009,
      "Ġlife": 2010,
      "ĠIndian": 2011,
      "Ġelectric": 2012,
      "Asian": 2013,
      "Con": 2014,
      "Work": 2015,
      "aff": 2016,
      "aches": 2017,
      "ib": 2018,
      "ied": 2019,
      "ki": 2020,
      "Ġsays": 2021,
      "Ġty": 2022,
      "lebr": 2023,
      "Ġgard": 2024,
      "Ġfather": 2025,
      "ram": 2026,
      "Ġchain": 2027,
      "Ġleg": 2028,
      "Ġoverlooking": 2029,
      "iant": 2030,
      "Ġtables": 2031,
      "Ġgolf": 2032,
      "Ġparticip": 2033,
      "Ġadvert": 2034,
      "Ġproject": 2035,
      "Ġcourse": 2036,
      "ticolo": 2037,
      "inese": 2038,
      "Ġofficer": 2039,
      "Ġblowing": 2040,
      "Ġpadd": 2041,
      "Ġbubbles": 2042,
      "Ġmulticolo": 2043,
      "Ġcelebr": 2044,
      "cuss": 2045,
      "Ġscooter": 2046,
      "Ġadvertis": 2047,
      "lling": 2048,
      "og": 2049,
      "tes": 2050,
      "Ġsell": 2051,
      "Ġmeat": 2052,
      "Ġhar": 2053,
      "Ġstun": 2054,
      "ung": 2055,
      "Ġlights": 2056,
      "Ġhole": 2057,
      "Ġcover": 2058,
      "Ġskating": 2059,
      "Ġleans": 2060,
      "Ġleather": 2061,
      "Ġbald": 2062,
      "Ġballoons": 2063,
      "Ġhappy": 2064,
      "Ġfixing": 2065,
      "Ġgymnast": 2066,
      "Ġfollow": 2067,
      "Ġurban": 2068,
      "Ġpier": 2069,
      "Ġfive": 2070,
      "unette": 2071,
      "Ġtool": 2072,
      "ape": 2073,
      "Ġmag": 2074,
      "Ġfaces": 2075,
      "Ġalone": 2076,
      "Ġhelping": 2077,
      "Ġmicrosc": 2078,
      "Ġoper": 2079,
      "Ġdiscuss": 2080,
      "Ġbrightly": 2081,
      "Ġumbrellas": 2082,
      "Ġphotographer": 2083,
      "Ġforeground": 2084,
      "Ġmusicians": 2085,
      "Ġcollar": 2086,
      "ab": 2087,
      "ners": 2088,
      "ous": 2089,
      "Ġped": 2090,
      "Ġmade": 2091,
      "arate": 2092,
      "Ġgro": 2093,
      "Ġgood": 2094,
      "Ġgiant": 2095,
      "ative": 2096,
      "Ġstad": 2097,
      "lders": 2098,
      "Ġplate": 2099,
      "chair": 2100,
      "Ġsite": 2101,
      "Ġwaterf": 2102,
      "Ġasleep": 2103,
      "Ġlegs": 2104,
      "Ġheadphones": 2105,
      "ĠSt": 2106,
      "Ġcanoe": 2107,
      "Ġsculpture": 2108,
      "Construction": 2109,
      "In": 2110,
      "vice": 2111,
      "za": 2112,
      "Ġwell": 2113,
      "Ġcustom": 2114,
      "Ġgre": 2115,
      "Ġdiving": 2116,
      "lage": 2117,
      "Ġstar": 2118,
      "ese": 2119,
      "Ġtour": 2120,
      "Ġwears": 2121,
      "Ġchur": 2122,
      "Ġtrash": 2123,
      "Ġoffice": 2124,
      "ips": 2125,
      "Ġsandals": 2126,
      "Ġswings": 2127,
      "Ġpassing": 2128,
      "Ġsticks": 2129,
      "Ġdrawing": 2130,
      "Ġdoorway": 2131,
      "Ġwashing": 2132,
      "Ġrepair": 2133,
      "Ġvideo": 2134,
      "Ġgrocer": 2135,
      "Ġstadium": 2136,
      "Sm": 2137,
      "ia": 2138,
      "spe": 2139,
      "Ġway": 2140,
      "Ġbra": 2141,
      "Ġfur": 2142,
      "Ġste": 2143,
      "Ġstring": 2144,
      "Ġstuff": 2145,
      "amp": 2146,
      "ffic": 2147,
      "Ġheads": 2148,
      "lesc": 2149,
      "Ġaccord": 2150,
      "estri": 2151,
      "Ġtoys": 2152,
      "Ġmusical": 2153,
      "Ġofficers": 2154,
      "Ġfalling": 2155,
      "Ġmulticolored": 2156,
      "Ġaccordion": 2157,
      "ached": 2158,
      "band": 2159,
      "bers": 2160,
      "ral": 2161,
      "Ġsus": 2162,
      "ang": 2163,
      "Ġmix": 2164,
      "Ġhall": 2165,
      "alf": 2166,
      "Ġshallow": 2167,
      "Ġreaching": 2168,
      "Ġsmo": 2169,
      "ult": 2170,
      "Ġleash": 2171,
      "Ġmod": 2172,
      "Ġperformance": 2173,
      "Ġcomple": 2174,
      "Ġdirty": 2175,
      "Ġprof": 2176,
      "Ġeng": 2177,
      "ughter": 2178,
      "Ġthrows": 2179,
      "Ġteenage": 2180,
      "Ġbooth": 2181,
      "Ġskiing": 2182,
      "Ġpicking": 2183,
      "Ġinclud": 2184,
      "Ġlaptop": 2185,
      "Ġchurch": 2186,
      "bs": 2187,
      "dge": 2188,
      "ew": 2189,
      "mb": 2190,
      "que": 2191,
      "Ġ3": 2192,
      "Ġass": 2193,
      "Ġpack": 2194,
      "Ġprin": 2195,
      "Ġcas": 2196,
      "Ġfeat": 2197,
      "orch": 2198,
      "Ġbelow": 2199,
      "Ġeat": 2200,
      "Ġroll": 2201,
      "Ġlaund": 2202,
      "Ġpond": 2203,
      "Ġtraffic": 2204,
      "Ġmales": 2205,
      "Ġprote": 2206,
      "ught": 2207,
      "Ġclean": 2208,
      "Ġhiking": 2209,
      "Ġstraw": 2210,
      "Ġdigging": 2211,
      "Ġpresent": 2212,
      "back": 2213,
      "cial": 2214,
      "osing": 2215,
      "zz": 2216,
      "Ġinspe": 2217,
      "Ġpet": 2218,
      "Ġmom": 2219,
      "lead": 2220,
      "Ġgives": 2221,
      "Ġfin": 2222,
      "ord": 2223,
      "ics": 2224,
      "Ġatop": 2225,
      "alls": 2226,
      "Ġnap": 2227,
      "Ġlog": 2228,
      "Ġtack": 2229,
      "Ġkha": 2230,
      "Ġupside": 2231,
      "Ġvan": 2232,
      "Ġvis": 2233,
      "Ġspot": 2234,
      "Ġsoft": 2235,
      "Ġseem": 2236,
      "Ġmove": 2237,
      "uddle": 2238,
      "Ġcloth": 2239,
      "ages": 2240,
      "Ġcatches": 2241,
      "Ġcatching": 2242,
      "Ġpasses": 2243,
      "Ġhugging": 2244,
      "acher": 2245,
      "Ġdirection": 2246,
      "Ġrelaxing": 2247,
      "Ġtunnel": 2248,
      "Ġmicroscope": 2249,
      "slee": 2250,
      "Ġact": 2251,
      "res": 2252,
      "Ġfre": 2253,
      "stand": 2254,
      "Ġbeige": 2255,
      "Ġlab": 2256,
      "Ġballs": 2257,
      "Ġblock": 2258,
      "Ġshoe": 2259,
      "Ġdancers": 2260,
      "Ġbrunette": 2261,
      "Ġshows": 2262,
      "Ġsleeps": 2263,
      "Ġleaping": 2264,
      "Ġsweeping": 2265,
      "Ġgarden": 2266,
      "Ġstunt": 2267,
      "Ġsuspe": 2268,
      "light": 2269,
      "work": 2270,
      "ĠK": 2271,
      "ĠU": 2272,
      "Ġround": 2273,
      "Ġpupp": 2274,
      "ront": 2275,
      "Ġdun": 2276,
      "Ġfan": 2277,
      "Ġfight": 2278,
      "Ġfest": 2279,
      "Ġtou": 2280,
      "Ġhose": 2281,
      "Ġstret": 2282,
      "Ġstream": 2283,
      "Ġtracks": 2284,
      "Ġteeth": 2285,
      "Ġtelesc": 2286,
      "Ġsea": 2287,
      "Ġscaff": 2288,
      "Ġswimsuit": 2289,
      "Ġsinger": 2290,
      "Ġflies": 2291,
      "Ġcoats": 2292,
      "Ġcafe": 2293,
      "Ġdesert": 2294,
      "Ġconversing": 2295,
      "Ġeye": 2296,
      "ĠChristmas": 2297,
      "Ġhoodie": 2298,
      "Ġresting": 2299,
      "Ġhammer": 2300,
      "Ġdaughter": 2301,
      "Ġtrunks": 2302,
      "Ġscaffo": 2303,
      "Gu": 2304,
      "St": 2305,
      "Wh": 2306,
      "ca": 2307,
      "cross": 2308,
      "ient": 2309,
      "uzz": 2310,
      "Ġ1": 2311,
      "ĠY": 2312,
      "ret": 2313,
      "its": 2314,
      "Ġhur": 2315,
      "Ġfair": 2316,
      "Ġfram": 2317,
      "Ġstack": 2318,
      "Ġtown": 2319,
      "Ġhow": 2320,
      "Ġcold": 2321,
      "Ġheld": 2322,
      "ental": 2323,
      "Ġkarate": 2324,
      "Ġracket": 2325,
      "neath": 2326,
      "Ġguard": 2327,
      "Ġunderneath": 2328,
      "wards": 2329,
      "Ġbalc": 2330,
      "Ġappro": 2331,
      "Ġplants": 2332,
      "Ġpoints": 2333,
      "Ġjogging": 2334,
      "Ġcontain": 2335,
      "Ġsquare": 2336,
      "Ġwrestling": 2337,
      "Ġsplashing": 2338,
      "Ġsuspend": 2339,
      "Ġtelescope": 2340,
      "cas": 2341,
      "fight": 2342,
      "lers": 2343,
      "nival": 2344,
      "pan": 2345,
      "Ġz": 2346,
      "ina": 2347,
      "Ġmust": 2348,
      "Ġmess": 2349,
      "Ġcent": 2350,
      "arrow": 2351,
      "lat": 2352,
      "Ġwithout": 2353,
      "Ġbooks": 2354,
      "Ġrob": 2355,
      "Ġtramp": 2356,
      "Ġmoving": 2357,
      "pping": 2358,
      "Ġhelp": 2359,
      "oline": 2360,
      "Ġthemsel": 2361,
      "Ġunderw": 2362,
      "Ġexc": 2363,
      "Ġsax": 2364,
      "Ġpasseng": 2365,
      "Ġcane": 2366,
      "Ġhula": 2367,
      "Ġcurly": 2368,
      "ĠChinese": 2369,
      "Ġshoulders": 2370,
      "Ġcolle": 2371,
      "Ġspray": 2372,
      "allen": 2373,
      "Ġmagaz": 2374,
      "Ġincluding": 2375,
      "Ġthemselves": 2376,
      "Black": 2377,
      "Kids": 2378,
      "bla": 2379,
      "com": 2380,
      "hone": 2381,
      "Ġes": 2382,
      "ino": 2383,
      "Ġwine": 2384,
      "Ġwire": 2385,
      "Ġbel": 2386,
      "Ġpin": 2387,
      "Ġmural": 2388,
      "erman": 2389,
      "Ġcrying": 2390,
      "Ġcyclist": 2391,
      "Ġtong": 2392,
      "ute": 2393,
      "Ġret": 2394,
      "Ġlow": 2395,
      "Ġtaken": 2396,
      "Ġkind": 2397,
      "Ġcarnival": 2398,
      "Ġbicyclist": 2399,
      "Ġwooded": 2400,
      "ife": 2401,
      "Ġtricks": 2402,
      "Ġdeck": 2403,
      "Ġdeep": 2404,
      "fully": 2405,
      "Ġsheet": 2406,
      "Ġcrosswalk": 2407,
      "Ġmatching": 2408,
      "Ġpulled": 2409,
      "Ġmakeup": 2410,
      "Ġopposing": 2411,
      "Ġwetsuit": 2412,
      "Ġhiker": 2413,
      "Ġkayak": 2414,
      "Ġindividuals": 2415,
      "Ġdinner": 2416,
      "Ġproduce": 2417,
      "Workers": 2418,
      "Small": 2419,
      "Ġtrampoline": 2420,
      "aks": 2421,
      "iers": 2422,
      "oon": 2423,
      "ual": 2424,
      "ĠV": 2425,
      "Ġkey": 2426,
      "Ġter": 2427,
      "Ġcri": 2428,
      "Ġfig": 2429,
      "eding": 2430,
      "Ġrece": 2431,
      "Ġlone": 2432,
      "Ġrolling": 2433,
      "Ġclosed": 2434,
      "Ġsewing": 2435,
      "Ġperformer": 2436,
      "Ġpicnic": 2437,
      "Ġdances": 2438,
      "Ġbrus": 2439,
      "Ġsurface": 2440,
      "Ġknee": 2441,
      "Ġwheelchair": 2442,
      "Ġnose": 2443,
      "Ġstroll": 2444,
      "Ġpitcher": 2445,
      "Ġattempts": 2446,
      "Ġinfant": 2447,
      "Ġmembers": 2448,
      "Ġrefle": 2449,
      "Ġstuffed": 2450,
      "Ġprofession": 2451,
      "Old": 2452,
      "ness": 2453,
      "tom": 2454,
      "udy": 2455,
      "yle": 2456,
      "ital": 2457,
      "let": 2458,
      "ara": 2459,
      "ature": 2460,
      "icycle": 2461,
      "Ġring": 2462,
      "Ġrug": 2463,
      "Ġhoop": 2464,
      "Ġbever": 2465,
      "Ġthird": 2466,
      "riental": 2467,
      "Ġlays": 2468,
      "These": 2469,
      "ular": 2470,
      "Ġgoes": 2471,
      "Ġblouse": 2472,
      "Ġhimself": 2473,
      "ustic": 2474,
      "Ġbottom": 2475,
      "Ġopening": 2476,
      "Ġpushes": 2477,
      "Ġtrans": 2478,
      "Ġbutton": 2479,
      "Ġcircle": 2480,
      "Ġslope": 2481,
      "estrians": 2482,
      "leaders": 2483,
      "Ġsoftball": 2484,
      "Ġbalcony": 2485,
      "Ġcenter": 2486,
      "Ġsaxop": 2487,
      "ond": 2488,
      "per": 2489,
      "rink": 2490,
      "yard": 2491,
      "Ġtile": 2492,
      "Ġbent": 2493,
      "Ġmop": 2494,
      "rol": 2495,
      "road": 2496,
      "Ġsteep": 2497,
      "Ġshoo": 2498,
      "Ġlunch": 2499,
      "Ġrub": 2500,
      "Ġjugg": 2501,
      "Ġcond": 2502,
      "illing": 2503,
      "Ġskis": 2504,
      "Ġsprink": 2505,
      "Ġtravel": 2506,
      "Ġcons": 2507,
      "Ġsee": 2508,
      "Ġmost": 2509,
      "ipe": 2510,
      "Ġdry": 2511,
      "Ġsandy": 2512,
      "Ġdevice": 2513,
      "Ġstaircase": 2514,
      "Ġboxes": 2515,
      "artment": 2516,
      "Ġturn": 2517,
      "Ġchases": 2518,
      "Ġspeaks": 2519,
      "Ġathlete": 2520,
      "Ġformal": 2521,
      "Ġputs": 2522,
      "Ġpulls": 2523,
      "Ġindoor": 2524,
      "dium": 2525,
      "lane": 2526,
      "Ġi": 2527,
      "Ġgaz": 2528,
      "Ġfallen": 2529,
      "atting": 2530,
      "Ġstare": 2531,
      "ster": 2532,
      "Ġcook": 2533,
      "Ġrobe": 2534,
      "cted": 2535,
      "Ġpodium": 2536,
      "Ġoveralls": 2537,
      "Ġpaved": 2538,
      "Ġswims": 2539,
      "Ġenjoys": 2540,
      "Ġdrives": 2541,
      "Ġdesign": 2542,
      "scape": 2543,
      "place": 2544,
      "Ġshaking": 2545,
      "Ġcovering": 2546,
      "Ġgrocery": 2547,
      "Ġfresh": 2548,
      "Ġfestival": 2549,
      "Ġkeyboard": 2550,
      "Older": 2551,
      "ger": 2552,
      "gon": 2553,
      "Ġslee": 2554,
      "ited": 2555,
      "Ġpan": 2556,
      "Ġpian": 2557,
      "Ġporch": 2558,
      "Ġpuddle": 2559,
      "Ġgate": 2560,
      "Ġden": 2561,
      "Ġfarm": 2562,
      "Ġfenc": 2563,
      "Ġstool": 2564,
      "icem": 2565,
      "Ġnice": 2566,
      "Ġloun": 2567,
      "Ġchalk": 2568,
      "ried": 2569,
      "vement": 2570,
      "Ġheavy": 2571,
      "Ġpouring": 2572,
      "apan": 2573,
      "apers": 2574,
      "Ġtele": 2575,
      "Ġmound": 2576,
      "tend": 2577,
      "Ġbicyclists": 2578,
      "Ġdancer": 2579,
      "Ġjean": 2580,
      "Ġmarching": 2581,
      "Ġwindows": 2582,
      "Ġdriver": 2583,
      "Ġgrind": 2584,
      "Ġkicks": 2585,
      "covered": 2586,
      "Ġshaving": 2587,
      "ashion": 2588,
      "Ġcurb": 2589,
      "Ġgentlemen": 2590,
      "Ġbirds": 2591,
      "Ġhikers": 2592,
      "Ġteenagers": 2593,
      "Ġfingers": 2594,
      "Ġwaterfall": 2595,
      "Ġcustomers": 2596,
      "Ġlaundry": 2597,
      "Guy": 2598,
      "Ġrobes": 2599,
      "Ġfigure": 2600,
      "bat": 2601,
      "dress": 2602,
      "ex": 2603,
      "fts": 2604,
      "range": 2605,
      "test": 2606,
      "tail": 2607,
      "Ġke": 2608,
      "Ġsale": 2609,
      "Ġtw": 2610,
      "Ġoriental": 2611,
      "Ġpalm": 2612,
      "Ġmer": 2613,
      "Ġgroom": 2614,
      "Ġdon": 2615,
      "Ġdust": 2616,
      "Ġship": 2617,
      "Ġarena": 2618,
      "Ġbou": 2619,
      "Ġreaches": 2620,
      "Ġlies": 2621,
      "Ġlots": 2622,
      "Ġlocal": 2623,
      "Ġcho": 2624,
      "ads": 2625,
      "illow": 2626,
      "uses": 2627,
      "Ġlay": 2628,
      "Ġcarp": 2629,
      "Ġpolo": 2630,
      "Ġpoles": 2631,
      "Ġbackyard": 2632,
      "Ġledge": 2633,
      "Ġcloudy": 2634,
      "Ġblocks": 2635,
      "Ġchecking": 2636,
      "merg": 2637,
      "Ġattached": 2638,
      "Ġbarbe": 2639,
      "Ġcolors": 2640,
      "Ġsheep": 2641,
      "Ġhangs": 2642,
      "Ġevening": 2643,
      "Ġoppos": 2644,
      "Ġforeign": 2645,
      "Ġgolden": 2646,
      "Ġshoveling": 2647,
      "uggage": 2648,
      "Ġteenager": 2649,
      "Ġairplane": 2650,
      "Ġwrapped": 2651,
      "Ġpaddling": 2652,
      "Ġprotective": 2653,
      "Ġkhaki": 2654,
      "Ġshooting": 2655,
      "Ġpiano": 2656,
      "Ġopposite": 2657,
      "\".": 2658,
      "At": 2659,
      "Here": 2660,
      "der": 2661,
      "flage": 2662,
      "ible": 2663,
      "jam": 2664,
      "ka": 2665,
      "outh": 2666,
      "sition": 2667,
      "time": 2668,
      "inning": 2669,
      "itor": 2670,
      "Ġpair": 2671,
      "Ġport": 2672,
      "Ġpillow": 2673,
      "ato": 2674,
      "Ġluggage": 2675,
      "ersk": 2676,
      "Ġposs": 2677,
      "Ġposition": 2678,
      "Ġraft": 2679,
      "Ġsword": 2680,
      "Ġvac": 2681,
      "Ġcones": 2682,
      "ĠAT": 2683,
      "Ġpavement": 2684,
      "Ġpajam": 2685,
      "Ġcamou": 2686,
      "Ġfabr": 2687,
      "anta": 2688,
      "ift": 2689,
      "Ġadj": 2690,
      "Ġbran": 2691,
      "Ġjumpsuit": 2692,
      "Ġbandan": 2693,
      "Ġdef": 2694,
      "ively": 2695,
      "Ġclear": 2696,
      "Ġpolicem": 2697,
      "Ġamus": 2698,
      "Ġlift": 2699,
      "Ġoppon": 2700,
      "Ġinflat": 2701,
      "Ġposter": 2702,
      "Ġbalancing": 2703,
      "Ġtype": 2704,
      "Ġtongue": 2705,
      "Ġsaxophone": 2706,
      "Ġdenim": 2707,
      "Ġfenced": 2708,
      "Ġcamouflage": 2709,
      "Ġinflatable": 2710,
      "ced": 2711,
      "cut": 2712,
      "land": 2713,
      "ured": 2714,
      "vis": 2715,
      "whe": 2716,
      "inned": 2717,
      "Ġwild": 2718,
      "Ġdi": 2719,
      "Ġfar": 2720,
      "ets": 2721,
      "ident": 2722,
      "Ġrefe": 2723,
      "Ġbeam": 2724,
      "Ġeats": 2725,
      "ower": 2726,
      "Ġbuying": 2727,
      "oney": 2728,
      "Ġorn": 2729,
      "Ġtractor": 2730,
      "Ġsec": 2731,
      "Ġseat": 2732,
      "Ġcamp": 2733,
      "Ġheadsc": 2734,
      "Ġshoot": 2735,
      "Ġwalls": 2736,
      "Ġchest": 2737,
      "Ġfloating": 2738,
      "Ġflight": 2739,
      "Ġcast": 2740,
      "Ġmarried": 2741,
      "tyard": 2742,
      "Ġmotorcycles": 2743,
      "Ġcourtyard": 2744,
      "Ġlaughs": 2745,
      "Ġplan": 2746,
      "Ġskirts": 2747,
      "Ġkiss": 2748,
      "Ġrailroad": 2749,
      "ĠJapan": 2750,
      "ertain": 2751,
      "Ġgoalie": 2752,
      "Ġimage": 2753,
      "Ġshadow": 2754,
      "Ġframe": 2755,
      "Ġescal": 2756,
      "Ġprofessional": 2757,
      "Ġjuggling": 2758,
      "Ġfabric": 2759,
      "cy": 2760,
      "day": 2761,
      "ma": 2762,
      "oustic": 2763,
      "ti": 2764,
      "ten": 2765,
      "vol": 2766,
      "wk": 2767,
      "Ġrou": 2768,
      "Ġsum": 2769,
      "Ġsup": 2770,
      "Ġsim": 2771,
      "ither": 2772,
      "Ġpig": 2773,
      "Ġmap": 2774,
      "Ġtoss": 2775,
      "eds": 2776,
      "stra": 2777,
      "Ġju": 2778,
      "Ġcoast": 2779,
      "Ġeither": 2780,
      "Ġbucking": 2781,
      "Ġbackwards": 2782,
      "Ġriders": 2783,
      "Ġsocks": 2784,
      "Ġmoves": 2785,
      "iple": 2786,
      "tered": 2787,
      "Ġclub": 2788,
      "Ġshown": 2789,
      "Ġacoustic": 2790,
      "Ġcheering": 2791,
      "Ġfloral": 2792,
      "Ġboats": 2793,
      "Ġfirefight": 2794,
      "Ġmarketplace": 2795,
      "Ġmeet": 2796,
      "Ġbread": 2797,
      "Ġcarriage": 2798,
      "Ġjerseys": 2799,
      "Ġentertain": 2800,
      "Ġhappily": 2801,
      "ĠNew": 2802,
      "Ġtowel": 2803,
      "Ġsoldier": 2804,
      "Ġsoldiers": 2805,
      "Ġgarbage": 2806,
      "Ġtools": 2807,
      "Ġgoods": 2808,
      "Ġrollersk": 2809,
      "Ġtouching": 2810,
      "Ġscaffolding": 2811,
      "Ġhurdle": 2812,
      "Ġsuspended": 2813,
      "Ġcarpet": 2814,
      "Ġpajamas": 2815,
      "Ġbandanna": 2816,
      "Dog": 2817,
      "ds": 2818,
      "hood": 2819,
      "line": 2820,
      "uro": 2821,
      "ucas": 2822,
      "wel": 2823,
      "Ġamerican": 2824,
      "Ġsix": 2825,
      "Ġsupp": 2826,
      "Ġwar": 2827,
      "Ġtar": 2828,
      "Ġinvol": 2829,
      "nds": 2830,
      "Ġhay": 2831,
      "Ġdining": 2832,
      "Ġfly": 2833,
      "Ġfans": 2834,
      "ory": 2835,
      "Ġshade": 2836,
      "Ġboun": 2837,
      "Ġplaza": 2838,
      "stac": 2839,
      "Ġchop": 2840,
      "Ġcool": 2841,
      "Ġegg": 2842,
      "ention": 2843,
      "Ġrac": 2844,
      "aped": 2845,
      "Ġsnack": 2846,
      "Ġbroom": 2847,
      "lymp": 2848,
      "Ġteacher": 2849,
      "ipes": 2850,
      "Ġtops": 2851,
      "Ġparach": 2852,
      "Seven": 2853,
      "Ġpaints": 2854,
      "Ġfloat": 2855,
      "Ġteamm": 2856,
      "Ġbarrel": 2857,
      "Ġcaught": 2858,
      "Ġobstac": 2859,
      "aker": 2860,
      "Ġliving": 2861,
      "Ġbackpacks": 2862,
      "Ġplant": 2863,
      "Ġwelding": 2864,
      "Ġpeace": 2865,
      "Ġanimals": 2866,
      "Ġkneels": 2867,
      "Ġserving": 2868,
      "Ġlandscape": 2869,
      "Ġathletic": 2870,
      "Ġraised": 2871,
      "Ġairport": 2872,
      "skinned": 2873,
      "Ġstove": 2874,
      "Ġadvertisement": 2875,
      "Ġharness": 2876,
      "Ġmodel": 2877,
      "sleeved": 2878,
      "Ġunderwater": 2879,
      "Ġmagazine": 2880,
      "Ġrugby": 2881,
      "Ġescalator": 2882,
      "ucasian": 2883,
      ".\"": 2884,
      "Male": 2885,
      "bile": 2886,
      "bow": 2887,
      "cue": 2888,
      "een": 2889,
      "ech": 2890,
      "ection": 2891,
      "ik": 2892,
      "lit": 2893,
      "med": 2894,
      "mers": 2895,
      "ws": 2896,
      "Ġ4": 2897,
      "Ġaction": 2898,
      "Ġpony": 2899,
      "Ġpige": 2900,
      "Ġpipe": 2901,
      "erc": 2902,
      "erby": 2903,
      "Ġcere": 2904,
      "Ġdread": 2905,
      "Ġfashion": 2906,
      "Ġdoll": 2907,
      "Ġbending": 2908,
      "Ġthrown": 2909,
      "Ġheart": 2910,
      "ently": 2911,
      "Ġgravel": 2912,
      "Ġrunners": 2913,
      "Ġneon": 2914,
      "chestra": 2915,
      "Ġfast": 2916,
      "tery": 2917,
      "Ġhaircut": 2918,
      "Ġuse": 2919,
      "ations": 2920,
      "Ġclimber": 2921,
      "Ġstoref": 2922,
      "ĠSanta": 2923,
      "Ġdrive": 2924,
      "Ġliqu": 2925,
      "Ġgrilling": 2926,
      "Ġpolka": 2927,
      "Ġtrump": 2928,
      "Ġplane": 2929,
      "Ġstudent": 2930,
      "Ġjockey": 2931,
      "Ġhooded": 2932,
      "ĠGerman": 2933,
      "Ġrollerbla": 2934,
      "Ġtube": 2935,
      "Ġneckla": 2936,
      "Ġfinger": 2937,
      "Ġexamining": 2938,
      "Ġparticipating": 2939,
      "Ġoperating": 2940,
      "Ġseems": 2941,
      "ĠYork": 2942,
      "Ġbrushing": 2943,
      "Ġamusement": 2944,
      "Ġreferee": 2945,
      "Ġobstacle": 2946,
      "like": 2947,
      "Ġwide": 2948,
      "Ġwarm": 2949,
      "Ġtry": 2950,
      "Ġmoney": 2951,
      "Ġcone": 2952,
      "Ġcare": 2953,
      "Ġcyclists": 2954,
      "rop": 2955,
      "Ġges": 2956,
      "Ġhalf": 2957,
      "Ġdump": 2958,
      "Ġfir": 2959,
      "Ġfen": 2960,
      "unk": 2961,
      "Ġsharing": 2962,
      "Ġyouth": 2963,
      "gel": 2964,
      "Ġjung": 2965,
      "Ġloc": 2966,
      "Ġoutst": 2967,
      "Ġbeg": 2968,
      "ilt": 2969,
      "Ġthin": 2970,
      "Ġthumb": 2971,
      "Ġthings": 2972,
      "Ġredhead": 2973,
      "Ġext": 2974,
      "Ġropes": 2975,
      "Ġheels": 2976,
      "Ġorchestra": 2977,
      "Ġsport": 2978,
      "Ġwagon": 2979,
      "ister": 2980,
      "ills": 2981,
      "Ġadm": 2982,
      "Ġbenches": 2983,
      "Ġsandw": 2984,
      "shirts": 2985,
      "Ġprotest": 2986,
      "Ġtrip": 2987,
      "Ġmotorb": 2988,
      "ĠSp": 2989,
      "Ġexerc": 2990,
      "Ġsets": 2991,
      "akers": 2992,
      "Ġsticking": 2993,
      "Ġribb": 2994,
      "Ġcompete": 2995,
      "Ġfrisbee": 2996,
      "Ġstudio": 2997,
      "Ġhitting": 2998,
      "Ġattempt": 2999,
      "hound": 3000,
      "Ġpractice": 3001,
      "Ġvehicles": 3002,
      "Ġmuddy": 3003,
      "Ġknit": 3004,
      "Ġphotographs": 3005,
      "Ġcheckered": 3006,
      "Ġbathroom": 3007,
      "Ġindividual": 3008,
      "Ġcrouches": 3009,
      "Ġdecorated": 3010,
      "Ġcandy": 3011,
      "Ġpedestrians": 3012,
      "Ġhallway": 3013,
      "Ġprint": 3014,
      "Ġpresentation": 3015,
      "Ġsleeve": 3016,
      "Ġopponent": 3017,
      "Ġheadscarf": 3018,
      "Ġrout": 3019,
      "Ġgesture": 3020,
      "Ġjungle": 3021,
      "Brown": 3022,
      "So": 3023,
      "aking": 3024,
      "ache": 3025,
      "cc": 3026,
      "hib": 3027,
      "iet": 3028,
      "me": 3029,
      "so": 3030,
      "wl": 3031,
      "yhound": 3032,
      "zer": 3033,
      "Ġ(": 3034,
      "iny": 3035,
      "inery": 3036,
      "Ġsack": 3037,
      "Ġsink": 3038,
      "Ġtu": 3039,
      "Ġble": 3040,
      "Ġmoto": 3041,
      "Ġmuzz": 3042,
      "erial": 3043,
      "isting": 3044,
      "Ġonly": 3045,
      "Ġdem": 3046,
      "Ġstart": 3047,
      "etra": 3048,
      "Ġyou": 3049,
      "Ġnative": 3050,
      "umn": 3051,
      "ility": 3052,
      "usk": 3053,
      "Ġemb": 3054,
      "Ġrowing": 3055,
      "iewing": 3056,
      "Ġracer": 3057,
      "Ġneigh": 3058,
      "rench": 3059,
      "ycling": 3060,
      "Ġfoc": 3061,
      "Ġarch": 3062,
      "Ġguitars": 3063,
      "ggy": 3064,
      "Ġjewel": 3065,
      "Ġskateboards": 3066,
      "Ġspeech": 3067,
      "ĠCa": 3068,
      "Ġrests": 3069,
      "Ġslides": 3070,
      "Ġappl": 3071,
      "Ġdish": 3072,
      "Ġcleans": 3073,
      "Ġfeeding": 3074,
      "Ġmachinery": 3075,
      "Ġalso": 3076,
      "Ġdrummer": 3077,
      "Ġsnowboarding": 3078,
      "Ġleaf": 3079,
      "ption": 3080,
      "Ġeleph": 3081,
      "Ġcontrol": 3082,
      "Ġpatter": 3083,
      "Ġpatio": 3084,
      "Ġfruits": 3085,
      "Ġentr": 3086,
      "Ġgarage": 3087,
      "Ġears": 3088,
      "uffy": 3089,
      "Ġsporting": 3090,
      "Ġceiling": 3091,
      "ibly": 3092,
      "Ġmustache": 3093,
      "Ġexcited": 3094,
      "Ġpassengers": 3095,
      "Ġbarbecue": 3096,
      "Ġpoliceman": 3097,
      "ĠJapanese": 3098,
      "Ġsummer": 3099,
      "Ġracetra": 3100,
      "Ġmotocross": 3101,
      "Ġracetrack": 3102,
      "Crowd": 3103,
      "Lad": 3104,
      "On": 3105,
      "eum": 3106,
      "ges": 3107,
      "ilo": 3108,
      "mat": 3109,
      "mon": 3110,
      "truck": 3111,
      "Ġ5": 3112,
      "Ġrough": 3113,
      "Ġaqu": 3114,
      "Ġsy": 3115,
      "Ġsal": 3116,
      "Ġpine": 3117,
      "Ġpuck": 3118,
      "Ġgl": 3119,
      "Ġdim": 3120,
      "loy": 3121,
      "lond": 3122,
      "ica": 3123,
      "irth": 3124,
      "Ġrec": 3125,
      "Ġlane": 3126,
      "ersection": 3127,
      "Ġnarrow": 3128,
      "Ġhosp": 3129,
      "Ġcoach": 3130,
      "Ġtho": 3131,
      "used": 3132,
      "rier": 3133,
      "ards": 3134,
      "Ġherself": 3135,
      "Ġtag": 3136,
      "Ġcloud": 3137,
      "Ġheadband": 3138,
      "Ġsurg": 3139,
      "Ġbushes": 3140,
      "uba": 3141,
      "Ġbrush": 3142,
      "hawk": 3143,
      "Ġbaskets": 3144,
      "Ġmuseum": 3145,
      "Ġhorseback": 3146,
      "Ġexhib": 3147,
      "Ġhillside": 3148,
      "jects": 3149,
      "astern": 3150,
      "Ġboardwalk": 3151,
      "Ġbikers": 3152,
      "Ġphotograp": 3153,
      "Ġleaving": 3154,
      "Ġwea": 3155,
      "Ġstopped": 3156,
      "borhood": 3157,
      "Ġelectron": 3158,
      "ĠOlymp": 3159,
      "Ġobserve": 3160,
      "Ġintersection": 3161,
      "Ġsells": 3162,
      "Ġdiscussion": 3163,
      "Ġpetting": 3164,
      "Ġbeverage": 3165,
      "Ġkeep": 3166,
      "Ġpossibly": 3167,
      "Ġtrumpet": 3168,
      "Ġsandwich": 3169,
      "Ġroutine": 3170,
      "Ġentrance": 3171,
      "Ġhospital": 3172,
      "Blond": 3173,
      "Che": 3174,
      "Large": 3175,
      "fa": 3176,
      "flo": 3177,
      "fting": 3178,
      "gan": 3179,
      "ior": 3180,
      "ially": 3181,
      "Ġahead": 3182,
      "Ġsong": 3183,
      "Ġtight": 3184,
      "Ġbrow": 3185,
      "Ġpen": 3186,
      "Ġmall": 3187,
      "Ġmain": 3188,
      "Ġcal": 3189,
      "roon": 3190,
      "Ġdep": 3191,
      "Ġfree": 3192,
      "aters": 3193,
      "Ġstones": 3194,
      "locks": 3195,
      "iddle": 3196,
      "uts": 3197,
      "Ġlan": 3198,
      "Ġnur": 3199,
      "Ġnavy": 3200,
      "Ġload": 3201,
      "Ġcobble": 3202,
      "Ġtax": 3203,
      "ions": 3204,
      "boat": 3205,
      "Ġskates": 3206,
      "rence": 3207,
      "Ġvil": 3208,
      "Ġspread": 3209,
      "Ġfolding": 3210,
      "Ġmaroon": 3211,
      "Ġhandstand": 3212,
      "Ġseats": 3213,
      "Ġscre": 3214,
      "down": 3215,
      "Ġhelps": 3216,
      "gged": 3217,
      "Ġmicrophones": 3218,
      "ĠCo": 3219,
      "Ġcab": 3220,
      "ivers": 3221,
      "aked": 3222,
      "Ġdishes": 3223,
      "Ġmotorcyclist": 3224,
      "Ġsail": 3225,
      "Ġafrican": 3226,
      "ĠBM": 3227,
      "Ġchase": 3228,
      "Ġpatient": 3229,
      "hou": 3230,
      "house": 3231,
      "Ġsilhou": 3232,
      "Ġsquatting": 3233,
      "Ġbottles": 3234,
      "Ġbuckets": 3235,
      "Ġtattooed": 3236,
      "pherd": 3237,
      "Ġclay": 3238,
      "Ġcardboard": 3239,
      "Ġindoors": 3240,
      "Ġchains": 3241,
      "Ġcelebrating": 3242,
      "Ġmixing": 3243,
      "Ġsmoke": 3244,
      "Ġfinis": 3245,
      "Ġpuppy": 3246,
      "Ġdune": 3247,
      "Ġfancy": 3248,
      "White": 3249,
      "retched": 3250,
      "Ġcontainer": 3251,
      "Ġterra": 3252,
      "Ġtransp": 3253,
      "Ġrubber": 3254,
      "Ġcondu": 3255,
      "Ġmostly": 3256,
      "ĠATV": 3257,
      "vision": 3258,
      "Ġornate": 3259,
      "Ġsuper": 3260,
      "Ġfencing": 3261,
      "Ġoutstretched": 3262,
      "Ġneighborhood": 3263,
      "Lady": 3264,
      "irthday": 3265,
      "Co": 3266,
      "ai": 3267,
      "cess": 3268,
      "des": 3269,
      "eb": 3270,
      "go": 3271,
      "hop": 3272,
      "nit": 3273,
      "pa": 3274,
      "pical": 3275,
      "rit": 3276,
      "uum": 3277,
      "ucks": 3278,
      "Ġaut": 3279,
      "Ġwife": 3280,
      "Ġown": 3281,
      "Ġodd": 3282,
      "Ġbla": 3283,
      "Ġbill": 3284,
      "reet": 3285,
      "Ġpump": 3286,
      "Ġpee": 3287,
      "Ġcro": 3288,
      "Ġcalf": 3289,
      "Ġgas": 3290,
      "Ġhum": 3291,
      "Ġdro": 3292,
      "Ġdel": 3293,
      "lded": 3294,
      "onstr": 3295,
      "Ġdoctor": 3296,
      "herman": 3297,
      "ically": 3298,
      "uting": 3299,
      "Ġrecord": 3300,
      "Ġlines": 3301,
      "Ġrink": 3302,
      "Ġrural": 3303,
      "stick": 3304,
      "umer": 3305,
      "Ġbean": 3306,
      "ilar": 3307,
      "ames": 3308,
      "Ġemerg": 3309,
      "Ġlamp": 3310,
      "Ġkite": 3311,
      "Ġcarving": 3312,
      "Ġbuy": 3313,
      "Ġleading": 3314,
      "Ġballer": 3315,
      "Ġspar": 3316,
      "Ġspinning": 3317,
      "Ġscuba": 3318,
      "Ġguitarist": 3319,
      "Ġparas": 3320,
      "quet": 3321,
      "Ġuniformed": 3322,
      "Ġswimmer": 3323,
      "Ġprotes": 3324,
      "Ġbalance": 3325,
      "Ġstripes": 3326,
      "Ġbars": 3327,
      "Ġcoloring": 3328,
      "Ġfiretruck": 3329,
      "Ġbagp": 3330,
      "Ġgrand": 3331,
      "Ġhugs": 3332,
      "Ġnewly": 3333,
      "Ġpieces": 3334,
      "brary": 3335,
      "Ġamid": 3336,
      "Ġboxing": 3337,
      "Ġturning": 3338,
      "Ġcrafts": 3339,
      "Ġapartment": 3340,
      "ference": 3341,
      "Ġblows": 3342,
      "Ġflipping": 3343,
      "Ġhotdo": 3344,
      "Ġscenery": 3345,
      "Ġpitch": 3346,
      "Ġitem": 3347,
      "Ġbowls": 3348,
      "Ġtattoos": 3349,
      "Ġfunny": 3350,
      "ency": 3351,
      "Ġmedical": 3352,
      "ethnic": 3353,
      "Ġcrouching": 3354,
      "Ġburg": 3355,
      "Ġcheerleaders": 3356,
      "Ġgreat": 3357,
      "Ġsmokes": 3358,
      "Ġinspecting": 3359,
      "Ġmoment": 3360,
      "Ġactiv": 3361,
      "Ġstretching": 3362,
      "Ġbelt": 3363,
      "Ġcricket": 3364,
      "Ġreflective": 3365,
      "Ġstares": 3366,
      "Ġgrinding": 3367,
      "Ġmerch": 3368,
      "Ġchoir": 3369,
      "Ġvacuum": 3370,
      "Ġdefend": 3371,
      "Ġdreadlocks": 3372,
      "Ġstorefront": 3373,
      "Ġfirst": 3374,
      "Ġsleeveless": 3375,
      "Ġembra": 3376,
      "niture": 3377,
      "Sk": 3378,
      "pers": 3379,
      "top": 3380,
      "Ġethnic": 3381,
      "int": 3382,
      "Ġtied": 3383,
      "Ġbirthday": 3384,
      "reg": 3385,
      "ites": 3386,
      "Ġpri": 3387,
      "Ġcop": 3388,
      "Ġcalm": 3389,
      "Ġgot": 3390,
      "Ġderby": 3391,
      "iring": 3392,
      "Ġstom": 3393,
      "orm": 3394,
      "ider": 3395,
      "Ġdoors": 3396,
      "Ġreg": 3397,
      "Ġreach": 3398,
      "Ġlive": 3399,
      "Ġangel": 3400,
      "Ġname": 3401,
      "Ġchick": 3402,
      "Ġbass": 3403,
      "ilts": 3404,
      "ook": 3405,
      "asium": 3406,
      "Ġbund": 3407,
      "Ġbacks": 3408,
      "Ġbroken": 3409,
      "Ġlet": 3410,
      "rents": 3411,
      "Ġviewing": 3412,
      "ians": 3413,
      "Ġcong": 3414,
      "Ġconference": 3415,
      "Ġsofa": 3416,
      "Ġsco": 3417,
      "tending": 3418,
      "Ġunicycle": 3419,
      "Ġcomm": 3420,
      "Ġcomfor": 3421,
      "eath": 3422,
      "Ġcompan": 3423,
      "Ġchee": 3424,
      "Ġbalding": 3425,
      "Ġfluffy": 3426,
      "Ġspeed": 3427,
      "Ġdec": 3428,
      "Ġdead": 3429,
      "Ġobjects": 3430,
      "Ġlibrary": 3431,
      "Ġmaterial": 3432,
      "Ġnighttime": 3433,
      "Ġbatter": 3434,
      "Ġstairway": 3435,
      "acting": 3436,
      "Ġsurrounding": 3437,
      "ĠMo": 3438,
      "izza": 3439,
      "Ġcrew": 3440,
      "Ġcorn": 3441,
      "Ġwheels": 3442,
      "colo": 3443,
      "Ġrainy": 3444,
      "Ġcomputers": 3445,
      "Ġlistens": 3446,
      "ĠJo": 3447,
      "born": 3448,
      "ctory": 3449,
      "Ġcuts": 3450,
      "Ġbanner": 3451,
      "Ġexplo": 3452,
      "Ġgymnasium": 3453,
      "Ġspraying": 3454,
      "Ġpartially": 3455,
      "Ġmember": 3456,
      "Ġraises": 3457,
      "Ġintently": 3458,
      "Ġcandles": 3459,
      "Ġcrane": 3460,
      "Ġbalances": 3461,
      "Ġfollowing": 3462,
      "Ġdiscussing": 3463,
      "Ġgreyhound": 3464,
      "Ġfurniture": 3465,
      "Ġfinish": 3466,
      "Stud": 3467,
      "Ġapproaching": 3468,
      "Ġmoped": 3469,
      "tails": 3470,
      "Ġsimilar": 3471,
      "urope": 3472,
      "Ġpigeons": 3473,
      "Ġmotorbike": 3474,
      "Ġdemonstr": 3475,
      "Ġdimly": 3476,
      "flops": 3477,
      "'t": 3478,
      "Do": 3479,
      "clo": 3480,
      "cul": 3481,
      "da": 3482,
      "dles": 3483,
      "ef": 3484,
      "ues": 3485,
      "Ġic": 3486,
      "ĠMan": 3487,
      "inis": 3488,
      "Ġsad": 3489,
      "Ġweat": 3490,
      "Ġtick": 3491,
      "Ġbun": 3492,
      "Ġbul": 3493,
      "Ġbino": 3494,
      "Ġpop": 3495,
      "Ġpapers": 3496,
      "iss": 3497,
      "Ġtheater": 3498,
      "Ġduck": 3499,
      "Ġfet": 3500,
      "Ġstyle": 3501,
      "orts": 3502,
      "Ġshare": 3503,
      "Ġshaped": 3504,
      "ict": 3505,
      "Ġlick": 3506,
      "stone": 3507,
      "urity": 3508,
      "Ġhoops": 3509,
      "eling": 3510,
      "usting": 3511,
      "Ġgroups": 3512,
      "Ġheav": 3513,
      "ctors": 3514,
      "Ġcarry": 3515,
      "Ġforward": 3516,
      "town": 3517,
      "Ġlear": 3518,
      "Ġorgan": 3519,
      "Ġspace": 3520,
      "Ġspoon": 3521,
      "Ġsmaller": 3522,
      "boarder": 3523,
      "ĠAr": 3524,
      "rucks": 3525,
      "Ġmore": 3526,
      "Ġmobile": 3527,
      "ways": 3528,
      "Ġclut": 3529,
      "Ġbeneath": 3530,
      "Ġpret": 3531,
      "Ġhorn": 3532,
      "Ġcatcher": 3533,
      "Ġphotos": 3534,
      "Ġbarber": 3535,
      "Ġslight": 3536,
      "Ġtraining": 3537,
      "Ġcrosses": 3538,
      "Ġflowered": 3539,
      "Ġfireman": 3540,
      "Ġhang": 3541,
      "Ġpush": 3542,
      "Ġturns": 3543,
      "Ġshaved": 3544,
      "Ġrainbow": 3545,
      "Ġhits": 3546,
      "Ġofficial": 3547,
      "Ġtrailer": 3548,
      "Ġnets": 3549,
      "Ġshovels": 3550,
      "Ġpaddle": 3551,
      "borne": 3552,
      "Ġplates": 3553,
      "Ġwrestle": 3554,
      "Girls": 3555,
      "Ġmult": 3556,
      "Ġexper": 3557,
      "Ġ20": 3558,
      "Ġamongst": 3559,
      "Ġobserving": 3560,
      "Ġraising": 3561,
      "Ġshades": 3562,
      "Ġparticipate": 3563,
      "Ġadvertising": 3564,
      "Ġfollows": 3565,
      "Ġstarting": 3566,
      "Ġmodern": 3567,
      "Ġengaged": 3568,
      "Ġdirections": 3569,
      "While": 3570,
      "Ġcollege": 3571,
      "Ġretur": 3572,
      "Ġlounging": 3573,
      "Ġtelevision": 3574,
      "Ġbranch": 3575,
      "Ġsecurity": 3576,
      "Ġcastle": 3577,
      "Ġteammate": 3578,
      "Ġliquid": 3579,
      "Ġnecklace": 3580,
      "Ġribbon": 3581,
      "Ġjewelry": 3582,
      "Ġelephant": 3583,
      "Ġelectronic": 3584,
      "Ġcalled": 3585,
      "Ġtaxi": 3586,
      "Ġvillage": 3587,
      "ĠBMX": 3588,
      "Ġbillboard": 3589,
      "umerous": 3590,
      "Ġstomach": 3591,
      "Run": 3592,
      "barrow": 3593,
      "cade": 3594,
      "hus": 3595,
      "lish": 3596,
      "min": 3597,
      "no": 3598,
      "ored": 3599,
      "Ġais": 3600,
      "inger": 3601,
      "Ġsem": 3602,
      "Ġwig": 3603,
      "Ġwading": 3604,
      "Ġinte": 3605,
      "itt": 3606,
      "itors": 3607,
      "Ġpress": 3608,
      "Ġmini": 3609,
      "erleaders": 3610,
      "Ġcree": 3611,
      "arves": 3612,
      "Ġgri": 3613,
      "Ġgift": 3614,
      "late": 3615,
      "ately": 3616,
      "long": 3617,
      "eter": 3618,
      "oned": 3619,
      "Ġwhil": 3620,
      "Ġdough": 3621,
      "wood": 3622,
      "ices": 3623,
      "Ġrem": 3624,
      "Ġremo": 3625,
      "Ġang": 3626,
      "Ġnail": 3627,
      "Ġnature": 3628,
      "Ġnaked": 3629,
      "Ġloading": 3630,
      "Ġhouses": 3631,
      "Ġchara": 3632,
      "ello": 3633,
      "Ġdowntown": 3634,
      "Ġpoor": 3635,
      "Ġbystand": 3636,
      "Ġupon": 3637,
      "Ġraces": 3638,
      "Ġsne": 3639,
      "Ġleads": 3640,
      "Ġbiking": 3641,
      "Ġsnowsh": 3642,
      "Ġsnowsuit": 3643,
      "ures": 3644,
      "Ġtee": 3645,
      "Ġtech": 3646,
      "Ġseas": 3647,
      "Ġcamel": 3648,
      "Ġairborne": 3649,
      "Ġgown": 3650,
      "Ġfake": 3651,
      "Ġcameras": 3652,
      "Ġshops": 3653,
      "Ġtents": 3654,
      "Ġfisherman": 3655,
      "Ġcape": 3656,
      "Ġcaps": 3657,
      "Ġapple": 3658,
      "Ġdesc": 3659,
      "Ġnewborn": 3660,
      "Ġmachines": 3661,
      "izing": 3662,
      "Ġtricycle": 3663,
      "Ġwheelbarrow": 3664,
      "coat": 3665,
      "Ġcras": 3666,
      "Ġcray": 3667,
      "Ġshakes": 3668,
      "Ġlifting": 3669,
      "Ġjob": 3670,
      "sely": 3671,
      "appy": 3672,
      "Ġpeering": 3673,
      "Ġsilly": 3674,
      "avig": 3675,
      "Ġglove": 3676,
      "Ġemploy": 3677,
      "Ġstraight": 3678,
      "Ġpottery": 3679,
      "ĠLond": 3680,
      "Ġcloseup": 3681,
      "Ġquick": 3682,
      "Ġsplashes": 3683,
      "Ġtrunk": 3684,
      "Ġguns": 3685,
      "Ġchefs": 3686,
      "Ġinteracting": 3687,
      "Ġtourists": 3688,
      "Ġrepairs": 3689,
      "Ġsteel": 3690,
      "Ġengine": 3691,
      "Ġcasual": 3692,
      "sleeve": 3693,
      "ĠUS": 3694,
      "Ġpassenger": 3695,
      "Ġreceiving": 3696,
      "Ġsprinkler": 3697,
      "Ġiron": 3698,
      "Ġdonkey": 3699,
      "Ġtarget": 3700,
      "Ġredheaded": 3701,
      "Ġadmiring": 3702,
      "Ġbleacher": 3703,
      "Ġphotographed": 3704,
      "Ġweaving": 3705,
      "Cheerleaders": 3706,
      "Ġcobblestone": 3707,
      "Ġscream": 3708,
      "Ġterrain": 3709,
      "Ġballerina": 3710,
      "Ġprotesting": 3711,
      "Ġcongreg": 3712,
      "colored": 3713,
      "culars": 3714,
      "Ġbinoculars": 3715,
      "Ġslightly": 3716,
      "husi": 3717,
      "Ġaisle": 3718,
      "Ġwhilst": 3719,
      "Ġcharact": 3720,
      "Ġsnowsho": 3721,
      "ĠLondon": 3722,
      "Fire": 3723,
      "Mult": 3724,
      "ared": 3725,
      "bby": 3726,
      "can": 3727,
      "dan": 3728,
      "ded": 3729,
      "eg": 3730,
      "eu": 3731,
      "gu": 3732,
      "ked": 3733,
      "lley": 3734,
      "mony": 3735,
      "nam": 3736,
      "oy": 3737,
      "ocal": 3738,
      "tain": 3739,
      "ually": 3740,
      "vie": 3741,
      "view": 3742,
      "xy": 3743,
      "ze": 3744,
      "zen": 3745,
      "Ġ'": 3746,
      "Ġ6": 3747,
      "Ġump": 3748,
      "Ġaw": 3749,
      "Ġwings": 3750,
      "Ġtom": 3751,
      "Ġtor": 3752,
      "Ġoven": 3753,
      "Ġbin": 3754,
      "Ġinstru": 3755,
      "Ġpr": 3756,
      "Ġpizza": 3757,
      "Ġmis": 3758,
      "Ġmay": 3759,
      "Ġmitt": 3760,
      "Ġdusk": 3761,
      "Ġsty": 3762,
      "orting": 3763,
      "onal": 3764,
      "Ġshining": 3765,
      "Ġdot": 3766,
      "Ġbound": 3767,
      "Ġrick": 3768,
      "style": 3769,
      "urf": 3770,
      "urs": 3771,
      "Ġnavig": 3772,
      "Ġjet": 3773,
      "Ġloom": 3774,
      "ument": 3775,
      "ots": 3776,
      "illed": 3777,
      "iment": 3778,
      "Ġwaterway": 3779,
      "box": 3780,
      "aps": 3781,
      "Ġsniff": 3782,
      "Ġlead": 3783,
      "Ġleot": 3784,
      "Ġlecture": 3785,
      "Ġorder": 3786,
      "Ġoverhead": 3787,
      "Ġhandle": 3788,
      "Ġsol": 3789,
      "Ġsocial": 3790,
      "ĠAmer": 3791,
      "Ġtex": 3792,
      "Ġteaching": 3793,
      "Ġscru": 3794,
      "Ġscout": 3795,
      "Ġfactory": 3796,
      "shaw": 3797,
      "undy": 3798,
      "Ġcome": 3799,
      "Ġdrill": 3800,
      "ude": 3801,
      "ific": 3802,
      "Ġswimmers": 3803,
      "Ġchecks": 3804,
      "Ġflute": 3805,
      "Ġattention": 3806,
      "Ġdebr": 3807,
      "Ġbarrier": 3808,
      "ĠShe": 3809,
      "Ġsailing": 3810,
      "Ġhug": 3811,
      "ĠMc": 3812,
      "izon": 3813,
      "weight": 3814,
      "Ġpraying": 3815,
      "Ġconverse": 3816,
      "Ġstudying": 3817,
      "Ġcontest": 3818,
      "Ġpatch": 3819,
      "Ġcups": 3820,
      "Ġflips": 3821,
      "Ġentering": 3822,
      "Ġenthusi": 3823,
      "Ġbutter": 3824,
      "ĠEurope": 3825,
      "Ġlanding": 3826,
      "Ġbreakdan": 3827,
      "Ġexpress": 3828,
      "Ġtropical": 3829,
      "Ġtower": 3830,
      "Ġobserves": 3831,
      "Ġlaptops": 3832,
      "Ġexamines": 3833,
      "Ġtires": 3834,
      "Ġwaterfront": 3835,
      "Ġcustomer": 3836,
      "Ġgroceries": 3837,
      "Ġfeather": 3838,
      "Ġspotted": 3839,
      "Ġmessy": 3840,
      "Ġconsisting": 3841,
      "Ġlounge": 3842,
      "Ġportra": 3843,
      "Ġadjust": 3844,
      "Ġcoaster": 3845,
      "Ġfirefighters": 3846,
      "Ġmeeting": 3847,
      "Ġeggs": 3848,
      "Ġceremony": 3849,
      "Ġgestures": 3850,
      "Soccer": 3851,
      "Ġbrowsing": 3852,
      "Ġchainsaw": 3853,
      "Ġtransport": 3854,
      "Ġburgundy": 3855,
      "Ġcommun": 3856,
      "Students": 3857,
      "Ġpretty": 3858,
      "Ġsneakers": 3859,
      "Ġbleachers": 3860,
      "Multiple": 3861,
      "Ġrickshaw": 3862,
      "Ġdebris": 3863,
      "American": 3864,
      "Fem": 3865,
      "It": 3866,
      "bal": 3867,
      "bies": 3868,
      "eled": 3869,
      "fire": 3870,
      "gy": 3871,
      "girl": 3872,
      "hand": 3873,
      "ham": 3874,
      "hill": 3875,
      "ky": 3876,
      "kin": 3877,
      "kis": 3878,
      "lue": 3879,
      "lies": 3880,
      "mark": 3881,
      "of": 3882,
      "py": 3883,
      "tub": 3884,
      "ule": 3885,
      "ucking": 3886,
      "val": 3887,
      "vil": 3888,
      "wor": 3889,
      "Ġif": 3890,
      "Ġaim": 3891,
      "Ġsen": 3892,
      "Ġsized": 3893,
      "Ġsides": 3894,
      "Ġtug": 3895,
      "Ġocc": 3896,
      "anad": 3897,
      "Ġbite": 3898,
      "rent": 3899,
      "Ġinj": 3900,
      "ities": 3901,
      "Ġpow": 3902,
      "Ġpood": 3903,
      "Ġmow": 3904,
      "Ġcall": 3905,
      "Ġcrown": 3906,
      "leas": 3907,
      "robat": 3908,
      "arn": 3909,
      "arter": 3910,
      "Ġgive": 3911,
      "Ġgames": 3912,
      "enting": 3913,
      "Ġstrange": 3914,
      "cked": 3915,
      "andise": 3916,
      "rail": 3917,
      "Ġplaces": 3918,
      "Ġattend": 3919,
      "Ġattending": 3920,
      "Ġyog": 3921,
      "Ġrel": 3922,
      "Ġrecl": 3923,
      "Ġlar": 3924,
      "Ġru": 3925,
      "Ġbamb": 3926,
      "umin": 3927,
      "Ġblur": 3928,
      "Ġbeen": 3929,
      "Ġeight": 3930,
      "imate": 3931,
      "Ġlacross": 3932,
      "Ġtape": 3933,
      "ults": 3934,
      "Ġwaterme": 3935,
      "Ġcarts": 3936,
      "Ġbackd": 3937,
      "Ġworld": 3938,
      "Ġbrother": 3939,
      "Ġord": 3940,
      "Ġoverweight": 3941,
      "Ġmass": 3942,
      "Ġhanding": 3943,
      "Ġteal": 3944,
      "Ġwares": 3945,
      "Ġsele": 3946,
      "Ġseco": 3947,
      "Ġscra": 3948,
      "Ġscore": 3949,
      "Ġscience": 3950,
      "Ġmovie": 3951,
      "ipping": 3952,
      "Ġperformers": 3953,
      "Ġcomes": 3954,
      "Ġheading": 3955,
      "Ġheaddress": 3956,
      "Ġaccom": 3957,
      "Ġbricks": 3958,
      "Ġbrief": 3959,
      "Ġadv": 3960,
      "quo": 3961,
      "olice": 3962,
      "Ġchess": 3963,
      "Ġpurch": 3964,
      "Ġsuitcase": 3965,
      "Ġhorizon": 3966,
      "Ġattra": 3967,
      "Ġfiremen": 3968,
      "Ġdesce": 3969,
      "Ġpaperwork": 3970,
      "brush": 3971,
      "Ġknees": 3972,
      "Ġwheelie": 3973,
      "Ġdraw": 3974,
      "Ġcraft": 3975,
      "Ġfilling": 3976,
      "Ġlisten": 3977,
      "Ġforehead": 3978,
      "Ġstops": 3979,
      "Ġhotel": 3980,
      "Ġvendors": 3981,
      "Boys": 3982,
      "Ġnewspapers": 3983,
      "Ġwrestler": 3984,
      "Ġblankets": 3985,
      "Ġbanan": 3986,
      "Ġbanjo": 3987,
      "Ġcolla": 3988,
      "Ġalleyway": 3989,
      "Ġknife": 3990,
      "Ġcountryside": 3991,
      "Ġmonument": 3992,
      "Ġclad": 3993,
      "Ġclapping": 3994,
      "Ġscooters": 3995,
      "bbing": 3996,
      "Ġtrolley": 3997,
      "Ġkayaks": 3998,
      "Ġsweeps": 3999,
      "Ġwrap": 4000,
      "Ġpaddles": 4001,
      "Ġgymnastics": 4002,
      "ably": 4003,
      "Ġtourist": 4004,
      "Ġcomplete": 4005,
      "Ġinspects": 4006,
      "Ġtackle": 4007,
      "Ġvisiting": 4008,
      "Ġtouches": 4009,
      "Ġscaffold": 4010,
      "Street": 4011,
      "Ġwires": 4012,
      "Ġbeverages": 4013,
      "Ġtelephone": 4014,
      "Ġboulder": 4015,
      "Ġpillows": 4016,
      "Ġshadows": 4017,
      "Ġpigtails": 4018,
      "Ġtossing": 4019,
      "Ġjuice": 4020,
      "Ġexercise": 4021,
      "ĠCaucasian": 4022,
      "Ġapplying": 4023,
      "ilot": 4024,
      "Ġexhibit": 4025,
      "Ġbeanie": 4026,
      "Ġemergency": 4027,
      "Ġbagpipes": 4028,
      "Ġmerchandise": 4029,
      "Ġchicken": 4030,
      "ĠJoh": 4031,
      "Ġ201": 4032,
      "Ġsemi": 4033,
      "Ġbystanders": 4034,
      "Ġumpire": 4035,
      "Ġawa": 4036,
      "Ġyoga": 4037,
      "Ġbamboo": 4038,
      "Ġlacrosse": 4039,
      "Ġwatermelo": 4040,
      "Ad": 4041,
      "African": 4042,
      "Donal": 4043,
      "Mus": 4044,
      "Pla": 4045,
      "Spe": 4046,
      "Tour": 4047,
      "Teen": 4048,
      "act": 4049,
      "bed": 4050,
      "bag": 4051,
      "con": 4052,
      "cra": 4053,
      "ees": 4054,
      "fo": 4055,
      "ker": 4056,
      "my": 4057,
      "ments": 4058,
      "mmed": 4059,
      "ockey": 4060,
      "pids": 4061,
      "sia": 4062,
      "zing": 4063,
      "Ġel": 4064,
      "Ġill": 4065,
      "Ġav": 4066,
      "Ġax": 4067,
      "iner": 4068,
      "Ġsla": 4069,
      "Ġtem": 4070,
      "Ġtights": 4071,
      "Ġtiny": 4072,
      "Ġbiting": 4073,
      "Ġinform": 4074,
      "Ġpir": 4075,
      "Ġpun": 4076,
      "Ġpower": 4077,
      "Ġmur": 4078,
      "Ġmug": 4079,
      "Ġmower": 4080,
      "Ġcans": 4081,
      "Ġcase": 4082,
      "Ġcello": 4083,
      "ising": 4084,
      "romat": 4085,
      "arts": 4086,
      "Ġhom": 4087,
      "Ġhut": 4088,
      "Ġdad": 4089,
      "Ġdives": 4090,
      "Ġfit": 4091,
      "Ġfle": 4092,
      "ened": 4093,
      "Ġstr": 4094,
      "Ġstir": 4095,
      "Ġstill": 4096,
      "Ġtouch": 4097,
      "Ġwhis": 4098,
      "oping": 4099,
      "earded": 4100,
      "Ġplacing": 4101,
      "Ġplaced": 4102,
      "Ġyarn": 4103,
      "Ġplayfully": 4104,
      "Ġlink": 4105,
      "ersby": 4106,
      "Ġrange": 4107,
      "Ġrice": 4108,
      "Ġrif": 4109,
      "Ġrust": 4110,
      "Ġjud": 4111,
      "Ġlogs": 4112,
      "Ġchristmas": 4113,
      "Ġchatting": 4114,
      "Ġcovers": 4115,
      "Ġblind": 4116,
      "Ġbelong": 4117,
      "Ġwatched": 4118,
      "ama": 4119,
      "rie": 4120,
      "Ġrod": 4121,
      "Ġpocket": 4122,
      "Ġrapids": 4123,
      "Ġskin": 4124,
      "Ġskaters": 4125,
      "Ġbron": 4126,
      "Ġval": 4127,
      "Ġorang": 4128,
      "Ġtray": 4129,
      "Ġfolded": 4130,
      "Ġconstru": 4131,
      "Ġhandrail": 4132,
      "Ġsoap": 4133,
      "Ġsoda": 4134,
      "Ġclosely": 4135,
      "Ġtea": 4136,
      "Ġwake": 4137,
      "Ġsep": 4138,
      "Ġcamping": 4139,
      "Ġarcade": 4140,
      "Ġfac": 4141,
      "Ġsunlight": 4142,
      "Ġunus": 4143,
      "Ġheaded": 4144,
      "Ġshorel": 4145,
      "Ġbush": 4146,
      "Ġacc": 4147,
      "Ġacrobat": 4148,
      "Ġador": 4149,
      "Ġprocess": 4150,
      "Ġfloats": 4151,
      "Ġballet": 4152,
      "Ġspeak": 4153,
      "ĠCon": 4154,
      "Ġmotorized": 4155,
      "Ġcrossed": 4156,
      "Ġtreat": 4157,
      "Ġflat": 4158,
      "Ġmotorcyclists": 4159,
      "Ġsaw": 4160,
      "Ġopens": 4161,
      "Ġhighway": 4162,
      "Ġlighted": 4163,
      "ĠMar": 4164,
      "Ġmeas": 4165,
      "Ġgathers": 4166,
      "Ġturquo": 4167,
      "Ġlifts": 4168,
      "Ġlifted": 4169,
      "Ġjoy": 4170,
      "Ġelev": 4171,
      "Ġweap": 4172,
      "Ġskiers": 4173,
      "Ġcontra": 4174,
      "ĠChina": 4175,
      "Ġcowboys": 4176,
      "Ġpicks": 4177,
      "Ġmasc": 4178,
      "Ġhomeless": 4179,
      "Ġfalls": 4180,
      "Ġauditor": 4181,
      "bank": 4182,
      "Ġserves": 4183,
      "Ġpractices": 4184,
      "Ġpotato": 4185,
      "Ġbank": 4186,
      "Ġathletes": 4187,
      "Ġformation": 4188,
      "Ġkno": 4189,
      "Ġquarter": 4190,
      "Ġnoteb": 4191,
      "Ġmedium": 4192,
      "Ġimp": 4193,
      "Ġcelebration": 4194,
      "Ġrepairing": 4195,
      "Ġassem": 4196,
      "Ġassist": 4197,
      "Ġlaundromat": 4198,
      "Ġtackling": 4199,
      "Ġkhakis": 4200,
      "Ġvisible": 4201,
      "resting": 4202,
      "Ġpuppies": 4203,
      "Ġswimsuits": 4204,
      "Ġsuspenders": 4205,
      "Ġunderwear": 4206,
      "Ġmagazines": 4207,
      "Ġretrie": 4208,
      "Ġreflection": 4209,
      "Ġtraveling": 4210,
      "Ġchalkboard": 4211,
      "Ġdusty": 4212,
      "Ġadjusting": 4213,
      "where": 4214,
      "wheel": 4215,
      "Ġdiver": 4216,
      "Ġfarmer": 4217,
      "Ġplanting": 4218,
      "Ġfirefighter": 4219,
      "Ġrollerskating": 4220,
      "Ġsupplies": 4221,
      "Ġinvolved": 4222,
      "Ġparachute": 4223,
      "Ġponytail": 4224,
      "Ġrollerblading": 4225,
      "Ġcarefully": 4226,
      "Ġlocation": 4227,
      "Ġthumbs": 4228,
      "Ġtux": 4229,
      "Ġfocused": 4230,
      "Ġpatterned": 4231,
      "Ġsalon": 4232,
      "Ġsurgery": 4233,
      "Ġlanter": 4234,
      "Ġcheek": 4235,
      "Ġweather": 4236,
      "Ġlearning": 4237,
      "Ġmultiple": 4238,
      "Runners": 4239,
      "Ġcreek": 4240,
      "Ġdescent": 4241,
      "Ġscreaming": 4242,
      "Ġsnowshoes": 4243,
      "Ġtomato": 4244,
      "ĠMcDonal": 4245,
      "Female": 4246,
      "Ġlarger": 4247,
      "Ġbackdrop": 4248,
      "Ġsecond": 4249,
      "Ġaccompan": 4250,
      "Ġ2012": 4251,
      "Ġshoreline": 4252,
      "Ġturquoise": 4253,
      "Ġauditorium": 4254,
      "00": 4255,
      "Br": 4256,
      "Bearded": 4257,
      "Clo": 4258,
      "Indian": 4259,
      "Pro": 4260,
      "Ped": 4261,
      "Police": 4262,
      "ake": 4263,
      "gers": 4264,
      "ikes": 4265,
      "lined": 4266,
      "oller": 4267,
      "ula": 4268,
      "vas": 4269,
      "yd": 4270,
      "Ġ#": 4271,
      "Ġ&": 4272,
      "Ġut": 4273,
      "ĠAn": 4274,
      "Ġest": 4275,
      "Ġsque": 4276,
      "Ġwill": 4277,
      "Ġtut": 4278,
      "Ġtrucks": 4279,
      "Ġpill": 4280,
      "Ġpins": 4281,
      "Ġmy": 4282,
      "era": 4283,
      "Ġcage": 4284,
      "Ġge": 4285,
      "Ġgall": 4286,
      "Ġhun": 4287,
      "Ġhiding": 4288,
      "Ġhuddle": 4289,
      "Ġhyd": 4290,
      "Ġdone": 4291,
      "Ġdivers": 4292,
      "Ġfat": 4293,
      "Ġfed": 4294,
      "aling": 4295,
      "enue": 4296,
      "Ġmaneu": 4297,
      "Ġstall": 4298,
      "Ġstory": 4299,
      "Ġstilts": 4300,
      "ora": 4301,
      "orning": 4302,
      "Ġwhom": 4303,
      "Ġshape": 4304,
      "opter": 4305,
      "ray": 4306,
      "icopter": 4307,
      "Ġplayed": 4308,
      "Ġlip": 4309,
      "Ġlighting": 4310,
      "chan": 4311,
      "Ġrally": 4312,
      "stro": 4313,
      "Ġlobby": 4314,
      "Ġchar": 4315,
      "Ġcooks": 4316,
      "oth": 4317,
      "Ġfrozen": 4318,
      "illy": 4319,
      "Ġthan": 4320,
      "amed": 4321,
      "Ġeastern": 4322,
      "vering": 4323,
      "Ġtail": 4324,
      "boy": 4325,
      "aint": 4326,
      "Ġupward": 4327,
      "Ġrad": 4328,
      "Ġracers": 4329,
      "Ġrafting": 4330,
      "seup": 4331,
      "Ġbuff": 4332,
      "Ġskater": 4333,
      "Ġlean": 4334,
      "Ġlegging": 4335,
      "Ġlens": 4336,
      "Ġsideways": 4337,
      "Ġvict": 4338,
      "Ġvenue": 4339,
      "igning": 4340,
      "ĠAsia": 4341,
      "Ġsection": 4342,
      "Ġscarves": 4343,
      "Ġgoat": 4344,
      "Ġblood": 4345,
      "Ġworkout": 4346,
      "ney": 4347,
      "Ġunlo": 4348,
      "Ġcameram": 4349,
      "Ġwalked": 4350,
      "quare": 4351,
      "Ġroadside": 4352,
      "Ġcheese": 4353,
      "Ġcouples": 4354,
      "Ġsingle": 4355,
      "agull": 4356,
      "Ġtribal": 4357,
      "Ġmotion": 4358,
      "Ġspecial": 4359,
      "ĠCanad": 4360,
      "ĠSquare": 4361,
      "Ġshepherd": 4362,
      "Ġcable": 4363,
      "Ġmarch": 4364,
      "Ġtread": 4365,
      "Ġpassersby": 4366,
      "Ġcann": 4367,
      "Ġcanvas": 4368,
      "ftop": 4369,
      "Ġhighchair": 4370,
      "Ġnews": 4371,
      "Ġboards": 4372,
      "Ġeven": 4373,
      "Ġartwork": 4374,
      "Ġstepping": 4375,
      "ize": 4376,
      "Ġcreating": 4377,
      "Ġhike": 4378,
      "Ġturned": 4379,
      "Ġtoddlers": 4380,
      "Ġapart": 4381,
      "iously": 4382,
      "Ġpatron": 4383,
      "ĠTV": 4384,
      "Ġnumbers": 4385,
      "Ġworkshop": 4386,
      "Ġdisplaying": 4387,
      "Ġdisplays": 4388,
      "Ġbutcher": 4389,
      "Ġearphones": 4390,
      "Ġwasher": 4391,
      "Ġwashes": 4392,
      "Ġrooftop": 4393,
      "Ġserve": 4394,
      "Ġcute": 4395,
      "Ġpots": 4396,
      "ĠEl": 4397,
      "Ġmonitor": 4398,
      "Ġrows": 4399,
      "encil": 4400,
      "Ġkayaking": 4401,
      "Ġincline": 4402,
      "Ġproducts": 4403,
      "Ġcrouched": 4404,
      "Ġcards": 4405,
      "Ġdecorative": 4406,
      "Ġburning": 4407,
      "Ġcandle": 4408,
      "Ġinterview": 4409,
      "Ġcelebrate": 4410,
      "Ġharves": 4411,
      "Ġtrashcan": 4412,
      "Ġfurry": 4413,
      "estrian": 4414,
      "Ġprinted": 4415,
      "Ġcasually": 4416,
      "Ġapproaches": 4417,
      "Ġsprayed": 4418,
      "Ġbelts": 4419,
      "Ġgaze": 4420,
      "Ġgazes": 4421,
      "Ġtwirl": 4422,
      "Ġbouquet": 4423,
      "Ġbranches": 4424,
      "tenance": 4425,
      "Ġjuggles": 4426,
      "Ġinvolving": 4427,
      "Ġchopping": 4428,
      "Ġdriveway": 4429,
      "Ġtripod": 4430,
      "Ġsyn": 4431,
      "ĠOlympics": 4432,
      "Ġdepartment": 4433,
      "Ġsilhouette": 4434,
      "Ġfinishing": 4435,
      "Coup": 4436,
      "Ġautumn": 4437,
      "Ġblazer": 4438,
      "sticks": 4439,
      "Ġamidst": 4440,
      "Ġhotdog": 4441,
      "Ġactivity": 4442,
      "Ġembracing": 4443,
      "Ġticket": 4444,
      "Ġexperiment": 4445,
      "Ġinteresting": 4446,
      "Ġtechn": 4447,
      "Ġquickly": 4448,
      "Ġleotard": 4449,
      "Ġenthusiast": 4450,
      "Ġbutterf": 4451,
      "Ġportrait": 4452,
      "Ġtransportation": 4453,
      "Ġinjured": 4454,
      "Ġcollared": 4455,
      "ĠJohn": 4456,
      "Music": 4457,
      "Spectators": 4458,
      "Ġvalley": 4459,
      "Ġoranges": 4460,
      "Ġfacility": 4461,
      "Ġcontraption": 4462,
      "Ġquarterback": 4463,
      "Closeup": 4464,
      "Pedestrians": 4465,
      "Ġgallery": 4466,
      "Ġleggings": 4467,
      "Ba": 4468,
      "Band": 4469,
      "Bic": 4470,
      "Eight": 4471,
      "Lots": 4472,
      "Ph": 4473,
      "Var": 4474,
      "ailing": 4475,
      "bre": 4476,
      "count": 4477,
      "cular": 4478,
      "friend": 4479,
      "hat": 4480,
      "hite": 4481,
      "happy": 4482,
      "iage": 4483,
      "noon": 4484,
      "ost": 4485,
      "pit": 4486,
      "pie": 4487,
      "ris": 4488,
      "rant": 4489,
      "tie": 4490,
      "vention": 4491,
      "vices": 4492,
      "wear": 4493,
      "Ġ9": 4494,
      "ĠThe": 4495,
      "Ġaband": 4496,
      "inet": 4497,
      "ination": 4498,
      "Ġsam": 4499,
      "Ġsym": 4500,
      "Ġsorting": 4501,
      "Ġtorch": 4502,
      "Ġtrench": 4503,
      "Ġovers": 4504,
      "annel": 4505,
      "Ġpay": 4506,
      "Ġpilot": 4507,
      "Ġpencil": 4508,
      "Ġmount": 4509,
      "Ġmorning": 4510,
      "Ġcher": 4511,
      "leading": 4512,
      "aris": 4513,
      "Ġgal": 4514,
      "Ġgla": 4515,
      "Ġgest": 4516,
      "Ġhind": 4517,
      "Ġharm": 4518,
      "Ġdom": 4519,
      "Ġdive": 4520,
      "Ġdest": 4521,
      "Ġducks": 4522,
      "Ġfell": 4523,
      "alt": 4524,
      "ata": 4525,
      "Ġstump": 4526,
      "Ġstaff": 4527,
      "orted": 4528,
      "Ġtooth": 4529,
      "Ġshiny": 4530,
      "Ġdol": 4531,
      "rous": 4532,
      "edo": 4533,
      "Ġrecor": 4534,
      "Ġreally": 4535,
      "chron": 4536,
      "wning": 4537,
      "Ġrings": 4538,
      "stri": 4539,
      "Ġhol": 4540,
      "Ġchin": 4541,
      "Ġchinese": 4542,
      "Ġcot": 4543,
      "Ġberet": 4544,
      "Ġbends": 4545,
      "Ġeas": 4546,
      "Ġevery": 4547,
      "Ġmenu": 4548,
      "ries": 4549,
      "right": 4550,
      "imes": 4551,
      "Ġlass": 4552,
      "Ġlate": 4553,
      "Ġlabor": 4554,
      "Ġsmoot": 4555,
      "lowing": 4556,
      "Ġtask": 4557,
      "Ġhere": 4558,
      "entr": 4559,
      "ashes": 4560,
      "Ġgradu": 4561,
      "Ġgrabs": 4562,
      "Ġgrabbing": 4563,
      "Ġkilt": 4564,
      "ief": 4565,
      "body": 4566,
      "Ġfork": 4567,
      "Ġbuilt": 4568,
      "Ġjumper": 4569,
      "Ġjumped": 4570,
      "Ġswe": 4571,
      "Ġspark": 4572,
      "Ġmaj": 4573,
      "Ġconf": 4574,
      "igious": 4575,
      "Ġtext": 4576,
      "Ġtending": 4577,
      "Ġwaist": 4578,
      "Ġsees": 4579,
      "Ġseagull": 4580,
      "phy": 4581,
      "Ġscient": 4582,
      "Ġpale": 4583,
      "Ġparents": 4584,
      "Ġarri": 4585,
      "Ġarrange": 4586,
      "Ġsunbat": 4587,
      "Ġunhappy": 4588,
      "Ġbicycling": 4589,
      "Ġguide": 4590,
      "antly": 4591,
      "Ġhelicopter": 4592,
      "ifier": 4593,
      "Ġunique": 4594,
      "umbling": 4595,
      "ational": 4596,
      "Ġpainter": 4597,
      "ager": 4598,
      "ague": 4599,
      "Ġspect": 4600,
      "ĠCity": 4601,
      "Ġsurfs": 4602,
      "Ġarmy": 4603,
      "Ġshel": 4604,
      "Ġcaucasian": 4605,
      "Ġfishes": 4606,
      "Ġflam": 4607,
      "Ġsawing": 4608,
      "Ġhills": 4609,
      "Ġcellphones": 4610,
      "Ġpathway": 4611,
      "ĠMex": 4612,
      "Ġalmo": 4613,
      "Ġmechan": 4614,
      "colate": 4615,
      "Ġturban": 4616,
      "Ġdragging": 4617,
      "Ġshawl": 4618,
      "Ġraincoat": 4619,
      "Ġpoint": 4620,
      "Ġafternoon": 4621,
      "Ġjogs": 4622,
      "Ġteens": 4623,
      "Ġweight": 4624,
      "bbles": 4625,
      "Ġconcentr": 4626,
      "Ġpeer": 4627,
      "Ġscenic": 4628,
      "Ġwrites": 4629,
      "Ġbedroom": 4630,
      "Ġpads": 4631,
      "Ġaprons": 4632,
      "ĠHaw": 4633,
      "Ġindust": 4634,
      "ensive": 4635,
      "Ġdisplayed": 4636,
      "Ġcolum": 4637,
      "Ġquiet": 4638,
      "Ġpresenting": 4639,
      "Ġmonkey": 4640,
      "Ġfoliage": 4641,
      "Ġcheckers": 4642,
      "Ġbathtub": 4643,
      "Ġwaterski": 4644,
      "Ġimages": 4645,
      "Ġcircular": 4646,
      "Ġstoop": 4647,
      "Ġdecorations": 4648,
      "Ġcrates": 4649,
      "atory": 4650,
      "Ġtypes": 4651,
      "Ġoperates": 4652,
      "Ġbrass": 4653,
      "Ġbooths": 4654,
      "Ġfeaturing": 4655,
      "Ġcleaner": 4656,
      "cake": 4657,
      "Ġstacked": 4658,
      "Ġcontaining": 4659,
      "coming": 4660,
      "Ġpinata": 4661,
      "Ġbrushes": 4662,
      "Ġstrolls": 4663,
      "Ġtiled": 4664,
      "Ġgazing": 4665,
      "Ġdesigns": 4666,
      "exas": 4667,
      "Ġchocolate": 4668,
      "Ġbouncing": 4669,
      "Ġchopsticks": 4670,
      "ikers": 4671,
      "Ġrollerblades": 4672,
      "Ġdumpster": 4673,
      "Ġlocated": 4674,
      "Ġbegins": 4675,
      "Ġmuzzle": 4676,
      "Ġpattern": 4677,
      "Ġclouds": 4678,
      "Ġpumpkin": 4679,
      "Ġpeeking": 4680,
      "Ġsparring": 4681,
      "Ġparasailing": 4682,
      "Skate": 4683,
      "ĠMohawk": 4684,
      "Ġicy": 4685,
      "Ġbulld": 4686,
      "Ġheavily": 4687,
      "ĠArmy": 4688,
      "nament": 4689,
      "Ġsniffing": 4690,
      "Ġscouts": 4691,
      "Ġbreakdancing": 4692,
      "Ġadjusts": 4693,
      "Adults": 4694,
      "Play": 4695,
      "craft": 4696,
      "Ġillumin": 4697,
      "Ġrifle": 4698,
      "Ġbelongings": 4699,
      "Ġwakeboard": 4700,
      "Ġestab": 4701,
      "Ġsquee": 4702,
      "ĠCanadian": 4703,
      "Ġsynchron": 4704,
      "Couple": 4705,
      "Ġbutterfly": 4706,
      "Baby": 4707,
      "Ġcherry": 4708,
      "Ġgesturing": 4709,
      "Ġharmon": 4710,
      "Ġrecording": 4711,
      "striped": 4712,
      "Ġalmost": 4713,
      "Be": 4714,
      "Elderly": 4715,
      "Mother": 4716,
      "Middle": 4717,
      "Sh": 4718,
      "den": 4719,
      "green": 4720,
      "lights": 4721,
      "net": 4722,
      "oly": 4723,
      "po": 4724,
      "sized": 4725,
      "tor": 4726,
      "vi": 4727,
      "war": 4728,
      "zes": 4729,
      "Ġing": 4730,
      "Ġident": 4731,
      "Ġxy": 4732,
      "Ġsle": 4733,
      "Ġsat": 4734,
      "Ġsay": 4735,
      "Ġsigning": 4736,
      "Ġwo": 4737,
      "Ġtired": 4738,
      "Ġox": 4739,
      "Ġour": 4740,
      "Ġbit": 4741,
      "rehouse": 4742,
      "itive": 4743,
      "itiz": 4744,
      "Ġpy": 4745,
      "Ġpon": 4746,
      "Ġpunch": 4747,
      "Ġmuch": 4748,
      "Ġcash": 4749,
      "Ġcycling": 4750,
      "arium": 4751,
      "ndia": 4752,
      "Ġhad": 4753,
      "Ġhip": 4754,
      "Ġfer": 4755,
      "Ġfind": 4756,
      "labor": 4757,
      "attered": 4758,
      "ense": 4759,
      "Ġmanne": 4760,
      "oms": 4761,
      "Ġstuck": 4762,
      "esma": 4763,
      "Ġtoo": 4764,
      "Ġtoile": 4765,
      "onge": 4766,
      "Ġshield": 4767,
      "opoly": 4768,
      "Ġplain": 4769,
      "utes": 4770,
      "ution": 4771,
      "alling": 4772,
      "Ġyear": 4773,
      "Ġlion": 4774,
      "Ġlips": 4775,
      "Ġlively": 4776,
      "Ġanti": 4777,
      "sters": 4778,
      "Ġshirted": 4779,
      "Ġnumerous": 4780,
      "Ġhook": 4781,
      "Ġchis": 4782,
      "Ġbad": 4783,
      "Ġbabies": 4784,
      "ades": 4785,
      "lacks": 4786,
      "Ġhistor": 4787,
      "Ġbeca": 4788,
      "Ġbeads": 4789,
      "ils": 4790,
      "Ġelabor": 4791,
      "rial": 4792,
      "ooks": 4793,
      "Ġlabe": 4794,
      "They": 4795,
      "Ġtast": 4796,
      "Ġtags": 4797,
      "keys": 4798,
      "Ġgrab": 4799,
      "Ġkim": 4800,
      "Ġpours": 4801,
      "Ġfort": 4802,
      "Ġupset": 4803,
      "Ġasce": 4804,
      "Ġrabb": 4805,
      "apes": 4806,
      "apped": 4807,
      "Ġskies": 4808,
      "Ġskull": 4809,
      "Ġskills": 4810,
      "inder": 4811,
      "Ġvint": 4812,
      "Ġspins": 4813,
      "emade": 4814,
      "Ġconne": 4815,
      "igan": 4816,
      "iger": 4817,
      "Ġwarehouse": 4818,
      "Ġmohawk": 4819,
      "Ġarrow": 4820,
      "Ġcommer": 4821,
      "Ġmidst": 4822,
      "Ġjeep": 4823,
      "Ġchewing": 4824,
      "Ġunderground": 4825,
      "Ġpurses": 4826,
      "Ġprop": 4827,
      "Ġwaiter": 4828,
      "Ġflannel": 4829,
      "Ġshoppers": 4830,
      "Ġdarkened": 4831,
      "Ġdaytime": 4832,
      "Ġspeeding": 4833,
      "Ġspeaker": 4834,
      "Ġbartend": 4835,
      "ĠSpan": 4836,
      "Ġlooked": 4837,
      "Ġmarble": 4838,
      "Ġtrains": 4839,
      "Ġflash": 4840,
      "Ġdisc": 4841,
      "Ġshower": 4842,
      "Ġcanal": 4843,
      "Ġdeser": 4844,
      "Ġriot": 4845,
      "ĠMiddle": 4846,
      "Ġhardwood": 4847,
      "ĠBrit": 4848,
      "Ġamount": 4849,
      "Ġbridesma": 4850,
      "Ġclassic": 4851,
      "Ġturtle": 4852,
      "Ġdraped": 4853,
      "Ġdraws": 4854,
      "Ġcrawl": 4855,
      "Ġshaggy": 4856,
      "Ġfountains": 4857,
      "Ġcarrier": 4858,
      "Ġforested": 4859,
      "Ġdoesn": 4860,
      "Ġfilming": 4861,
      "ĠTe": 4862,
      "Ġstrolling": 4863,
      "ĠIs": 4864,
      "ĠIndia": 4865,
      "Ġpeers": 4866,
      "Ġskyd": 4867,
      "Ġkisses": 4868,
      "Ġvending": 4869,
      "Ġmasks": 4870,
      "ĠDJ": 4871,
      "Ġearring": 4872,
      "osaur": 4873,
      "Ġstrapped": 4874,
      "ĠHo": 4875,
      "Ġservice": 4876,
      "Ġvibr": 4877,
      "ĠEast": 4878,
      "Ġbanners": 4879,
      "Ġdirecting": 4880,
      "Ġdigital": 4881,
      "Ġsprays": 4882,
      "Ġhammo": 4883,
      "Ġsplashed": 4884,
      "Ġnotes": 4885,
      "Ġdiner": 4886,
      "Ġdinosaur": 4887,
      "alloween": 4888,
      "Ġproduct": 4889,
      "Ġclowns": 4890,
      "Ġcanoes": 4891,
      "Ġsledding": 4892,
      "Ġstocking": 4893,
      "Ġburied": 4894,
      "Ġcheerleading": 4895,
      "Ġbarefooted": 4896,
      "Ġgardening": 4897,
      "Ġprojector": 4898,
      "Ġfollowed": 4899,
      "Ġtournament": 4900,
      "Smiling": 4901,
      "Ġstringed": 4902,
      "Ġmixer": 4903,
      "Ġcomplex": 4904,
      "Ġpacked": 4905,
      "Ġpackage": 4906,
      "Ġprotect": 4907,
      "Ġnapping": 4908,
      "Ġtackled": 4909,
      "Ġspotlight": 4910,
      "ĠUn": 4911,
      "Ġstretches": 4912,
      "Ġtracksuit": 4913,
      "Ġhammering": 4914,
      "fighters": 4915,
      "panic": 4916,
      "Ġcries": 4917,
      "Ġfigures": 4918,
      "ĠATM": 4919,
      "Ġcampfire": 4920,
      "Ġsupport": 4921,
      "Ġteammates": 4922,
      "Ġextend": 4923,
      "iety": 4924,
      "Ġaqua": 4925,
      "Ġaquarium": 4926,
      "Ġsurgical": 4927,
      "ĠOlympic": 4928,
      "Ġmaintenance": 4929,
      "Ġnurses": 4930,
      "Ġloaded": 4931,
      "Ġsailboat": 4932,
      "Ġsilhouet": 4933,
      "Ġconductor": 4934,
      "aiian": 4935,
      "paved": 4936,
      "Ġhuman": 4937,
      "Ġdeli": 4938,
      "Ġbundle": 4939,
      "Ġcompany": 4940,
      "Ġcompanion": 4941,
      "Dogs": 4942,
      "cloth": 4943,
      "Ġcluttered": 4944,
      "lishment": 4945,
      "Ġcrashing": 4946,
      "Ġcrayons": 4947,
      "Ġnavigates": 4948,
      "ĠAmerica": 4949,
      "Ġscrubs": 4950,
      "ĠShepherd": 4951,
      "Ġcommunic": 4952,
      "Ġreligious": 4953,
      "Ġmurky": 4954,
      "Ġhomemade": 4955,
      "Ġjudges": 4956,
      "Ġskinny": 4957,
      "Ġunusual": 4958,
      "Ġaccident": 4959,
      "Ġnotebook": 4960,
      "Ġhydrant": 4961,
      "stroke": 4962,
      "Ġvictory": 4963,
      "Ġtreadm": 4964,
      "Ġcannon": 4965,
      "ĠElmo": 4966,
      "Photo": 4967,
      "Various": 4968,
      "Ġabandoned": 4969,
      "Ġdestination": 4970,
      "Ġtoothbrush": 4971,
      "Ġeasel": 4972,
      "Ġlasso": 4973,
      "Ġlaboratory": 4974,
      "ĠHawaiian": 4975,
      "Ġindustrial": 4976,
      "Ġcolumns": 4977,
      "Ġwaterskiing": 4978,
      "Skateboarder": 4979,
      "Ġestablishment": 4980,
      "Ġsqueezing": 4981,
      "Ġsynchronized": 4982,
      "Ġharmonica": 4983,
      "Ġxylo": 4984,
      "Ġmannequ": 4985,
      "Ġbecause": 4986,
      "Ġlabeled": 4987,
      "Ġvintage": 4988,
      "Ġcommercial": 4989,
      "Ġbartender": 4990,
      "ĠSpanish": 4991,
      "Ġhammock": 4992,
      "Ar": 4993,
      "Com": 4994,
      "Custom": 4995,
      "Dark": 4996,
      "He": 4997,
      "Hockey": 4998,
      "Local": 4999,
      "Mem": 5000,
      "Numerous": 5001,
      "Pa": 5002,
      "Red": 5003,
      "To": 5004,
      "Vend": 5005,
      "We": 5006,
      "Yellow": 5007,
      "bur": 5008,
      "cam": 5009,
      "cient": 5010,
      "dri": 5011,
      "eo": 5012,
      "ead": 5013,
      "food": 5014,
      "iam": 5015,
      "ients": 5016,
      "lim": 5017,
      "lines": 5018,
      "mming": 5019,
      "rat": 5020,
      "rid": 5021,
      "sting": 5022,
      "sping": 5023,
      "tal": 5024,
      "tting": 5025,
      "ters": 5026,
      "tress": 5027,
      "tured": 5028,
      "uble": 5029,
      "wed": 5030,
      "yed": 5031,
      "Ġid": 5032,
      "ĠTh": 5033,
      "Ġaward": 5034,
      "Ġsear": 5035,
      "Ġske": 5036,
      "Ġsip": 5037,
      "Ġslacks": 5038,
      "Ġwere": 5039,
      "Ġwash": 5040,
      "Ġtiger": 5041,
      "Ġoil": 5042,
      "ank": 5043,
      "Ġbump": 5044,
      "Ġbong": 5045,
      "Ġinst": 5046,
      "itten": 5047,
      "Ġpans": 5048,
      "Ġpops": 5049,
      "Ġmin": 5050,
      "Ġmes": 5051,
      "Ġcitiz": 5052,
      "lent": 5053,
      "ises": 5054,
      "nder": 5055,
      "Ġdam": 5056,
      "Ġdrying": 5057,
      "Ġdess": 5058,
      "Ġfile": 5059,
      "Ġfellow": 5060,
      "Ġfrying": 5061,
      "Ġfill": 5062,
      "Ġfuzz": 5063,
      "omo": 5064,
      "oming": 5065,
      "Ġstance": 5066,
      "ided": 5067,
      "Ġshing": 5068,
      "Ġshar": 5069,
      "Ġshack": 5070,
      "Ġdouble": 5071,
      "opy": 5072,
      "opes": 5073,
      "opard": 5074,
      "rab": 5075,
      "icle": 5076,
      "Ġreleas": 5077,
      "Ġlining": 5078,
      "Ġlush": 5079,
      "Ġany": 5080,
      "Ġrustic": 5081,
      "Ġnun": 5082,
      "Ġnamed": 5083,
      "Ġja": 5084,
      "Ġlock": 5085,
      "Ġchip": 5086,
      "Ġcock": 5087,
      "ume": 5088,
      "adow": 5089,
      "Ġbeers": 5090,
      "Ġbeating": 5091,
      "Ġthick": 5092,
      "usband": 5093,
      "uslim": 5094,
      "riers": 5095,
      "Ġdownhill": 5096,
      "Ġlaun": 5097,
      "Ġlaid": 5098,
      "ieval": 5099,
      "Ġupwards": 5100,
      "Ġrav": 5101,
      "seat": 5102,
      "Ġbackseat": 5103,
      "redients": 5104,
      "Ġskim": 5105,
      "Ġsnork": 5106,
      "Ġbroad": 5107,
      "bled": 5108,
      "Ġlevel": 5109,
      "Ġleague": 5110,
      "Ġleopard": 5111,
      "Ġsidelines": 5112,
      "Ġspring": 5113,
      "Ġsprin": 5114,
      "ements": 5115,
      "ngth": 5116,
      "Ġfog": 5117,
      "Ġfoggy": 5118,
      "Ġmail": 5119,
      "Ġsomewhere": 5120,
      "Ġseating": 5121,
      "Ġseven": 5122,
      "Ġparent": 5123,
      "Ġfields": 5124,
      "Ġtablecloth": 5125,
      "Ġcamps": 5126,
      "Ġcamels": 5127,
      "Ġmos": 5128,
      "Ġsunsh": 5129,
      "shaped": 5130,
      "Ġunf": 5131,
      "Ġclar": 5132,
      "Ġtopless": 5133,
      "udd": 5134,
      "Ġparalle": 5135,
      "Ġwoodland": 5136,
      "Ġacting": 5137,
      "gger": 5138,
      "pect": 5139,
      "Ġmountainous": 5140,
      "ĠAsians": 5141,
      "Ġflock": 5142,
      "ells": 5143,
      "Ġenvi": 5144,
      "Ġstriking": 5145,
      "Ġstripe": 5146,
      "Ġmuscular": 5147,
      "Ġcathed": 5148,
      "Ġattent": 5149,
      "Ġspeeds": 5150,
      "Ġstores": 5151,
      "Ġwinds": 5152,
      "ĠSoon": 5153,
      "Ġmouths": 5154,
      "Ġexiting": 5155,
      "mentary": 5156,
      "Ġcave": 5157,
      "Ġslic": 5158,
      "Ġmarsh": 5159,
      "Ġprepared": 5160,
      "Ġcrosscount": 5161,
      "Ġwhen": 5162,
      "Ġwheeled": 5163,
      "Ġages": 5164,
      "Ġaged": 5165,
      "Ġmarker": 5166,
      "Ġmarked": 5167,
      "Ġdesks": 5168,
      "Ġcolorfully": 5169,
      "Ġmattress": 5170,
      "ronment": 5171,
      "Ġbattle": 5172,
      "Ġbodysuit": 5173,
      "Ġkickbox": 5174,
      "ĠMuslim": 5175,
      "Ġartists": 5176,
      "Ġcreate": 5177,
      "Ġmeadow": 5178,
      "Ġboxer": 5179,
      "Ġdrawn": 5180,
      "Ġsnowboards": 5181,
      "Ġpointed": 5182,
      "Ġchased": 5183,
      "Ġladen": 5184,
      "Ġpeaks": 5185,
      "Ġskyline": 5186,
      "Ġsquats": 5187,
      "Ġpicket": 5188,
      "aseball": 5189,
      "Ġwrist": 5190,
      "ĠJack": 5191,
      "ĠJeng": 5192,
      "Ġstrugg": 5193,
      "Ġcigar": 5194,
      "Ġindian": 5195,
      "berry": 5196,
      "fetti": 5197,
      "Ġcigarettes": 5198,
      "Ġwrestlers": 5199,
      "Ġvariety": 5200,
      "Ġbarely": 5201,
      "ĠEastern": 5202,
      "ĠNY": 5203,
      "Ġcolumn": 5204,
      "Ġrailings": 5205,
      "ĠRed": 5206,
      "ĠRoller": 5207,
      "Ġresort": 5208,
      "Ġcollie": 5209,
      "Ġmonitors": 5210,
      "bbling": 5211,
      "Ġtrophy": 5212,
      "Ġtrotting": 5213,
      "almart": 5214,
      "ĠWalmart": 5215,
      "Ġdaily": 5216,
      "Ġvideot": 5217,
      "Ġexamine": 5218,
      "Ġcheerlead": 5219,
      "erness": 5220,
      "Worker": 5221,
      "Ġtyping": 5222,
      "ramid": 5223,
      "Ġadvertisements": 5224,
      "Ġharbor": 5225,
      "Ġsculptures": 5226,
      "Ġgreet": 5227,
      "Ġstarring": 5228,
      "Ġbrace": 5229,
      "Ġstrings": 5230,
      "Ġcompleting": 5231,
      "Ġcasting": 5232,
      "Ġcasino": 5233,
      "Ġrolls": 5234,
      "Ġlogo": 5235,
      "Ġvisor": 5236,
      "Ġpuppet": 5237,
      "Ġseafood": 5238,
      "Ġguards": 5239,
      "cases": 5240,
      "Ġtermin": 5241,
      "Ġreception": 5242,
      "Ġtransit": 5243,
      "Ġcondition": 5244,
      "Ġtravels": 5245,
      "Ġdryer": 5246,
      "ĠiP": 5247,
      "Ġdesigned": 5248,
      "Ġfarmers": 5249,
      "Ġgrinds": 5250,
      "Ġbarbecu": 5251,
      "Ġwilderness": 5252,
      "Ġrollerskates": 5253,
      "Ġwarming": 5254,
      "Ġtarp": 5255,
      "Ġsnacks": 5256,
      "Ġbarrels": 5257,
      "Ġdolls": 5258,
      "Ġnecklaces": 5259,
      "Ġbegin": 5260,
      "Ġextre": 5261,
      "Ġexercising": 5262,
      "Ġmuzzled": 5263,
      "ĠCafe": 5264,
      "Ġthough": 5265,
      "ĠCoca": 5266,
      "Ġconducting": 5267,
      "Ġsupermark": 5268,
      "Ġcrops": 5269,
      "Ġhotdogs": 5270,
      "Ġactivities": 5271,
      "Ġvacuuming": 5272,
      "Ġdefender": 5273,
      "Ġgreyhounds": 5274,
      "Ġdemonstration": 5275,
      "Ġfetch": 5276,
      "Ġlicking": 5277,
      "Ġminiature": 5278,
      "Ġseason": 5279,
      "Ġemployee": 5280,
      "Ġemployees": 5281,
      "Ġcharacter": 5282,
      "Ġcharacters": 5283,
      "Firefighters": 5284,
      "Ġmaybe": 5285,
      "Ġbounds": 5286,
      "urfer": 5287,
      "works": 5288,
      "Ġpoodle": 5289,
      "Ġmowing": 5290,
      "Ġblurred": 5291,
      "Ġordering": 5292,
      "Ġpurchase": 5293,
      "Ġattractive": 5294,
      "Ġbananas": 5295,
      "Ġawait": 5296,
      "Ġwatermelons": 5297,
      "Tourists": 5298,
      "Ġtemple": 5299,
      "Ġpirate": 5300,
      "Ġpunching": 5301,
      "Ġseparate": 5302,
      "Ġacrobatic": 5303,
      "Ġadorned": 5304,
      "Ġmeasuring": 5305,
      "Ġmascot": 5306,
      "Ġlanterns": 5307,
      "Brunette": 5308,
      "Ġtutu": 5309,
      "Ġfedora": 5310,
      "Ġbuffet": 5311,
      "Ġcameraman": 5312,
      "Musicians": 5313,
      "Ġmounted": 5314,
      "Ġgallo": 5315,
      "Ġholid": 5316,
      "Ġcotton": 5317,
      "Ġscientist": 5318,
      "Ġsunbathing": 5319,
      "Ġbulldo": 5320,
      "Players": 5321,
      "Ġilluminated": 5322,
      "Ġingredients": 5323,
      "Ġpyramid": 5324,
      "Ġkimon": 5325,
      "ĠBritish": 5326,
      "Ġcrawls": 5327,
      "Ġskydiving": 5328,
      "Ġvibrant": 5329,
      "Ġsilhouetted": 5330,
      "Ġtreadmill": 5331,
      "Ġxylophone": 5332,
      "Customers": 5333,
      "Members": 5334,
      "Vendors": 5335,
      "Ġbongo": 5336,
      "Ġfuzzy": 5337,
      "Ġenvironment": 5338,
      "Ġcathedral": 5339,
      "Ġcrosscountry": 5340,
      "ĠJenga": 5341,
      "Ġcheerleader": 5342,
      "Ġsupermarket": 5343,
      "\",": 5344,
      "As": 5345,
      "Cow": 5346,
      "Dirt": 5347,
      "Fis": 5348,
      "Foot": 5349,
      "Family": 5350,
      "Mar": 5351,
      "Mil": 5352,
      "Orange": 5353,
      "Sw": 5354,
      "She": 5355,
      "af": 5356,
      "bie": 5357,
      "bably": 5358,
      "car": 5359,
      "come": 5360,
      "cier": 5361,
      "cart": 5362,
      "flow": 5363,
      "filled": 5364,
      "gress": 5365,
      "hol": 5366,
      "iking": 5367,
      "ique": 5368,
      "ls": 5369,
      "live": 5370,
      "mx": 5371,
      "mish": 5372,
      "now": 5373,
      "ock": 5374,
      "oid": 5375,
      "orous": 5376,
      "por": 5377,
      "pid": 5378,
      "rand": 5379,
      "sure": 5380,
      "tur": 5381,
      "table": 5382,
      "tely": 5383,
      "uss": 5384,
      "vor": 5385,
      "yon": 5386,
      "zor": 5387,
      "Ġ-": 5388,
      "ĠSe": 5389,
      "Ġult": 5390,
      "Ġaboard": 5391,
      "Ġaff": 5392,
      "Ġsu": 5393,
      "Ġsund": 5394,
      "Ġwand": 5395,
      "Ġwip": 5396,
      "Ġwond": 5397,
      "Ġti": 5398,
      "Ġtin": 5399,
      "Ġted": 5400,
      "Ġtying": 5401,
      "Ġtip": 5402,
      "Ġtest": 5403,
      "Ġties": 5404,
      "Ġtips": 5405,
      "Ġolive": 5406,
      "anse": 5407,
      "Ġbord": 5408,
      "held": 5409,
      "Ġinc": 5410,
      "Ġinner": 5411,
      "itch": 5412,
      "itical": 5413,
      "Ġprou": 5414,
      "Ġpuzz": 5415,
      "Ġpipes": 5416,
      "Ġmule": 5417,
      "Ġcycle": 5418,
      "Ġcru": 5419,
      "Ġcry": 5420,
      "Ġciv": 5421,
      "Ġcrest": 5422,
      "ison": 5423,
      "ised": 5424,
      "ished": 5425,
      "Ġgrown": 5426,
      "Ġhal": 5427,
      "Ġhid": 5428,
      "Ġhung": 5429,
      "Ġhusk": 5430,
      "Ġhusband": 5431,
      "Ġdet": 5432,
      "Ġfrench": 5433,
      "alks": 5434,
      "laus": 5435,
      "lated": 5436,
      "atula": 5437,
      "ennis": 5438,
      "oma": 5439,
      "Ġstor": 5440,
      "Ġstars": 5441,
      "Ġwithin": 5442,
      "une": 5443,
      "unte": 5444,
      "Ġdots": 5445,
      "Ġdoctors": 5446,
      "oper": 5447,
      "icans": 5448,
      "Ġboog": 5449,
      "Ġresp": 5450,
      "Ġlime": 5451,
      "Ġanvil": 5452,
      "Ġancient": 5453,
      "Ġran": 5454,
      "Ġrip": 5455,
      "Ġrush": 5456,
      "stem": 5457,
      "storm": 5458,
      "Ġnood": 5459,
      "Ġnude": 5460,
      "Ġhour": 5461,
      "Ġchamp": 5462,
      "Ġbadge": 5463,
      "Ġcocon": 5464,
      "elf": 5465,
      "Ġgirlfriend": 5466,
      "ote": 5467,
      "otic": 5468,
      "Ġbend": 5469,
      "illa": 5470,
      "cep": 5471,
      "cement": 5472,
      "cept": 5473,
      "Ġemer": 5474,
      "Ġeager": 5475,
      "vern": 5476,
      "rimmed": 5477,
      "Ġtalent": 5478,
      "ulting": 5479,
      "Ġhearts": 5480,
      "Ġgrasping": 5481,
      "Ġwatering": 5482,
      "Ġkio": 5483,
      "bour": 5484,
      "Ġposed": 5485,
      "Ġrag": 5486,
      "Ġrack": 5487,
      "Ġraking": 5488,
      "Ġraise": 5489,
      "Ġrafts": 5490,
      "Ġrazor": 5491,
      "Ġwords": 5492,
      "Ġneed": 5493,
      "ford": 5494,
      "aping": 5495,
      "Ġskill": 5496,
      "Ġbroch": 5497,
      "Ġlemon": 5498,
      "Ġbib": 5499,
      "Ġva": 5500,
      "Ġvocal": 5501,
      "Ġsnowball": 5502,
      "Ġspin": 5503,
      "Ġspik": 5504,
      "Ġsplit": 5505,
      "Ġspatula": 5506,
      "Ġoverlook": 5507,
      "Ġpersonnel": 5508,
      "Ġconven": 5509,
      "Ġconfetti": 5510,
      "Ġhandbag": 5511,
      "Ġhandheld": 5512,
      "Ġnearly": 5513,
      "Ġsoup": 5514,
      "Ġsound": 5515,
      "Ġsoars": 5516,
      "ĠArab": 5517,
      "atee": 5518,
      "Ġsciss": 5519,
      "Ġscaling": 5520,
      "Ġscattered": 5521,
      "Ġscrat": 5522,
      "icking": 5523,
      "Ġgoatee": 5524,
      "Ġfacial": 5525,
      "Ġfavor": 5526,
      "Ġblocking": 5527,
      "Ġshouting": 5528,
      "uds": 5529,
      "Ġshorter": 5530,
      "Ġclothed": 5531,
      "ubway": 5532,
      "antily": 5533,
      "eattle": 5534,
      "Ġfoods": 5535,
      "ifying": 5536,
      "Ġaddress": 5537,
      "ggers": 5538,
      "Ġclimbers": 5539,
      "Ġbring": 5540,
      "Ġbrind": 5541,
      "Ġpropped": 5542,
      "Ġprobably": 5543,
      "Ġprogress": 5544,
      "Ġmountaintop": 5545,
      "Ġfloors": 5546,
      "Ġflood": 5547,
      "Ġhaul": 5548,
      "Ġenclo": 5549,
      "Ġstrike": 5550,
      "Ġflu": 5551,
      "Ġcats": 5552,
      "Ġattack": 5553,
      "Ġdevices": 5554,
      "Ġbarric": 5555,
      "Ġbarriers": 5556,
      "Ġcarou": 5557,
      "Ġslip": 5558,
      "essor": 5559,
      "ddler": 5560,
      "Ġflowery": 5561,
      "Ġflaming": 5562,
      "Ġdisco": 5563,
      "Ġsaus": 5564,
      "Ġsailo": 5565,
      "Ġfireworks": 5566,
      "Ġbows": 5567,
      "Ġbowtie": 5568,
      "Ġlives": 5569,
      "Ġnightcl": 5570,
      "Ġpolitical": 5571,
      "vely": 5572,
      "velin": 5573,
      "Ġboarding": 5574,
      "yset": 5575,
      "Ġkicked": 5576,
      "Ġriverbank": 5577,
      "Ġpushed": 5578,
      "grapher": 5579,
      "Ġbikinis": 5580,
      "scent": 5581,
      "Ġcowgirl": 5582,
      "Ġalco": 5583,
      "Ġcreates": 5584,
      "corn": 5585,
      "ĠBra": 5586,
      "Ġsubur": 5587,
      "Ġsubmerg": 5588,
      "Ġplush": 5589,
      "Ġboxers": 5590,
      "wered": 5591,
      "Ġturkey": 5592,
      "Ġdrag": 5593,
      "Ġdrain": 5594,
      "Ġdragon": 5595,
      "Ġcrash": 5596,
      "Ġcrafting": 5597,
      "Ġbreath": 5598,
      "Ġbreast": 5599,
      "Ġraining": 5600,
      "Ġweigh": 5601,
      "Ġnoses": 5602,
      "Ġcontem": 5603,
      "ĠTimes": 5604,
      "ĠTexas": 5605,
      "hoe": 5606,
      "hole": 5607,
      "Ġblower": 5608,
      "Ġsquad": 5609,
      "Ġrails": 5610,
      "Ġwritten": 5611,
      "ĠJew": 5612,
      "Ġpitching": 5613,
      "ĠDo": 5614,
      "osed": 5615,
      "Ġseries": 5616,
      "Ġgrills": 5617,
      "Ġrelay": 5618,
      "ĠLat": 5619,
      "ĠLeg": 5620,
      "Ġlands": 5621,
      "Ġpiles": 5622,
      "Ġfixes": 5623,
      "Ġdirect": 5624,
      "Ġexpanse": 5625,
      "Ġrelaxes": 5626,
      "Ġquad": 5627,
      "Ġquest": 5628,
      "Ġpresents": 5629,
      "Ġmonk": 5630,
      "Ġclap": 5631,
      "Ġhambur": 5632,
      "Ġtubes": 5633,
      "Ġchecked": 5634,
      "Ġmemor": 5635,
      "Ġwaterside": 5636,
      "Ġmedieval": 5637,
      "Ġcardigan": 5638,
      "Ġslopes": 5639,
      "Ġcrate": 5640,
      "Ġstunts": 5641,
      "Ġpiercing": 5642,
      "Ġmagn": 5643,
      "Ġmicroscopes": 5644,
      "Ġpedal": 5645,
      "ĠStar": 5646,
      "ĠState": 5647,
      "angle": 5648,
      "Ġcompletely": 5649,
      "Ġprofessor": 5650,
      "Ġassisting": 5651,
      "Ġfeathered": 5652,
      "Ġfeatures": 5653,
      "Ġspots": 5654,
      "ĠKit": 5655,
      "Ġstretched": 5656,
      "Guys": 5657,
      "cakes": 5658,
      "Ġ10": 5659,
      "Ġ11": 5660,
      "Ġframed": 5661,
      "Ġzom": 5662,
      "Ġzone": 5663,
      "Ġzip": 5664,
      "Ġwineglasses": 5665,
      "Ġbelly": 5666,
      "Ġlower": 5667,
      "Ġwheelchairs": 5668,
      "Ġstrollers": 5669,
      "Ġbottoms": 5670,
      "Ġsprinklers": 5671,
      "Ġsleeves": 5672,
      "dressed": 5673,
      "testers": 5674,
      "Ġmerry": 5675,
      "Ġportable": 5676,
      "Ġswords": 5677,
      "Ġjumpsuits": 5678,
      "Ġpolicemen": 5679,
      "Ġbeams": 5680,
      "Ġornam": 5681,
      "Ġplank": 5682,
      "Ġbrooms": 5683,
      "Ġpigeon": 5684,
      "Ġceremon": 5685,
      "Ġfashioned": 5686,
      "Ġliquor": 5687,
      "Ġjockeys": 5688,
      "Ġribbons": 5689,
      "Ġknitting": 5690,
      "Ġfocus": 5691,
      "Ġexcitedly": 5692,
      "Ġsystem": 5693,
      "Ġrecre": 5694,
      "Ġthose": 5695,
      "Ġthought": 5696,
      "Ġlanes": 5697,
      "Ġnurse": 5698,
      "Ġfinished": 5699,
      "Ġdropping": 5700,
      "Ġnewlywed": 5701,
      "Ġscooping": 5702,
      "Ġsaddle": 5703,
      "issance": 5704,
      "Ġlicks": 5705,
      "Ġclutching": 5706,
      "Ġreturn": 5707,
      "minton": 5708,
      "Ġangle": 5709,
      "Ġnails": 5710,
      "Ġgowns": 5711,
      "ĠUSA": 5712,
      "Ġcongregate": 5713,
      "guards": 5714,
      "Ġmissing": 5715,
      "Ġmittens": 5716,
      "Ġsocializing": 5717,
      "Ġtexting": 5718,
      "ĠEuropean": 5719,
      "Ġexpression": 5720,
      "Ġaiming": 5721,
      "Ġsenior": 5722,
      "Ġoccur": 5723,
      "Ġoccup": 5724,
      "Ġrugs": 5725,
      "Ġbriefcase": 5726,
      "Ġadvent": 5727,
      "Ġinformation": 5728,
      "Ġstirring": 5729,
      "Ġrusty": 5730,
      "Ġblindfo": 5731,
      "Ġbronco": 5732,
      "Ġconstructed": 5733,
      "Ġelevated": 5734,
      "Ġweapon": 5735,
      "Ġassembled": 5736,
      "Ġtomatoes": 5737,
      "ĠMcDonald": 5738,
      "Ġaccompanied": 5739,
      "Protesters": 5740,
      "Ġpillar": 5741,
      "Ġhunched": 5742,
      "Ġlipstick": 5743,
      "Ġradio": 5744,
      "Ġunloading": 5745,
      "Ġpatrons": 5746,
      "Ġharvesting": 5747,
      "piece": 5748,
      "Ġsample": 5749,
      "Ġsymbo": 5750,
      "Ġglacier": 5751,
      "Ġmajor": 5752,
      "Ġseesaw": 5753,
      "Ġarrangement": 5754,
      "Ġflames": 5755,
      "ĠMexican": 5756,
      "Beautiful": 5757,
      "Ġwoven": 5758,
      "Ġponch": 5759,
      "Ġbadminton": 5760,
      "Ġelaborate": 5761,
      "Ġconnected": 5762,
      "Ġdeserted": 5763,
      "Ġbridesmaids": 5764,
      "camera": 5765,
      "iami": 5766,
      "Ġdamaged": 5767,
      "Ġdessert": 5768,
      "Ġsharp": 5769,
      "Ġravine": 5770,
      "Ġsunshine": 5771,
      "Ġparallel": 5772,
      "ĠSooners": 5773,
      "Ġbulldozer": 5774,
      "Football": 5775,
      "Military": 5776,
      "turned": 5777,
      "Ġultimate": 5778,
      "Ġsundress": 5779,
      "Ġteddy": 5780,
      "Ġproud": 5781,
      "Ġcivil": 5782,
      "Ġboogie": 5783,
      "Ġkiosk": 5784,
      "Ġconvenience": 5785,
      "Ġscissors": 5786,
      "Ġfavorite": 5787,
      "Ġsailor": 5788,
      "Ġnightclub": 5789,
      "Ġalcohol": 5790,
      "ĠLegos": 5791,
      "Ġceremonial": 5792,
      "!\"": 5793,
      "'.": 5794,
      "Blue": 5795,
      "Bikers": 5796,
      "Baseball": 5797,
      "City": 5798,
      "Colo": 5799,
      "Dan": 5800,
      "Ex": 5801,
      "Ind": 5802,
      "Kid": 5803,
      "Over": 5804,
      "Ro": 5805,
      "Sp": 5806,
      "School": 5807,
      "Ski": 5808,
      "Surfer": 5809,
      "Snow": 5810,
      "Tennis": 5811,
      "ae": 5812,
      "bing": 5813,
      "beat": 5814,
      "bama": 5815,
      "cla": 5816,
      "cast": 5817,
      "cape": 5818,
      "cifier": 5819,
      "capped": 5820,
      "dra": 5821,
      "dot": 5822,
      "eer": 5823,
      "fashion": 5824,
      "gn": 5825,
      "high": 5826,
      "hine": 5827,
      "hift": 5828,
      "haps": 5829,
      "ixt": 5830,
      "iors": 5831,
      "kly": 5832,
      "kier": 5833,
      "kery": 5834,
      "kno": 5835,
      "lled": 5836,
      "nal": 5837,
      "oc": 5838,
      "oke": 5839,
      "ody": 5840,
      "off": 5841,
      "pen": 5842,
      "pain": 5843,
      "su": 5844,
      "sw": 5845,
      "the": 5846,
      "ties": 5847,
      "uk": 5848,
      "ugs": 5849,
      "va": 5850,
      "wling": 5851,
      "ware": 5852,
      "well": 5853,
      "yo": 5854,
      "zy": 5855,
      "zard": 5856,
      "Ġ8": 5857,
      "ĠQ": 5858,
      "Ġver": 5859,
      "Ġaid": 5860,
      "Ġast": 5861,
      "Ġado": 5862,
      "Ġsling": 5863,
      "Ġsister": 5864,
      "Ġsaris": 5865,
      "Ġwool": 5866,
      "Ġwant": 5867,
      "Ġtear": 5868,
      "Ġtam": 5869,
      "Ġtumbling": 5870,
      "Ġoar": 5871,
      "ances": 5872,
      "Ġbor": 5873,
      "Ġbon": 5874,
      "Ġbones": 5875,
      "Ġbites": 5876,
      "Ġbmx": 5877,
      "helf": 5878,
      "rer": 5879,
      "rew": 5880,
      "Ġping": 5881,
      "Ġpunk": 5882,
      "Ġpleas": 5883,
      "Ġmind": 5884,
      "Ġmops": 5885,
      "Ġcul": 5886,
      "Ġcinder": 5887,
      "robe": 5888,
      "rolling": 5889,
      "arat": 5890,
      "Ġgy": 5891,
      "Ġgum": 5892,
      "Ġgrow": 5893,
      "Ġgig": 5894,
      "Ġgiv": 5895,
      "Ġdeter": 5896,
      "Ġfam": 5897,
      "Ġflee": 5898,
      "Ġfills": 5899,
      "alth": 5900,
      "lable": 5901,
      "lapid": 5902,
      "atic": 5903,
      "Ġsta": 5904,
      "Ġstain": 5905,
      "Ġstorm": 5906,
      "lor": 5907,
      "lock": 5908,
      "lds": 5909,
      "Ġtoe": 5910,
      "Ġtoast": 5911,
      "Ġshines": 5912,
      "kings": 5913,
      "hermen": 5914,
      "icely": 5915,
      "icature": 5916,
      "Ġplac": 5917,
      "irts": 5918,
      "irtless": 5919,
      "Ġya": 5920,
      "Ġyelling": 5921,
      "Ġrehe": 5922,
      "Ġlie": 5923,
      "Ġlimb": 5924,
      "Ġlinger": 5925,
      "chief": 5926,
      "Ġansw": 5927,
      "geons": 5928,
      "itement": 5929,
      "Ġni": 5930,
      "Ġnat": 5931,
      "Ġlon": 5932,
      "Ġlost": 5933,
      "Ġlove": 5934,
      "Ġlovely": 5935,
      "Ġlowered": 5936,
      "Ġholes": 5937,
      "Ġchat": 5938,
      "Ġchips": 5939,
      "Ġchunk": 5940,
      "Ġbaked": 5941,
      "Ġbakery": 5942,
      "ota": 5943,
      "ilted": 5944,
      "using": 5945,
      "Ġec": 5946,
      "Ġem": 5947,
      "rick": 5948,
      "Ġrolled": 5949,
      "ooking": 5950,
      "oose": 5951,
      "Ġlast": 5952,
      "Ġherding": 5953,
      "Ġtap": 5954,
      "ressive": 5955,
      "Ġhear": 5956,
      "asm": 5957,
      "asing": 5958,
      "asket": 5959,
      "Ġwatercraft": 5960,
      "Ġket": 5961,
      "Ġcarve": 5962,
      "Ġcarto": 5963,
      "Ġcarved": 5964,
      "Ġcargo": 5965,
      "Ġcaricature": 5966,
      "bout": 5967,
      "boats": 5968,
      "Ġpoking": 5969,
      "Ġforming": 5970,
      "Ġupper": 5971,
      "Ġupright": 5972,
      "Ġasph": 5973,
      "Ġrake": 5974,
      "Ġbackward": 5975,
      "Ġbacklit": 5976,
      "Ġbackstroke": 5977,
      "Ġbackhoe": 5978,
      "Ġgreenery": 5979,
      "Ġswan": 5980,
      "Ġswamp": 5981,
      "Ġsnap": 5982,
      "Ġsnaps": 5983,
      "Ġleast": 5984,
      "Ġlegged": 5985,
      "Ġleashes": 5986,
      "Ġlength": 5987,
      "Ġvio": 5988,
      "Ġsnowman": 5989,
      "Ġsnowcapped": 5990,
      "Ġspan": 5991,
      "Ġspir": 5992,
      "Ġspike": 5993,
      "Ġoverh": 5994,
      "Ġtrays": 5995,
      "Ġfold": 5996,
      "Ġfoam": 5997,
      "Ġfound": 5998,
      "Ġmaster": 5999,
      "Ġconvention": 6000,
      "Ġhanded": 6001,
      "Ġhandling": 6002,
      "Ġhandles": 6003,
      "ldering": 6004,
      "Ġjackham": 6005,
      "Ġcrowds": 6006,
      "Ġsolo": 6007,
      "Ġclock": 6008,
      "ĠApp": 6009,
      "Ġsew": 6010,
      "Ġseam": 6011,
      "Ġoffering": 6012,
      "Ġscales": 6013,
      "Ġscantily": 6014,
      "Ġpauses": 6015,
      "Ġpacifier": 6016,
      "icker": 6017,
      "Ġgoats": 6018,
      "Ġperched": 6019,
      "Ġbloss": 6020,
      "Ġworkman": 6021,
      "tern": 6022,
      "Ġunw": 6023,
      "Ġunident": 6024,
      "Ġunkno": 6025,
      "Ġcombat": 6026,
      "Ġcler": 6027,
      "Ġheadset": 6028,
      "Ġdrilling": 6029,
      "Ġparts": 6030,
      "Ġhairstyle": 6031,
      "dog": 6032,
      "ppy": 6033,
      "Ġaccep": 6034,
      "ified": 6035,
      "ctions": 6036,
      "olle": 6037,
      "Ġtheme": 6038,
      "Ġprev": 6039,
      "Ġpretend": 6040,
      "umber": 6041,
      "Ġskateboarders": 6042,
      "Ġchem": 6043,
      "Ġsuitcases": 6044,
      "Ġprov": 6045,
      "Ġflour": 6046,
      "Ġbaseman": 6047,
      "Ġsingers": 6048,
      "Ġhaired": 6049,
      "Ġfootbr": 6050,
      "aging": 6051,
      "agle": 6052,
      "agne": 6053,
      "Ġtrimming": 6054,
      "Ġcattle": 6055,
      "Ġdaylight": 6056,
      "ĠChe": 6057,
      "ĠCom": 6058,
      "ĠClaus": 6059,
      "Ġwinding": 6060,
      "Ġwindbre": 6061,
      "Ġdeer": 6062,
      "Ġbarking": 6063,
      "Ġbarren": 6064,
      "ĠSc": 6065,
      "ĠSh": 6066,
      "ĠSpe": 6067,
      "ĠSubway": 6068,
      "ĠSeattle": 6069,
      "Ġsurfers": 6070,
      "Ġsweaters": 6071,
      "Ġsweatsuit": 6072,
      "Ġarmor": 6073,
      "Ġarmed": 6074,
      "Ġsheer": 6075,
      "ivan": 6076,
      "Ġmarches": 6077,
      "Ġflowing": 6078,
      "Ġcapture": 6079,
      "Ġapples": 6080,
      "Ġappare": 6081,
      "Ġapparat": 6082,
      "Ġsaying": 6083,
      "rested": 6084,
      "Ġpassed": 6085,
      "Ġpassion": 6086,
      "Ġpasserby": 6087,
      "Ġcanopy": 6088,
      "Ġcanyon": 6089,
      "Ġfireplace": 6090,
      "Ġdribbles": 6091,
      "Ġmats": 6092,
      "Ġmature": 6093,
      "Ġclearing": 6094,
      "Ġcartwheel": 6095,
      "ronts": 6096,
      "odeo": 6097,
      "Ġbaton": 6098,
      "Ġbatman": 6099,
      "Ġcompetitors": 6100,
      "Ġcompetitive": 6101,
      "Ġclothesline": 6102,
      "acock": 6103,
      "ĠMark": 6104,
      "ĠMiami": 6105,
      "Ġcows": 6106,
      "tical": 6107,
      "ĠFire": 6108,
      "Ġamaz": 6109,
      "onsored": 6110,
      "Ġturb": 6111,
      "Ġdramat": 6112,
      "Ġcradles": 6113,
      "Ġcrawling": 6114,
      "Ġcrazy": 6115,
      "Ġpray": 6116,
      "Ġbreaks": 6117,
      "Ġjog": 6118,
      "Ġcarried": 6119,
      "aneous": 6120,
      "Ġcontents": 6121,
      "Ġgraffitied": 6122,
      "Ġfilm": 6123,
      "Ġshoeshine": 6124,
      "Ġpatri": 6125,
      "Ġvolunte": 6126,
      "Ġequestrian": 6127,
      "ĠItal": 6128,
      "Ġcurve": 6129,
      "Ġcurved": 6130,
      "Ġcurtain": 6131,
      "hoop": 6132,
      "Ġpeak": 6133,
      "Ġpeacock": 6134,
      "Ġsweatshirts": 6135,
      "Ġgloved": 6136,
      "dered": 6137,
      "Ġbutt": 6138,
      "Ġstruggles": 6139,
      "ĠDis": 6140,
      "Ġearly": 6141,
      "Ġearth": 6142,
      "Ġvegetation": 6143,
      "Bob": 6144,
      "Ġstrap": 6145,
      "ĠHe": 6146,
      "ĠHalloween": 6147,
      "Ġserved": 6148,
      "Ġcutout": 6149,
      "Ġvarying": 6150,
      "ĠNe": 6151,
      "ĠNative": 6152,
      "Groups": 6153,
      "Ġmothers": 6154,
      "Ġposts": 6155,
      "Ġposters": 6156,
      "Ġsplash": 6157,
      "Ġdirects": 6158,
      "Ġknow": 6159,
      "Ġdigs": 6160,
      "Ġrepres": 6161,
      "Ġmonopoly": 6162,
      "Ġrowboat": 6163,
      "Ġmasked": 6164,
      "Ġtowels": 6165,
      "Ġpartying": 6166,
      "Ġcheckout": 6167,
      "ĠWhite": 6168,
      "Ġsculpt": 6169,
      "Ġbusinessman": 6170,
      "engu": 6171,
      "skating": 6172,
      "Ġdecorating": 6173,
      "Ġartistic": 6174,
      "Ġtunic": 6175,
      "Ġshady": 6176,
      "Ġinteract": 6177,
      "Ġmakeshift": 6178,
      "Ġbalanced": 6179,
      "Ġchained": 6180,
      "Ġpadded": 6181,
      "Ġmulticolor": 6182,
      "Ġharp": 6183,
      "Ġoperation": 6184,
      "Ġpedd": 6185,
      "Ġpedestrian": 6186,
      "ĠStreet": 6187,
      "Ġstarts": 6188,
      "Ġbraided": 6189,
      "anged": 6190,
      "Ġcompleted": 6191,
      "Ġincludes": 6192,
      "Ġinspect": 6193,
      "Ġpetals": 6194,
      "Ġcloths": 6195,
      "Ġblocked": 6196,
      "Ġrounding": 6197,
      "Ġdunking": 6198,
      "Ġstretch": 6199,
      "Ġeyeglasses": 6200,
      "Ġfairy": 6201,
      "Ġstacks": 6202,
      "Ġzeb": 6203,
      "Ġmustard": 6204,
      "Ġmessage": 6205,
      "Ġbookshelf": 6206,
      "Ġrobot": 6207,
      "Ġexciting": 6208,
      "Ġexcitement": 6209,
      "Ġcollecting": 6210,
      "allenge": 6211,
      "blades": 6212,
      "Ġescape": 6213,
      "inoes": 6214,
      "Ġpinned": 6215,
      "Ġpinstriped": 6216,
      "Ġtongs": 6217,
      "Ġsheets": 6218,
      "ĠVol": 6219,
      "Ġsaxoph": 6220,
      "Ġrubs": 6221,
      "Ġrubble": 6222,
      "Ġcookies": 6223,
      "Ġkeys": 6224,
      "Ġdonkeys": 6225,
      "Athle": 6226,
      "Ġpossession": 6227,
      "Ġpositioned": 6228,
      "Ġvacation": 6229,
      "Ġopponents": 6230,
      "Ġtossed": 6231,
      "Ġcooler": 6232,
      "Ġcoolers": 6233,
      "Ġparachuting": 6234,
      "Ġparachutes": 6235,
      "Ġfloaties": 6236,
      "Ġstorefronts": 6237,
      "Ġfingerna": 6238,
      "Ġbeginning": 6239,
      "Ġadmire": 6240,
      "Ġmotorbikes": 6241,
      "ĠSponge": 6242,
      "Sold": 6243,
      "Ġsacks": 6244,
      "Ġtugging": 6245,
      "Ġarchway": 6246,
      "Ġapplies": 6247,
      "Ġelephants": 6248,
      "Ġgliding": 6249,
      "Ġglider": 6250,
      "Ġexhibition": 6251,
      "Ġphotographing": 6252,
      "Ġtightro": 6253,
      "Ġdepic": 6254,
      "Ġcabin": 6255,
      "iversity": 6256,
      "ailable": 6257,
      "Ġautomo": 6258,
      "Ġdelic": 6259,
      "Ġemerges": 6260,
      "Ġmerchant": 6261,
      "Ġembrace": 6262,
      "Ġpriest": 6263,
      "Ġregister": 6264,
      "Ġbundled": 6265,
      "Ġletter": 6266,
      "Ġcomforting": 6267,
      "Ġcheeks": 6268,
      "ĠMouse": 6269,
      "Ġexploring": 6270,
      "inished": 6271,
      "Ġbunny": 6272,
      "Ġpopcorn": 6273,
      "Ġheavyset": 6274,
      "Ġreturns": 6275,
      "Ġremote": 6276,
      "Ġangry": 6277,
      "Ġtorches": 6278,
      "Ġinstructing": 6279,
      "Ġpride": 6280,
      "Ġstylish": 6281,
      "Ġdotted": 6282,
      "Ġbounding": 6283,
      "ĠAmericans": 6284,
      "Ġexpressions": 6285,
      "Ġfeathers": 6286,
      "Ġcommunity": 6287,
      "working": 6288,
      "Ġpoodles": 6289,
      "Ġcrowns": 6290,
      "Ġattendant": 6291,
      "Ġreclines": 6292,
      "Ġruins": 6293,
      "Ġmassive": 6294,
      "Ġdescending": 6295,
      "Ġbanana": 6296,
      "Ġwatermelon": 6297,
      "Ġelbow": 6298,
      "Ġaxe": 6299,
      "Ġstrum": 6300,
      "Ġwhistle": 6301,
      "Ġbronze": 6302,
      "Ġbushy": 6303,
      "ĠConcert": 6304,
      "Ġweapons": 6305,
      "Ġassistant": 6306,
      "wheeler": 6307,
      "Ġtuxedo": 6308,
      "ĠMcDonalds": 6309,
      "Ġutility": 6310,
      "Ġhuddled": 6311,
      "Ġleaned": 6312,
      "Ġinterviewed": 6313,
      "Bicyclist": 6314,
      "Ġdolph": 6315,
      "Ġsmooth": 6316,
      "Ġconfused": 6317,
      "Ġseagulls": 6318,
      "Ġarrive": 6319,
      "Ġshelves": 6320,
      "Ġconcentrates": 6321,
      "Shirtless": 6322,
      "point": 6323,
      "Ġidentical": 6324,
      "Ġtoilet": 6325,
      "Ġantique": 6326,
      "Ġhistoric": 6327,
      "Ġascending": 6328,
      "Ġearrings": 6329,
      "ĠUniversity": 6330,
      "Photographer": 6331,
      "Ġmannequin": 6332,
      "Parents": 6333,
      "Toddler": 6334,
      "Ġsearching": 6335,
      "Ġinstalling": 6336,
      "Ġcitizens": 6337,
      "Ġshingles": 6338,
      "Ġjavelin": 6339,
      "Ġcockpit": 6340,
      "Ġsnorkel": 6341,
      "Ġcampsite": 6342,
      "Ġunfinished": 6343,
      "Ġclarinet": 6344,
      "Ġattentively": 6345,
      "Ġslicing": 6346,
      "Ġstruggling": 6347,
      "ĠRollerblades": 6348,
      "Ġterminal": 6349,
      "Ġconditions": 6350,
      "ĠiPod": 6351,
      "Ġbarbecuing": 6352,
      "Ġkimonos": 6353,
      "Cowboy": 6354,
      "Swim": 6355,
      "porary": 6356,
      "Ġwiping": 6357,
      "Ġtiara": 6358,
      "Ġhusky": 6359,
      "Ġchampagne": 6360,
      "Ġeagerly": 6361,
      "Ġvocalist": 6362,
      "Ġbrindle": 6363,
      "Ġcarousel": 6364,
      "Ġsuburban": 6365,
      "Ġcontempla": 6366,
      "ĠJewish": 6367,
      "Ġmagnifying": 6368,
      "Ġrecreational": 6369,
      "Ġblindfolded": 6370,
      "Ġsymbol": 6371,
      "Dancers": 6372,
      "Ġvertical": 6373,
      "Ġtambour": 6374,
      "Ġgiven": 6375,
      "lapidated": 6376,
      "Ġlingerie": 6377,
      "asketball": 6378,
      "Ġasphalt": 6379,
      "ĠApple": 6380,
      "Ġunknown": 6381,
      "Ġwindbreaker": 6382,
      "Ġapparatus": 6383,
      "Ġzebra": 6384,
      "ĠSpongeBob": 6385,
      "Ġautomobile": 6386,
      "AT": 6387,
      "Aid": 6388,
      "About": 6389,
      "Bike": 6390,
      "Basketball": 6391,
      "CE": 6392,
      "Ca": 6393,
      "Cyclists": 6394,
      "Cars": 6395,
      "Colle": 6396,
      "Dress": 6397,
      "During": 6398,
      "Ele": 6399,
      "Emerg": 6400,
      "Friend": 6401,
      "Gra": 6402,
      "Gentle": 6403,
      "Gray": 6404,
      "High": 6405,
      "Happy": 6406,
      "Looking": 6407,
      "MC": 6408,
      "Mot": 6409,
      "New": 6410,
      "Pit": 6411,
      "Per": 6412,
      "Par": 6413,
      "Pic": 6414,
      "Ra": 6415,
      "Rodeo": 6416,
      "Sc": 6417,
      "Shop": 6418,
      "Te": 6419,
      "View": 6420,
      "Wa": 6421,
      "Wat": 6422,
      "With": 6423,
      "Wet": 6424,
      "You": 6425,
      "ags": 6426,
      "ben": 6427,
      "bes": 6428,
      "bather": 6429,
      "bucks": 6430,
      "cs": 6431,
      "care": 6432,
      "cited": 6433,
      "die": 6434,
      "dish": 6435,
      "deep": 6436,
      "dges": 6437,
      "field": 6438,
      "fric": 6439,
      "fives": 6440,
      "front": 6441,
      "gap": 6442,
      "glass": 6443,
      "homa": 6444,
      "ii": 6445,
      "ien": 6446,
      "iver": 6447,
      "kla": 6448,
      "kely": 6449,
      "kins": 6450,
      "lif": 6451,
      "lift": 6452,
      "mith": 6453,
      "mble": 6454,
      "mage": 6455,
      "made": 6456,
      "mons": 6457,
      "muff": 6458,
      "mely": 6459,
      "nna": 6460,
      "oles": 6461,
      "ogra": 6462,
      "pro": 6463,
      "pite": 6464,
      "pong": 6465,
      "pering": 6466,
      "prin": 6467,
      "rise": 6468,
      "ranged": 6469,
      "sion": 6470,
      "tish": 6471,
      "trucks": 6472,
      "uc": 6473,
      "ura": 6474,
      "uge": 6475,
      "uce": 6476,
      "uct": 6477,
      "vy": 6478,
      "viewing": 6479,
      "wom": 6480,
      "wag": 6481,
      "white": 6482,
      "wdri": 6483,
      "xim": 6484,
      "ye": 6485,
      "yond": 6486,
      "zil": 6487,
      "zens": 6488,
      "ĠZ": 6489,
      "Ġer": 6490,
      "ĠWomen": 6491,
      "Ġera": 6492,
      "Ġuk": 6493,
      "Ġamp": 6494,
      "inn": 6495,
      "inas": 6496,
      "inary": 6497,
      "ingly": 6498,
      "Ġslow": 6499,
      "Ġsight": 6500,
      "Ġsons": 6501,
      "Ġsiding": 6502,
      "Ġsession": 6503,
      "Ġsorts": 6504,
      "Ġsucking": 6505,
      "Ġsashes": 6506,
      "Ġwaring": 6507,
      "Ġways": 6508,
      "Ġwipes": 6509,
      "Ġwades": 6510,
      "Ġwicker": 6511,
      "Ġtet": 6512,
      "Ġtrou": 6513,
      "Ġoct": 6514,
      "anting": 6515,
      "ancing": 6516,
      "Ġbark": 6517,
      "reyhound": 6518,
      "Ġinline": 6519,
      "Ġincoming": 6520,
      "itan": 6521,
      "itating": 6522,
      "Ġpom": 6523,
      "Ġpoun": 6524,
      "Ġpant": 6525,
      "Ġpane": 6526,
      "Ġpuffy": 6527,
      "Ġplowing": 6528,
      "Ġpengu": 6529,
      "Ġming": 6530,
      "Ġmad": 6531,
      "Ġminis": 6532,
      "eria": 6533,
      "Ġcem": 6534,
      "Ġcub": 6535,
      "lem": 6536,
      "leton": 6537,
      "iser": 6538,
      "ision": 6539,
      "ispanic": 6540,
      "rong": 6541,
      "Ġthese": 6542,
      "ari": 6543,
      "aration": 6544,
      "Ġgor": 6545,
      "Ġginger": 6546,
      "Ġonce": 6547,
      "Ġhon": 6548,
      "Ġhop": 6549,
      "Ġhips": 6550,
      "Ġhilly": 6551,
      "Ġdu": 6552,
      "Ġdip": 6553,
      "Ġdash": 6554,
      "Ġdug": 6555,
      "Ġdrop": 6556,
      "Ġdyed": 6557,
      "Ġfru": 6558,
      "Ġfine": 6559,
      "aler": 6560,
      "omet": 6561,
      "Ġstay": 6562,
      "Ġstalks": 6563,
      "lons": 6564,
      "orc": 6565,
      "orn": 6566,
      "orse": 6567,
      "etery": 6568,
      "una": 6569,
      "esting": 6570,
      "estern": 6571,
      "idge": 6572,
      "onies": 6573,
      "Ġshru": 6574,
      "Ġshapes": 6575,
      "anding": 6576,
      "andex": 6577,
      "Ġareas": 6578,
      "opus": 6579,
      "edos": 6580,
      "Ġboss": 6581,
      "Ġbout": 6582,
      "utches": 6583,
      "allic": 6584,
      "Ġyo": 6585,
      "Ġyour": 6586,
      "Ġyork": 6587,
      "Ġrear": 6588,
      "Ġreal": 6589,
      "Ġplaypen": 6590,
      "Ġlla": 6591,
      "Ġlid": 6592,
      "Ġlim": 6593,
      "Ġann": 6594,
      "Ġsiting": 6595,
      "Ġrim": 6596,
      "sted": 6597,
      "store": 6598,
      "stance": 6599,
      "gee": 6600,
      "Ġnine": 6601,
      "Ġnicely": 6602,
      "Ġjar": 6603,
      "Ġloud": 6604,
      "Ġlocom": 6605,
      "Ġchub": 6606,
      "Ġchore": 6607,
      "Ġbagg": 6608,
      "Ġcou": 6609,
      "eli": 6610,
      "elcome": 6611,
      "umble": 6612,
      "ader": 6613,
      "otch": 6614,
      "otel": 6615,
      "otion": 6616,
      "ottish": 6617,
      "Ġfrown": 6618,
      "Ġfrolic": 6619,
      "Ġhispanic": 6620,
      "Ġbeat": 6621,
      "Ġbeare": 6622,
      "Ġbegging": 6623,
      "Ġbeyond": 6624,
      "Ġthink": 6625,
      "Ġthread": 6626,
      "ushing": 6627,
      "amic": 6628,
      "Ġreddish": 6629,
      "Ġelder": 6630,
      "Ġeast": 6631,
      "verty": 6632,
      "Ġroping": 6633,
      "Ġroses": 6634,
      "Ġloose": 6635,
      "Ġstreetlight": 6636,
      "oof": 6637,
      "Ġlakes": 6638,
      "Ġtaught": 6639,
      "Ġtagged": 6640,
      "Ġtasting": 6641,
      "kswag": 6642,
      "keep": 6643,
      "Ġhealth": 6644,
      "Ġhenna": 6645,
      "airs": 6646,
      "ashing": 6647,
      "Ġgraph": 6648,
      "Ġkilts": 6649,
      "ielder": 6650,
      "Ġpokes": 6651,
      "Ġpoised": 6652,
      "Ġpoverty": 6653,
      "Ġforces": 6654,
      "Ġsombre": 6655,
      "Ġash": 6656,
      "Ġasking": 6657,
      "Ġrunway": 6658,
      "seen": 6659,
      "Ġbud": 6660,
      "Ġbuggy": 6661,
      "Ġbuoy": 6662,
      "Ġword": 6663,
      "fort": 6664,
      "forcement": 6665,
      "Ġsnake": 6666,
      "Ġridding": 6667,
      "Ġlemons": 6668,
      "rene": 6669,
      "Ġvig": 6670,
      "Ġvast": 6671,
      "Ġsnowf": 6672,
      "Ġsnowing": 6673,
      "Ġsnowmo": 6674,
      "Ġspear": 6675,
      "Ġspikes": 6676,
      "Ġsponsored": 6677,
      "Ġspandex": 6678,
      "Ġovercoat": 6679,
      "Ġoverturned": 6680,
      "Ġtram": 6681,
      "Ġpersons": 6682,
      "Ġmache": 6683,
      "Ġconvert": 6684,
      "igs": 6685,
      "Ġsomeones": 6686,
      "Ġsoil": 6687,
      "Ġsoldering": 6688,
      "Ġcloser": 6689,
      "ĠAut": 6690,
      "ĠAmish": 6691,
      "ĠAfric": 6692,
      "Ġtend": 6693,
      "Ġseash": 6694,
      "Ġseeds": 6695,
      "Ġscri": 6696,
      "Ġscale": 6697,
      "Ġscared": 6698,
      "Ġpaws": 6699,
      "ickey": 6700,
      "Ġcame": 6701,
      "Ġcamper": 6702,
      "Ġaircraft": 6703,
      "Ġmout": 6704,
      "Ġgovern": 6705,
      "Ġarid": 6706,
      "Ġperhaps": 6707,
      "Ġworkben": 6708,
      "Ġsunhat": 6709,
      "Ġsunbather": 6710,
      "Ġsunrise": 6711,
      "lls": 6712,
      "neck": 6713,
      "Ġunpack": 6714,
      "Ġuncom": 6715,
      "Ġunpaved": 6716,
      "Ġunseen": 6717,
      "Ġpictured": 6718,
      "unds": 6719,
      "Ġcomb": 6720,
      "Ġclust": 6721,
      "Ġtopic": 6722,
      "Ġrocking": 6723,
      "Ġreadying": 6724,
      "Ġcityscape": 6725,
      "vest": 6726,
      "Ġsurgeons": 6727,
      "Ġguitarists": 6728,
      "Ġbuses": 6729,
      "iller": 6730,
      "Ġphys": 6731,
      "Ġwalkers": 6732,
      "Ġhelped": 6733,
      "ifts": 6734,
      "orescent": 6735,
      "olf": 6736,
      "Ġroadway": 6737,
      "Ġroadwork": 6738,
      "imber": 6739,
      "Ġused": 6740,
      "Ġsandal": 6741,
      "Ġpretending": 6742,
      "Ġswimwear": 6743,
      "shirted": 6744,
      "Ġchews": 6745,
      "Ġkiddie": 6746,
      "Ġpursu": 6747,
      "Ġpromo": 6748,
      "Ġmountainside": 6749,
      "Ġfloppy": 6750,
      "Ġbasement": 6751,
      "Ġwaitress": 6752,
      "Ġhorns": 6753,
      "Ġstrip": 6754,
      "Ġstrikes": 6755,
      "Ġtribe": 6756,
      "Ġtrims": 6757,
      "Ġtriangle": 6758,
      "Ġhelmeted": 6759,
      "ĠCar": 6760,
      "ĠCal": 6761,
      "ĠCast": 6762,
      "Ġmotorboat": 6763,
      "Ġwhole": 6764,
      "Ġgated": 6765,
      "ĠSU": 6766,
      "ĠSw": 6767,
      "ĠSchool": 6768,
      "Ġsweaty": 6769,
      "Ġexits": 6770,
      "Ġexcept": 6771,
      "Ġshed": 6772,
      "Ġcause": 6773,
      "Ġcafet": 6774,
      "Ġcaution": 6775,
      "Ġslices": 6776,
      "Ġmarkings": 6777,
      "Ġpreparation": 6778,
      "Ġtrained": 6779,
      "type": 6780,
      "Ġpastries": 6781,
      "eere": 6782,
      "Ġbasketballs": 6783,
      "Ġdisk": 6784,
      "Ġsales": 6785,
      "Ġbowler": 6786,
      "strated": 6787,
      "Ġopened": 6788,
      "Ġdrivers": 6789,
      "Ġdribbling": 6790,
      "Ġlikely": 6791,
      "Ġdespite": 6792,
      "Ġmates": 6793,
      "Ġgrins": 6794,
      "verse": 6795,
      "Ġkites": 6796,
      "Ġkitten": 6797,
      "Ġpolish": 6798,
      "Ġmetro": 6799,
      "Ġmetrop": 6800,
      "Ġmetallic": 6801,
      "Ġbookbag": 6802,
      "Ġbookstore": 6803,
      "Ġbats": 6804,
      "Ġstairwell": 6805,
      "Ġcompetes": 6806,
      "Somebody": 6807,
      "chenAid": 6808,
      "Ġevil": 6809,
      "Ġbeards": 6810,
      "acy": 6811,
      "Ġsurroundings": 6812,
      "ĠMon": 6813,
      "ĠMickey": 6814,
      "Ġartific": 6815,
      "scope": 6816,
      "scotch": 6817,
      "izes": 6818,
      "Ġcreated": 6819,
      "Ġcord": 6820,
      "Ġmegap": 6821,
      "ĠFood": 6822,
      "Ġpaintings": 6823,
      "ĠBur": 6824,
      "ĠBoy": 6825,
      "ĠBlue": 6826,
      "ĠBost": 6827,
      "Ġsubstance": 6828,
      "Ġplucking": 6829,
      "Ġcountert": 6830,
      "Ġbesides": 6831,
      "arth": 6832,
      "Ġbridal": 6833,
      "Ġwheeler": 6834,
      "coal": 6835,
      "weed": 6836,
      "Ġhikes": 6837,
      "Ġsnowboarders": 6838,
      "sps": 6839,
      "Ġcrab": 6840,
      "Ġshave": 6841,
      "Ġbreaking": 6842,
      "Ġpulley": 6843,
      "Ġstudies": 6844,
      "Ġweb": 6845,
      "Ġweird": 6846,
      "Ġweeds": 6847,
      "Ġappearing": 6848,
      "Ġfourth": 6849,
      "Ġwinning": 6850,
      "Ġcurious": 6851,
      "Ġcurrent": 6852,
      "hold": 6853,
      "Ġtaller": 6854,
      "Ġpeach": 6855,
      "Ġpeeling": 6856,
      "Ġcupcake": 6857,
      "Ġcupcakes": 6858,
      "Ġstatues": 6859,
      "Ġviewer": 6860,
      "Ġramps": 6861,
      "Ġsquat": 6862,
      "Ġpickup": 6863,
      "Ġwrite": 6864,
      "ĠGreen": 6865,
      "ĠDay": 6866,
      "ĠDeere": 6867,
      "Ġearmuff": 6868,
      "Ġwashed": 6869,
      "Ġpadding": 6870,
      "Ġtattered": 6871,
      "Ġstraps": 6872,
      "ĠHar": 6873,
      "ĠHotel": 6874,
      "azz": 6875,
      "berty": 6876,
      "ĠPat": 6877,
      "ĠPark": 6878,
      "Ġstationary": 6879,
      "Ġinflated": 6880,
      "Ġpotted": 6881,
      "Ġvia": 6882,
      "Ġpaintball": 6883,
      "Ġpaintbrush": 6884,
      "Ġstructures": 6885,
      "ĠEng": 6886,
      "ĠLe": 6887,
      "ĠLou": 6888,
      "ĠNike": 6889,
      "Ġbanging": 6890,
      "Ġlanded": 6891,
      "Ġpiled": 6892,
      "Ġmulti": 6893,
      "Ġpostal": 6894,
      "Ġladders": 6895,
      "Ġformed": 6896,
      "ĠOcean": 6897,
      "ĠOriental": 6898,
      "ĠObama": 6899,
      "ĠOkla": 6900,
      "Ġexposed": 6901,
      "ails": 6902,
      "ĠRuss": 6903,
      "Ġphotography": 6904,
      "Ġquaint": 6905,
      "Ġmilk": 6906,
      "ology": 6907,
      "Ġlitter": 6908,
      "Ġtroops": 6909,
      "Ġtromb": 6910,
      "Ġnote": 6911,
      "Ġnotice": 6912,
      "Ġpartly": 6913,
      "Ġobservers": 6914,
      "Ġbathrobe": 6915,
      "Ġwaterskier": 6916,
      "ĠWall": 6917,
      "Ġintense": 6918,
      "Ġcircus": 6919,
      "Ġcircuit": 6920,
      "enger": 6921,
      "Ġdaught": 6922,
      "Ġslot": 6923,
      "Ġsloping": 6924,
      "thy": 6925,
      "Ġwraps": 6926,
      "Ġtuning": 6927,
      "Ġsculpting": 6928,
      "Ġcrus": 6929,
      "Ġcrutches": 6930,
      "Ġtypical": 6931,
      "Ġparticipates": 6932,
      "Ġprojected": 6933,
      "Ġcelebrates": 6934,
      "Ġcoveralls": 6935,
      "Ġgymnastic": 6936,
      "Ġmagic": 6937,
      "Ġoperated": 6938,
      "Ġphotographers": 6939,
      "ĠStation": 6940,
      "Ġsteer": 6941,
      "Ġsteers": 6942,
      "Ġsteam": 6943,
      "Ġsteaks": 6944,
      "Ġengage": 6945,
      "Ġ30": 6946,
      "Ġpacking": 6947,
      "Ġprints": 6948,
      "Ġeatery": 6949,
      "Ġcleaned": 6950,
      "Ġstrawberry": 6951,
      "Ġtackles": 6952,
      "Ġactors": 6953,
      "Ġactively": 6954,
      "Ġrounds": 6955,
      "Ġdunk": 6956,
      "Ġdunes": 6957,
      "Ġfighter": 6958,
      "Ġseaweed": 6959,
      "Ġ12": 6960,
      "ĠYama": 6961,
      "Ġframes": 6962,
      "Ġstacking": 6963,
      "Ġguarding": 6964,
      "Ġbalconies": 6965,
      "Ġsquares": 6966,
      "Ġzo": 6967,
      "Ġzoo": 6968,
      "Ġmessenger": 6969,
      "lation": 6970,
      "Ġcollection": 6971,
      "Ġretail": 6972,
      "Ġwetsuits": 6973,
      "Ġkayakers": 6974,
      "ĠVeg": 6975,
      "Ġterrier": 6976,
      "Ġcrib": 6977,
      "Ġreceive": 6978,
      "Ġreceives": 6979,
      "Ġpitchers": 6980,
      "Ġprofessionals": 6981,
      "Ġhooping": 6982,
      "Ġcooked": 6983,
      "Ġcookie": 6984,
      "Ġdesigner": 6985,
      "Ġfreshly": 6986,
      "Ġpancake": 6987,
      "Ġstools": 6988,
      "Ġmerma": 6989,
      "Ġgrooms": 6990,
      "Ġboulders": 6991,
      "Ġlayers": 6992,
      "Ġdefensive": 6993,
      "Ġdilapidated": 6994,
      "Ġcampers": 6995,
      "Ġheadscarves": 6996,
      "Ġshoots": 6997,
      "Ġcasts": 6998,
      "Ġsumo": 6999,
      "Ġsuperman": 7000,
      "Ġpiggy": 7001,
      "Ġtosses": 7002,
      "Ġentertainer": 7003,
      "Ġrollerskaters": 7004,
      "Ġcarpeted": 7005,
      "Ġwarning": 7006,
      "Ġbounce": 7007,
      "Ġfashionable": 7008,
      "Ġfiring": 7009,
      "Ġyouths": 7010,
      "Ġthinking": 7011,
      "Ġmuzzles": 7012,
      "Ġarchite": 7013,
      "Ġjewelery": 7014,
      "Ġleafless": 7015,
      "Ġcontrols": 7016,
      "Crowds": 7017,
      "Ġsalad": 7018,
      "Ġheadbands": 7019,
      "Ġweave": 7020,
      "Ġelectronics": 7021,
      "Ġkeeping": 7022,
      "Ġtightly": 7023,
      "Ġscrewdri": 7024,
      "Ġsailboats": 7025,
      "Ġterrace": 7026,
      "Cola": 7027,
      "Ġowner": 7028,
      "Ġowners": 7029,
      "Ġpeeks": 7030,
      "Ġdrops": 7031,
      "Ġdropped": 7032,
      "Ġparasol": 7033,
      "Ġburgers": 7034,
      "Ġdefenders": 7035,
      "Ġprim": 7036,
      "Ġprizes": 7037,
      "Ġchickens": 7038,
      "Ġletters": 7039,
      "Ġscoop": 7040,
      "Ġcomfortable": 7041,
      "Ġdecide": 7042,
      "Ġdemonstrating": 7043,
      "Ġweathered": 7044,
      "Ġbungee": 7045,
      "Ġfetching": 7046,
      "Ġorganizing": 7047,
      "Ġreturning": 7048,
      "Ġwigs": 7049,
      "Ġpressure": 7050,
      "Ġgrima": 7051,
      "Ġremoving": 7052,
      "Ġcrayon": 7053,
      "Ġtorn": 7054,
      "Ġinstructor": 7055,
      "Ġprun": 7056,
      "Ġsniffs": 7057,
      "Ġhandleb": 7058,
      "Ġsolitary": 7059,
      "Ġtexts": 7060,
      "handed": 7061,
      "ulele": 7062,
      "Ġseniors": 7063,
      "Ġpowder": 7064,
      "Ġcalling": 7065,
      "Ġorders": 7066,
      "Ġselecting": 7067,
      "Ġscrap": 7068,
      "Ġpurchasing": 7069,
      "Ġattraction": 7070,
      "Ġdescend": 7071,
      "Tourist": 7072,
      "Teenage": 7073,
      "Ġelse": 7074,
      "Ġavoid": 7075,
      "Ġavailable": 7076,
      "Ġslab": 7077,
      "Ġslam": 7078,
      "Ġpirates": 7079,
      "Ġflea": 7080,
      "Ġflex": 7081,
      "Ġstride": 7082,
      "Ġstirs": 7083,
      "Ġwhispering": 7084,
      "Ġconstructing": 7085,
      "Ġsepar": 7086,
      "Ġadorable": 7087,
      "Ġflatbed": 7088,
      "Ġmascara": 7089,
      "Ġknown": 7090,
      "Ġimpressive": 7091,
      "Ġassemb": 7092,
      "Ġretrieving": 7093,
      "Ġlantern": 7094,
      "Ġutens": 7095,
      "Ġpillars": 7096,
      "Ġcharcoal": 7097,
      "Ġcables": 7098,
      "Ġtwirling": 7099,
      "Ġtechnique": 7100,
      "Ġtechnology": 7101,
      "Ġenthusiastically": 7102,
      "Bicyclists": 7103,
      "wearing": 7104,
      "Ġoversized": 7105,
      "Ġdomin": 7106,
      "Ġdominoes": 7107,
      "Ġdolly": 7108,
      "Ġsmoothing": 7109,
      "Ġgraduation": 7110,
      "Ġspectate": 7111,
      "Ġmechanic": 7112,
      "Ġmechanical": 7113,
      "Ġslender": 7114,
      "Ġsatche": 7115,
      "Ġoxen": 7116,
      "Ġshields": 7117,
      "Ġchiseling": 7118,
      "Ġtaste": 7119,
      "Ġrabbit": 7120,
      "Ġrabbits": 7121,
      "Ġstockings": 7122,
      "Ġextended": 7123,
      "Ġcommunicating": 7124,
      "Art": 7125,
      "Ġskeleton": 7126,
      "Ġminivan": 7127,
      "Ġmesh": 7128,
      "Ġskimpy": 7129,
      "Ġsprinting": 7130,
      "Ġmailbox": 7131,
      "uddling": 7132,
      "Ġkickboxing": 7133,
      "Ġvideotaping": 7134,
      "Ġgreeting": 7135,
      "Ġbracelet": 7136,
      "Ġextremely": 7137,
      "Ġgalloping": 7138,
      "Ġholiday": 7139,
      "Marathon": 7140,
      "flowers": 7141,
      "orously": 7142,
      "Ġpuzzle": 7143,
      "Ġcruise": 7144,
      "Ġhalter": 7145,
      "Ġhidden": 7146,
      "Ġstorage": 7147,
      "Ġcoconuts": 7148,
      "Ġemerging": 7149,
      "Ġbrochure": 7150,
      "Ġspiked": 7151,
      "Ġscratching": 7152,
      "Ġbringing": 7153,
      "Ġhauling": 7154,
      "Ġfluorescent": 7155,
      "Ġsausages": 7156,
      "ĠBrazil": 7157,
      "Ġsubmerged": 7158,
      "Ġdrainage": 7159,
      "Ġweighing": 7160,
      "ĠLatin": 7161,
      "Ġdirectly": 7162,
      "Ġquestion": 7163,
      "Ġmemorial": 7164,
      "ĠStarbucks": 7165,
      "ĠKitchenAid": 7166,
      "Ġoccurring": 7167,
      "Ġoccupied": 7168,
      "Color": 7169,
      "Individu": 7170,
      "drawn": 7171,
      "fashioned": 7172,
      "ixture": 7173,
      "Ġadolesc": 7174,
      "Ġrehear": 7175,
      "Ġlonely": 7176,
      "Ġkettle": 7177,
      "Ġcartoon": 7178,
      "Ġswampy": 7179,
      "Ġspanish": 7180,
      "Ġoverhang": 7181,
      "Ġfoundation": 7182,
      "Ġunwra": 7183,
      "Ġunidentified": 7184,
      "Ġaccepting": 7185,
      "Ġfootbridge": 7186,
      "ĠSpeedo": 7187,
      "Ġapparel": 7188,
      "Ġpassionately": 7189,
      "ĠMarket": 7190,
      "Ġdramatically": 7191,
      "ĠDisney": 7192,
      "Ġsculptor": 7193,
      "Ġtightrope": 7194,
      "Ġdelicious": 7195,
      "Ġdolphin": 7196,
      "Photographers": 7197,
      "Ġcontemplating": 7198,
      "College": 7199,
      "Emergency": 7200,
      "Friends": 7201,
      "Motorc": 7202,
      "Picture": 7203,
      "Shoppers": 7204,
      "Ġukulele": 7205,
      "Ġoctopus": 7206,
      "Ġminisk": 7207,
      "Ġcemetery": 7208,
      "Ġcubicle": 7209,
      "Ġhopscotch": 7210,
      "Ġfrustrated": 7211,
      "Ġlocomot": 7212,
      "Ġchubby": 7213,
      "Ġbearer": 7214,
      "kswagen": 7215,
      "ashington": 7216,
      "Ġsombrero": 7217,
      "Ġconvertible": 7218,
      "Ġseashore": 7219,
      "Ġworkbench": 7220,
      "Ġsunbathers": 7221,
      "Ġunpacking": 7222,
      "Ġpromoting": 7223,
      "Ġcafeteria": 7224,
      "Ġmetropol": 7225,
      "Ġartificial": 7226,
      "Ġmegaphone": 7227,
      "ĠBoston": 7228,
      "Ġcurrently": 7229,
      "Ġearmuffs": 7230,
      "ĠOklahoma": 7231,
      "Ġtrombone": 7232,
      "Ġdaughters": 7233,
      "ĠYamaha": 7234,
      "ĠVegas": 7235,
      "Ġmermaid": 7236,
      "Ġpiggyback": 7237,
      "08": 7238,
      "95": 7239,
      "?\"": 7240,
      "Ball": 7241,
      "Big": 7242,
      "CK": 7243,
      "Car": 7244,
      "Crou": 7245,
      "EL": 7246,
      "Elder": 7247,
      "Eth": 7248,
      "Fro": 7249,
      "Food": 7250,
      "Father": 7251,
      "Few": 7252,
      "GO": 7253,
      "Green": 7254,
      "Guitar": 7255,
      "Grand": 7256,
      "Hand": 7257,
      "Hard": 7258,
      "Home": 7259,
      "Hikers": 7260,
      "IN": 7261,
      "Ice": 7262,
      "Jo": 7263,
      "Kay": 7264,
      "Le": 7265,
      "Lo": 7266,
      "Lone": 7267,
      "Long": 7268,
      "Looks": 7269,
      "Lead": 7270,
      "MA": 7271,
      "No": 7272,
      "Nine": 7273,
      "Native": 7274,
      "ON": 7275,
      "Out": 7276,
      "Pants": 7277,
      "Race": 7278,
      "Roller": 7279,
      "Sit": 7280,
      "Singer": 7281,
      "Twel": 7282,
      "Texas": 7283,
      "Wal": 7284,
      "Welcome": 7285,
      "ax": 7286,
      "ass": 7287,
      "aic": 7288,
      "aile": 7289,
      "abo": 7290,
      "aign": 7291,
      "ault": 7292,
      "aissance": 7293,
      "bell": 7294,
      "bac": 7295,
      "book": 7296,
      "blue": 7297,
      "buds": 7298,
      "bags": 7299,
      "ci": 7300,
      "cro": 7301,
      "cod": 7302,
      "circ": 7303,
      "cession": 7304,
      "cards": 7305,
      "ecut": 7306,
      "evil": 7307,
      "fl": 7308,
      "fast": 7309,
      "gin": 7310,
      "ged": 7311,
      "gear": 7312,
      "gent": 7313,
      "gling": 7314,
      "gles": 7315,
      "hio": 7316,
      "hroom": 7317,
      "hats": 7318,
      "iach": 7319,
      "ifor": 7320,
      "iator": 7321,
      "jump": 7322,
      "jab": 7323,
      "lin": 7324,
      "lan": 7325,
      "mic": 7326,
      "mut": 7327,
      "mother": 7328,
      "nce": 7329,
      "nast": 7330,
      "nia": 7331,
      "nets": 7332,
      "ole": 7333,
      "ola": 7334,
      "onding": 7335,
      "olate": 7336,
      "pad": 7337,
      "press": 7338,
      "rd": 7339,
      "ran": 7340,
      "ration": 7341,
      "rical": 7342,
      "son": 7343,
      "sks": 7344,
      "shing": 7345,
      "shes": 7346,
      "smith": 7347,
      "tis": 7348,
      "tch": 7349,
      "tling": 7350,
      "tation": 7351,
      "ux": 7352,
      "uis": 7353,
      "uild": 7354,
      "ugging": 7355,
      "vin": 7356,
      "vening": 7357,
      "vous": 7358,
      "was": 7359,
      "welling": 7360,
      "water": 7361,
      "writ": 7362,
      "xiously": 7363,
      "yl": 7364,
      "Ġ7": 7365,
      "Ġir": 7366,
      "ĠPeople": 7367,
      "ĠYoung": 7368,
      "Ġab": 7369,
      "Ġawn": 7370,
      "Ġage": 7371,
      "Ġawe": 7372,
      "Ġaerial": 7373,
      "Ġawning": 7374,
      "inj": 7375,
      "inting": 7376,
      "intend": 7377,
      "Ġswo": 7378,
      "Ġsed": 7379,
      "Ġsuch": 7380,
      "Ġsalm": 7381,
      "Ġsips": 7382,
      "Ġsipping": 7383,
      "Ġself": 7384,
      "Ġsuds": 7385,
      "Ġsari": 7386,
      "Ġsizes": 7387,
      "Ġwit": 7388,
      "Ġwield": 7389,
      "Ġwade": 7390,
      "Ġwrong": 7391,
      "Ġtv": 7392,
      "Ġtul": 7393,
      "Ġtrough": 7394,
      "Ġtelling": 7395,
      "Ġtells": 7396,
      "Ġtesting": 7397,
      "Ġtimber": 7398,
      "Ġoll": 7399,
      "Ġolymp": 7400,
      "anitor": 7401,
      "Ġbom": 7402,
      "Ġbest": 7403,
      "Ġbunk": 7404,
      "hel": 7405,
      "hen": 7406,
      "here": 7407,
      "rep": 7408,
      "reading": 7409,
      "reached": 7410,
      "Ġink": 7411,
      "Ġinse": 7412,
      "Ġinstruction": 7413,
      "Ġinde": 7414,
      "Ġinvest": 7415,
      "itation": 7416,
      "itual": 7417,
      "itude": 7418,
      "Ġpand": 7419,
      "Ġpear": 7420,
      "Ġpel": 7421,
      "Ġplow": 7422,
      "Ġpep": 7423,
      "Ġpud": 7424,
      "Ġmight": 7425,
      "Ġmate": 7426,
      "Ġmist": 7427,
      "eran": 7428,
      "eramic": 7429,
      "erlin": 7430,
      "Ġcoun": 7431,
      "Ġcors": 7432,
      "Ġcust": 7433,
      "Ġcert": 7434,
      "Ġcush": 7435,
      "Ġcult": 7436,
      "Ġcages": 7437,
      "Ġceramic": 7438,
      "lease": 7439,
      "ism": 7440,
      "ishing": 7441,
      "isha": 7442,
      "iskly": 7443,
      "rot": 7444,
      "roning": 7445,
      "rofo": 7446,
      "Ġglow": 7447,
      "Ġgay": 7448,
      "Ġglit": 7449,
      "Ġgoof": 7450,
      "Ġgifts": 7451,
      "Ġhuts": 7452,
      "Ġhalloween": 7453,
      "Ġhuddling": 7454,
      "Ġdand": 7455,
      "Ġdent": 7456,
      "Ġdren": 7457,
      "Ġduff": 7458,
      "Ġdalm": 7459,
      "Ġdorm": 7460,
      "Ġducking": 7461,
      "Ġdarts": 7462,
      "Ġditch": 7463,
      "Ġdwelling": 7464,
      "Ġfal": 7465,
      "Ġful": 7466,
      "Ġfling": 7467,
      "Ġfist": 7468,
      "Ġfier": 7469,
      "lagers": 7470,
      "laden": 7471,
      "irking": 7472,
      "att": 7473,
      "atman": 7474,
      "enaissance": 7475,
      "Ġmanic": 7476,
      "Ġmanual": 7477,
      "Ġmanhole": 7478,
      "omas": 7479,
      "Ġstet": 7480,
      "Ġstates": 7481,
      "Ġstony": 7482,
      "Ġstudy": 7483,
      "cker": 7484,
      "ckled": 7485,
      "lope": 7486,
      "looks": 7487,
      "locked": 7488,
      "oring": 7489,
      "orter": 7490,
      "unt": 7491,
      "unity": 7492,
      "unny": 7493,
      "Ġtoen": 7494,
      "Ġtook": 7495,
      "Ġtobac": 7496,
      "iders": 7497,
      "iderman": 7498,
      "Ġshit": 7499,
      "Ġshri": 7500,
      "Ġshading": 7501,
      "Ġshamp": 7502,
      "Ġdoc": 7503,
      "Ġdojo": 7504,
      "Ġdozen": 7505,
      "andom": 7506,
      "rouch": 7507,
      "rad": 7508,
      "rain": 7509,
      "earing": 7510,
      "ssy": 7511,
      "ico": 7512,
      "icles": 7513,
      "icapped": 7514,
      "Ġboa": 7515,
      "Ġboating": 7516,
      "utist": 7517,
      "Ġyet": 7518,
      "Ġrect": 7519,
      "Ġresc": 7520,
      "Ġrena": 7521,
      "Ġreviewing": 7522,
      "Ġplayhouse": 7523,
      "Ġlin": 7524,
      "ersault": 7525,
      "Ġank": 7526,
      "Ġsitu": 7527,
      "Ġrul": 7528,
      "Ġrig": 7529,
      "Ġrise": 7530,
      "Ġrises": 7531,
      "Ġritual": 7532,
      "sta": 7533,
      "stal": 7534,
      "stress": 7535,
      "step": 7536,
      "stairs": 7537,
      "ury": 7538,
      "geous": 7539,
      "Ġnow": 7540,
      "Ġninj": 7541,
      "Ġjug": 7542,
      "Ġjars": 7543,
      "Ġjunk": 7544,
      "Ġjazz": 7545,
      "Ġloop": 7546,
      "Ġloll": 7547,
      "Ġloung": 7548,
      "Ġloaf": 7549,
      "Ġholing": 7550,
      "Ġhoses": 7551,
      "Ġchart": 7552,
      "Ġchalle": 7553,
      "Ġchallenge": 7554,
      "Ġbay": 7555,
      "irline": 7556,
      "Ġcoin": 7557,
      "Ġyoungsters": 7558,
      "uma": 7559,
      "umes": 7560,
      "ummer": 7561,
      "Ġwallet": 7562,
      "Ġfrosting": 7563,
      "Ġoutcro": 7564,
      "Ġblacktop": 7565,
      "Ġblacksmith": 7566,
      "Ġbee": 7567,
      "Ġbead": 7568,
      "Ġbeans": 7569,
      "Ġbeats": 7570,
      "Ġbeagle": 7571,
      "ili": 7572,
      "ilight": 7573,
      "ilies": 7574,
      "Ġthrew": 7575,
      "ams": 7576,
      "amar": 7577,
      "Ġeg": 7578,
      "Ġeurope": 7579,
      "verage": 7580,
      "Ġmenus": 7581,
      "ups": 7582,
      "rior": 7583,
      "Ġrose": 7584,
      "Ġrods": 7585,
      "Ġstrewn": 7586,
      "Ġstreaks": 7587,
      "Ġgrouped": 7588,
      "Ġstreetlights": 7589,
      "oos": 7590,
      "iments": 7591,
      "Ġlat": 7592,
      "Ġladle": 7593,
      "Ġlaunch": 7594,
      "Ġsmirking": 7595,
      "Ġtasks": 7596,
      "ulance": 7597,
      "Ġhedge": 7598,
      "enter": 7599,
      "ason": 7600,
      "asking": 7601,
      "Ġwaterpro": 7602,
      "ctic": 7603,
      "achsh": 7604,
      "achio": 7605,
      "Ġpouting": 7606,
      "Ġpoker": 7607,
      "ains": 7608,
      "aining": 7609,
      "Ġforce": 7610,
      "Ġforrest": 7611,
      "Ġsomersault": 7612,
      "Ġups": 7613,
      "Ġuphill": 7614,
      "Ġupcoming": 7615,
      "Ġrapp": 7616,
      "Ġrakes": 7617,
      "Ġragged": 7618,
      "semble": 7619,
      "Ġbackhand": 7620,
      "reds": 7621,
      "Ġneat": 7622,
      "Ġneeds": 7623,
      "Ġswer": 7624,
      "apple": 7625,
      "Ġsket": 7626,
      "Ġhate": 7627,
      "Ġhatted": 7628,
      "Ġsnar": 7629,
      "formers": 7630,
      "tock": 7631,
      "Ġled": 7632,
      "Ġlei": 7633,
      "Ġleis": 7634,
      "Ġvers": 7635,
      "Ġvine": 7636,
      "Ġvivid": 7637,
      "Ġsnows": 7638,
      "Ġsnowbank": 7639,
      "lywood": 7640,
      "Ġspout": 7641,
      "Ġspits": 7642,
      "Ġspilled": 7643,
      "Ġsponge": 7644,
      "Ġspiking": 7645,
      "Ġspreading": 7646,
      "Ġoverall": 7647,
      "Ġoverpa": 7648,
      "Ġoverlooks": 7649,
      "Ġtrap": 7650,
      "yclo": 7651,
      "ember": 7652,
      "urely": 7653,
      "Ġmac": 7654,
      "Ġhandful": 7655,
      "Ġhandker": 7656,
      "Ġhandmade": 7657,
      "Ġsock": 7658,
      "Ġsoon": 7659,
      "boarders": 7660,
      "ĠAla": 7661,
      "ĠAir": 7662,
      "Ġtends": 7663,
      "dyed": 7664,
      "Ġwaking": 7665,
      "Ġwaff": 7666,
      "Ġsecu": 7667,
      "Ġsexy": 7668,
      "Ġoffers": 7669,
      "Ġpaw": 7670,
      "Ġpace": 7671,
      "Ġpaying": 7672,
      "Ġpaving": 7673,
      "Ġpause": 7674,
      "Ġpages": 7675,
      "Ġcamcord": 7676,
      "isters": 7677,
      "Ġmob": 7678,
      "Ġmock": 7679,
      "Ġmoon": 7680,
      "Ġmoved": 7681,
      "Ġgoers": 7682,
      "Ġargu": 7683,
      "Ġarranged": 7684,
      "Ġfacade": 7685,
      "Ġblown": 7686,
      "Ġsunhats": 7687,
      "ipop": 7688,
      "ipers": 7689,
      "llister": 7690,
      "teen": 7691,
      "shot": 7692,
      "Ġunc": 7693,
      "Ġunice": 7694,
      "Ġunison": 7695,
      "undreds": 7696,
      "Ġparka": 7697,
      "Ġclip": 7698,
      "Ġheadgear": 7699,
      "Ġdrunk": 7700,
      "Ġparlor": 7701,
      "Ġhairnet": 7702,
      "doors": 7703,
      "Ġwoodworking": 7704,
      "Ġguest": 7705,
      "antage": 7706,
      "antically": 7707,
      "Ġpharm": 7708,
      "Ġwalker": 7709,
      "Ġwalkie": 7710,
      "Ġblonds": 7711,
      "Ġcolon": 7712,
      "Ġadding": 7713,
      "orean": 7714,
      "ournal": 7715,
      "quely": 7716,
      "Ġuniquely": 7717,
      "Ġthemed": 7718,
      "Ġsands": 7719,
      "Ġsandpit": 7720,
      "Ġpregn": 7721,
      "Ġchew": 7722,
      "Ġcheers": 7723,
      "Ġbriskly": 7724,
      "Ġunderway": 7725,
      "estyle": 7726,
      "merized": 7727,
      "Ġprogra": 7728,
      "Ġproper": 7729,
      "Ġprocession": 7730,
      "Ġflotation": 7731,
      "Ġwaited": 7732,
      "Ġtanned": 7733,
      "Ġhawk": 7734,
      "Ġenforcement": 7735,
      "Ġfootprin": 7736,
      "agers": 7737,
      "Ġtrio": 7738,
      "Ġtrips": 7739,
      "Ġflights": 7740,
      "Ġfliers": 7741,
      "Ġsignal": 7742,
      "Ġdarkly": 7743,
      "Ġdarkness": 7744,
      "Ġmushroom": 7745,
      "mploy": 7746,
      "Ġattired": 7747,
      "Ġattaches": 7748,
      "Ġveil": 7749,
      "pleted": 7750,
      "Ġspec": 7751,
      "Ġspeakers": 7752,
      "ĠCl": 7753,
      "ĠCent": 7754,
      "ĠCap": 7755,
      "ĠConey": 7756,
      "Ġgrounds": 7757,
      "Ġwinded": 7758,
      "Ġwhose": 7759,
      "Ġdealer": 7760,
      "Ġbarbie": 7761,
      "ĠSm": 7762,
      "ĠSte": 7763,
      "ĠSco": 7764,
      "ĠSouth": 7765,
      "Ġopin": 7766,
      "Ġexit": 7767,
      "Ġexpla": 7768,
      "Ġexecut": 7769,
      "Ġshelf": 7770,
      "Ġcact": 7771,
      "Ġcakes": 7772,
      "ived": 7773,
      "Ġmarks": 7774,
      "Ġmarina": 7775,
      "Ġfists": 7776,
      "Younger": 7777,
      "Ġwheat": 7778,
      "Ġtrek": 7779,
      "Ġtreats": 7780,
      "Ġagility": 7781,
      "Ġpastor": 7782,
      "Ġpastel": 7783,
      "Ġobsc": 7784,
      "aki": 7785,
      "Ġitself": 7786,
      "Ġcapt": 7787,
      "Ġcapes": 7788,
      "Ġcaptain": 7789,
      "Ġcaptured": 7790,
      "Ġappre": 7791,
      "Ġappla": 7792,
      "Ġsaf": 7793,
      "Ġsave": 7794,
      "Ġsafe": 7795,
      "Ġsauna": 7796,
      "Ġoutfielder": 7797,
      "Ġcanes": 7798,
      "Ġcanned": 7799,
      "Ġcanister": 7800,
      "Ġrestaurants": 7801,
      "Ġsticker": 7802,
      "Ġbowed": 7803,
      "Ġhighly": 7804,
      "iod": 7805,
      "Ġdries": 7806,
      "Ġdried": 7807,
      "Ġdriven": 7808,
      "Ġliberty": 7809,
      "Ġdesolate": 7810,
      "ortment": 7811,
      "ortunity": 7812,
      "Ġbears": 7813,
      "Ġcleats": 7814,
      "Ġgrid": 7815,
      "Ġfeed": 7816,
      "Ġfeeds": 7817,
      "ronaut": 7818,
      "odgers": 7819,
      "Ġbatons": 7820,
      "Ġbathed": 7821,
      "Ġbattling": 7822,
      "aced": 7823,
      "acas": 7824,
      "acular": 7825,
      "Ġkicker": 7826,
      "ĠMr": 7827,
      "ĠMad": 7828,
      "ĠMets": 7829,
      "screen": 7830,
      "Chinese": 7831,
      "izer": 7832,
      "Ġalp": 7833,
      "Ġalign": 7834,
      "Ġalike": 7835,
      "Ġalumin": 7836,
      "Ġcreative": 7837,
      "Ġcorral": 7838,
      "Ġcords": 7839,
      "Ġcorrid": 7840,
      "Ġmeals": 7841,
      "ĠFla": 7842,
      "ĠFather": 7843,
      "ĠFord": 7844,
      "ĠFrench": 7845,
      "ĠBe": 7846,
      "ĠBus": 7847,
      "ĠBull": 7848,
      "ĠBerlin": 7849,
      "ĠBatman": 7850,
      "Ġtrink": 7851,
      "Ġplugging": 7852,
      "Ġcounty": 7853,
      "erees": 7854,
      "Ġwheeling": 7855,
      "ymnast": 7856,
      "Ġhijab": 7857,
      "Ġfris": 7858,
      "Ġcracks": 7859,
      "Ġshake": 7860,
      "Ġrainstorm": 7861,
      "Ġpointy": 7862,
      "Ġjogger": 7863,
      "Ġhitch": 7864,
      "Ġelementary": 7865,
      "Ġwelds": 7866,
      "Ġfriendly": 7867,
      "Ġlottery": 7868,
      "Ġbeautifully": 7869,
      "Ġtakeout": 7870,
      "Ġcontin": 7871,
      "Ġcontent": 7872,
      "Ġfilms": 7873,
      "Ġpatches": 7874,
      "Ġpatrol": 7875,
      "ĠTo": 7876,
      "ĠToy": 7877,
      "ĠTye": 7878,
      "Ġstrobe": 7879,
      "ĠIn": 7880,
      "Ġcurling": 7881,
      "Ġconcession": 7882,
      "hoops": 7883,
      "hoscope": 7884,
      "Ġbetter": 7885,
      "Ġnumbered": 7886,
      "psy": 7887,
      "Ġopportunity": 7888,
      "Ġstatute": 7889,
      "Ġviews": 7890,
      "Ġequipped": 7891,
      "Ġkissed": 7892,
      "Ġdistorted": 7893,
      "Ġenter": 7894,
      "Ġenters": 7895,
      "Ġsquirt": 7896,
      "Ġsquinting": 7897,
      "Ġpicker": 7898,
      "Ġrailway": 7899,
      "Ġgarment": 7900,
      "Ġpitches": 7901,
      "Ġpitched": 7902,
      "ĠGo": 7903,
      "ĠGard": 7904,
      "ĠGap": 7905,
      "ĠGrouch": 7906,
      "ĠDS": 7907,
      "Ġearbuds": 7908,
      "ertips": 7909,
      "uffles": 7910,
      "Ġanimated": 7911,
      "Ġstraining": 7912,
      "climb": 7913,
      "ĠHispanic": 7914,
      "Ġaudio": 7915,
      "Ġindig": 7916,
      "Ġhappening": 7917,
      "Ġrooster": 7918,
      "Ġschoolgirl": 7919,
      "headed": 7920,
      "ĠPar": 7921,
      "ĠPizza": 7922,
      "Ġservices": 7923,
      "Ġcutoff": 7924,
      "ĠFrance": 7925,
      "ugby": 7926,
      "Ġinfants": 7927,
      "Ġrelated": 7928,
      "ĠEn": 7929,
      "ĠLa": 7930,
      "ĠLakers": 7931,
      "ĠNot": 7932,
      "ĠNintend": 7933,
      "Ġbanquet": 7934,
      "Ġlandsc": 7935,
      "Ġlandmark": 7936,
      "Ġelectrical": 7937,
      "Ġbreakfast": 7938,
      "Ġdirector": 7939,
      "Ġdirected": 7940,
      "Ġformations": 7941,
      "ĠOr": 7942,
      "ĠOri": 7943,
      "Ġknight": 7944,
      "Ġknives": 7945,
      "Ġknits": 7946,
      "Ġexposing": 7947,
      "Ġexpensive": 7948,
      "ĠRenaissance": 7949,
      "Ġbulls": 7950,
      "Ġquilt": 7951,
      "Ġonlooker": 7952,
      "Ġdigger": 7953,
      "Ġreport": 7954,
      "olog": 7955,
      "Ġresear": 7956,
      "Ġrespect": 7957,
      "Ġcollide": 7958,
      "Ġmonks": 7959,
      "Ġmonster": 7960,
      "Ġclaw": 7961,
      "Ġclams": 7962,
      "Ġhammers": 7963,
      "Ġrowers": 7964,
      "Ġsurfboards": 7965,
      "Ġliter": 7966,
      "Ġlittered": 7967,
      "Ġtrots": 7968,
      "Ġtuba": 7969,
      "Ġtowed": 7970,
      "Ġtowering": 7971,
      "Ġpartner": 7972,
      "Ġobserved": 7973,
      "Ġviolins": 7974,
      "ĠWii": 7975,
      "ĠWashington": 7976,
      "Ġintimate": 7977,
      "Ġmedia": 7978,
      "Ġmeditating": 7979,
      "Ġfingertips": 7980,
      "Ġurin": 7981,
      "Ġtalkie": 7982,
      "Ġcrouch": 7983,
      "Ġviolinist": 7984,
      "Ġmirrored": 7985,
      "ski": 7986,
      "Ġsleds": 7987,
      "Ġsledge": 7988,
      "Ġrefres": 7989,
      "Ġrefuge": 7990,
      "Ġreferees": 7991,
      "Ġstock": 7992,
      "Ġwrapping": 7993,
      "Ġshaded": 7994,
      "Ġends": 7995,
      "Ġinterior": 7996,
      "allet": 7997,
      "Ġelectrician": 7998,
      "Workmen": 7999,
      "Ġgolfer": 8000,
      "Ġparticipants": 8001,
      "Ġcoverings": 8002,
      "Ġpierced": 8003,
      "abil": 8004,
      "Ġbraces": 8005,
      "Ġsusp": 8006,
      "angular": 8007,
      "Ġmixes": 8008,
      "Ġmixed": 8009,
      "ultaneous": 8010,
      "Ġengages": 8011,
      "Ġassortment": 8012,
      "Ġpackages": 8013,
      "Ġprincess": 8014,
      "Ġfeatured": 8015,
      "Ġponders": 8016,
      "Ġpets": 8017,
      "Ġfinal": 8018,
      "Ġnapkin": 8019,
      "Ġseemingly": 8020,
      "ĠKorean": 8021,
      "Ġdunks": 8022,
      "Ġfestive": 8023,
      "Ġstreams": 8024,
      "Ġ14": 8025,
      "Ġhurdles": 8026,
      "Ġapproach": 8027,
      "Ġcontains": 8028,
      "pany": 8029,
      "Ġmustached": 8030,
      "Ġmustachio": 8031,
      "Ġexcav": 8032,
      "Ġcollected": 8033,
      "blader": 8034,
      "Ġkinds": 8035,
      "Ġfigur": 8036,
      "Ġprofessionally": 8037,
      "araoke": 8038,
      "Ġtiles": 8039,
      "Ġmopping": 8040,
      "rolled": 8041,
      "Ġsprinkling": 8042,
      "Ġsprinkles": 8043,
      "Ġsprinkled": 8044,
      "Ġironing": 8045,
      "Ġkeyboards": 8046,
      "Ġpanel": 8047,
      "apanese": 8048,
      "Ġtwent": 8049,
      "Ġtwigs": 8050,
      "Ġtwilight": 8051,
      "Ġdonuts": 8052,
      "Ġdustpan": 8053,
      "Ġlayered": 8054,
      "Ġsheepdog": 8055,
      "Ġpairs": 8056,
      "atown": 8057,
      "Ġpositions": 8058,
      "Ġvacant": 8059,
      "Ġamused": 8060,
      "Ġwildflowers": 8061,
      "Ġdiag": 8062,
      "Ġcampaign": 8063,
      "Ġshadowed": 8064,
      "Ġroute": 8065,
      "Ġsimultaneous": 8066,
      "Ġentertains": 8067,
      "Ġentertaining": 8068,
      "Ġentertained": 8069,
      "Ġentertainment": 8070,
      "Ġbouncer": 8071,
      "Ġbounces": 8072,
      "Ġbouncy": 8073,
      "Ġracquet": 8074,
      "Ġpeaceful": 8075,
      "Ġponytails": 8076,
      "Ġcereal": 8077,
      "Ġdreads": 8078,
      "Ġheartbeat": 8079,
      "Ġtrumpets": 8080,
      "Ġwarmly": 8081,
      "Ġdumps": 8082,
      "Ġfences": 8083,
      "gels": 8084,
      "Ġoutstreached": 8085,
      "Ġextra": 8086,
      "Ġprotesters": 8087,
      "ĠSpain": 8088,
      "Ġfocuses": 8089,
      "Ġapplied": 8090,
      "Ġdishwas": 8091,
      "Ġleafy": 8092,
      "Ġaquatic": 8093,
      "Ġrecently": 8094,
      "Chef": 8095,
      "Ġmaintain": 8096,
      "Ġfreeway": 8097,
      "Ġnursing": 8098,
      "Ġcobbled": 8099,
      "Ġtaxis": 8100,
      "Ġvillagers": 8101,
      "Ġspreads": 8102,
      "ĠCola": 8103,
      "ĠCoffee": 8104,
      "Ġcabinet": 8105,
      "ĠBMW": 8106,
      "Ġpatiently": 8107,
      "Ġtransporting": 8108,
      "Ġsupervis": 8109,
      "Ġblast": 8110,
      "Ġblade": 8111,
      "Ġpumpkins": 8112,
      "Ġcrocod": 8113,
      "Ġcrotch": 8114,
      "Ġrecords": 8115,
      "Ġballerinas": 8116,
      "Ġsparse": 8117,
      "Ġparasail": 8118,
      "Ġprotester": 8119,
      "Ġbagpipe": 8120,
      "Ġgrandda": 8121,
      "Ġgrandmother": 8122,
      "Ġcraftsman": 8123,
      "Ġvacuums": 8124,
      "Ġdefends": 8125,
      "Skier": 8126,
      "Ġregion": 8127,
      "Ġscoops": 8128,
      "Ġdecals": 8129,
      "ĠJoe": 8130,
      "Ġexplores": 8131,
      "Ġexplorer": 8132,
      "Ġexplosion": 8133,
      "Student": 8134,
      "Ġsimilarly": 8135,
      "Ġdemonstrates": 8136,
      "Dozens": 8137,
      "Ġtickets": 8138,
      "Ġbullet": 8139,
      "Ġpopping": 8140,
      "iction": 8141,
      "Ġorganized": 8142,
      "Ġinterested": 8143,
      "Ġpressing": 8144,
      "Ġpresses": 8145,
      "Ġgripping": 8146,
      "eteran": 8147,
      "Ġremove": 8148,
      "Ġremoves": 8149,
      "Ġremoved": 8150,
      "Ġpoorly": 8151,
      "Ġtechnic": 8152,
      "Ġdescri": 8153,
      "Ġtricycles": 8154,
      "Ġcrashes": 8155,
      "Ġcrashed": 8156,
      "Ġscreams": 8157,
      "Ġcongregating": 8158,
      "Ġcongregated": 8159,
      "Ġsnowshoe": 8160,
      "Firetrucks": 8161,
      "namese": 8162,
      "Ġstyl": 8163,
      "Ġnavigating": 8164,
      "Ġleotards": 8165,
      "Ġsolar": 8166,
      "Ġsolider": 8167,
      "Ġtexas": 8168,
      "Ġenthusiasm": 8169,
      "Ġportraits": 8170,
      "Ġpowered": 8171,
      "Ġreluct": 8172,
      "Ġrecliner": 8173,
      "Ġblurry": 8174,
      "Ġselection": 8175,
      "Ġbriefs": 8176,
      "Ġadvantage": 8177,
      "Ġdescends": 8178,
      "Ġawaits": 8179,
      "Teenagers": 8180,
      "Ġtemporary": 8181,
      "Ġinformal": 8182,
      "Ġpowerpoint": 8183,
      "Ġhomes": 8184,
      "Ġfitness": 8185,
      "Ġpockets": 8186,
      "Ġunusually": 8187,
      "Ġelevator": 8188,
      "Ġpotatoes": 8189,
      "Ġnotebooks": 8190,
      "Ġimpro": 8191,
      "Ġretriever": 8192,
      "Ġtuxedos": 8193,
      "Ġaccompanies": 8194,
      "ĠAngels": 8195,
      "Ġtutus": 8196,
      "Ġgeese": 8197,
      "Ġgeomet": 8198,
      "Ġgeisha": 8199,
      "Ġdiverse": 8200,
      "Ġfatig": 8201,
      "Ġmaneuver": 8202,
      "Ġmaneuvers": 8203,
      "Ġmaneuvering": 8204,
      "Ġcharging": 8205,
      "Ġcameramen": 8206,
      "ĠSquarePants": 8207,
      "Ġbutchering": 8208,
      "Ġtwirls": 8209,
      "rised": 8210,
      "Ġsamura": 8211,
      "Ġeverywhere": 8212,
      "Ġlatex": 8213,
      "Ġgraduate": 8214,
      "Ġforklift": 8215,
      "Ġsweet": 8216,
      "Ġsweating": 8217,
      "Ġsparkler": 8218,
      "Ġsparklers": 8219,
      "Ġtextile": 8220,
      "Ġarrival": 8221,
      "Ġspectacular": 8222,
      "Ġshelter": 8223,
      "Ġflamboy": 8224,
      "ĠMexico": 8225,
      "Ġsleigh": 8226,
      "Ġferry": 8227,
      "Ġtoilets": 8228,
      "Ġshielding": 8229,
      "Ġyears": 8230,
      "Ġtasty": 8231,
      "Ġfortune": 8232,
      "Ġpropane": 8233,
      "Ġflashlight": 8234,
      "Ġturtleneck": 8235,
      "ĠTeam": 8236,
      "ĠIsland": 8237,
      "ĠHollister": 8238,
      "ĠEaster": 8239,
      "Ġextends": 8240,
      "Ġlassoing": 8241,
      "Ġmannequins": 8242,
      "Commut": 8243,
      "Ġsippy": 8244,
      "Ġbumper": 8245,
      "Ġmesmerized": 8246,
      "Ġreleased": 8247,
      "Ġlaunches": 8248,
      "Ġlaunching": 8249,
      "Ġsprints": 8250,
      "Ġmosque": 8251,
      "Ġmosaic": 8252,
      "Ġwindsurf": 8253,
      "Ġwristband": 8254,
      "Ġvideotapes": 8255,
      "Ġextreme": 8256,
      "Ġholidays": 8257,
      "Fisherman": 8258,
      "Fishermen": 8259,
      "Ġaffection": 8260,
      "Ġsuite": 8261,
      "Ġwonder": 8262,
      "Ġbordering": 8263,
      "Ġinnertub": 8264,
      "Ġcycles": 8265,
      "Ġcrystal": 8266,
      "Ġresponding": 8267,
      "Ġripp": 8268,
      "Ġripped": 8269,
      "Ġnoodle": 8270,
      "Ġnoodles": 8271,
      "Ġneeded": 8272,
      "Ġskillfully": 8273,
      "ĠArabic": 8274,
      "Ġaddressing": 8275,
      "Ġaddresses": 8276,
      "Ġflooded": 8277,
      "Ġenclosed": 8278,
      "Ġenclosure": 8279,
      "Ġbarricades": 8280,
      "Ġlivestock": 8281,
      "Ġhamburger": 8282,
      "Ġhamburgers": 8283,
      "Ġpiercings": 8284,
      "Ġzombies": 8285,
      "Ġzombie": 8286,
      "Ġornament": 8287,
      "Ġadventure": 8288,
      "Ġponcho": 8289,
      "Ġponchos": 8290,
      "Ġproudly": 8291,
      "Excited": 8292,
      "Overhead": 8293,
      "Sports": 8294,
      "Skiers": 8295,
      "Snowboarder": 8296,
      "aeolog": 8297,
      "clad": 8298,
      "ĠQu": 8299,
      "Ġastronaut": 8300,
      "Ġbordered": 8301,
      "Ġpleasant": 8302,
      "Ġgypsy": 8303,
      "Ġgrowing": 8304,
      "Ġfamilies": 8305,
      "Ġfleece": 8306,
      "Ġstaying": 8307,
      "Ġstained": 8308,
      "Ġyawning": 8309,
      "Ġanswers": 8310,
      "Ġnibbling": 8311,
      "Ġnatural": 8312,
      "Ġecst": 8313,
      "Ġemotion": 8314,
      "Ġspiral": 8315,
      "Ġjackhammer": 8316,
      "Ġseamstress": 8317,
      "Ġblossoming": 8318,
      "Ġclerk": 8319,
      "Ġprevent": 8320,
      "Ġpretends": 8321,
      "Ġprovide": 8322,
      "ĠCompany": 8323,
      "Ġcaptures": 8324,
      "Ġamazing": 8325,
      "Ġturbans": 8326,
      "Ġprayer": 8327,
      "Ġpatriotic": 8328,
      "ĠItalian": 8329,
      "Ġrepresenting": 8330,
      "Ġsaxophones": 8331,
      "Athletes": 8332,
      "Ġfingernail": 8333,
      "Ġadmires": 8334,
      "Soldiers": 8335,
      "Ġdepicting": 8336,
      "Ġstrumming": 8337,
      "Ġtambourine": 8338,
      "Dressed": 8339,
      "Gentleman": 8340,
      "Pitcher": 8341,
      "woman": 8342,
      "ximately": 8343,
      "Ġslowly": 8344,
      "Ġtethered": 8345,
      "Ġtrouble": 8346,
      "Ġgorgeous": 8347,
      "Ġhonor": 8348,
      "Ġdugout": 8349,
      "Ġllama": 8350,
      "Ġlimo": 8351,
      "Ġbaggage": 8352,
      "Ġlakeside": 8353,
      "keeper": 8354,
      "Ġhealthcare": 8355,
      "Ġgraphic": 8356,
      "Ġashore": 8357,
      "Ġvigorously": 8358,
      "Ġsnowfla": 8359,
      "Ġmachete": 8360,
      "ĠAutumn": 8361,
      "ĠAfrica": 8362,
      "Ġgovernment": 8363,
      "Ġuncompleted": 8364,
      "Ġpursued": 8365,
      "ĠSUV": 8366,
      "ĠMonopoly": 8367,
      "Ġcountertop": 8368,
      "Ġscrewdriver": 8369,
      "Ġprimitive": 8370,
      "Ġgrimacing": 8371,
      "Ġpruning": 8372,
      "Ġhandlebars": 8373,
      "Ġassembly": 8374,
      "Ġutensils": 8375,
      "Ġsatchel": 8376,
      "Colorful": 8377,
      "Individuals": 8378,
      "Ġrehearsing": 8379,
      "Ġminiskirt": 8380,
      "Ġmetropolitan": 8381,
      "Ethnic": 8382,
      "Homeless": 8383,
      "Sitting": 8384,
      "Twelve": 8385,
      "ailed": 8386,
      "iachi": 8387,
      "ifornia": 8388,
      "Ġawnings": 8389,
      "Ġsalmon": 8390,
      "Ġtulips": 8391,
      "Ġollie": 8392,
      "Ġindex": 8393,
      "Ġinvestig": 8394,
      "Ġpanda": 8395,
      "Ġcushion": 8396,
      "rofoam": 8397,
      "Ġdandel": 8398,
      "Ġdentist": 8399,
      "Ġdrenched": 8400,
      "Ġduffel": 8401,
      "Ġfully": 8402,
      "Ġstethoscope": 8403,
      "Ġtobacco": 8404,
      "Ġshrimp": 8405,
      "Ġshampoo": 8406,
      "Ġrectangular": 8407,
      "Ġrenaissance": 8408,
      "Ġruler": 8409,
      "Ġlollipop": 8410,
      "Ġlounges": 8411,
      "Ġchalleng": 8412,
      "Ġoutcropping": 8413,
      "Ġwaterproof": 8414,
      "Ġrappelling": 8415,
      "Ġoverpass": 8416,
      "Ġhandkerchief": 8417,
      "Ġsecured": 8418,
      "Ġcamcorder": 8419,
      "Ġarguing": 8420,
      "Ġunicef": 8421,
      "Ġpregnant": 8422,
      "Ġfootprints": 8423,
      "Ġaluminum": 8424,
      "Ġcorridor": 8425,
      "ĠNintendo": 8426,
      "Ġrefreshing": 8427,
      "Ġmustachioed": 8428,
      "Ġdishwasher": 8429,
      "Ġcrocodile": 8430,
      "Ġgranddaughter": 8431,
      "Ġgeometric": 8432,
      "Ġsamurai": 8433,
      "11": 8434,
      "AH": 8435,
      "AL": 8436,
      "AM": 8437,
      "AR": 8438,
      "Ac": 8439,
      "Af": 8440,
      "Am": 8441,
      "All": 8442,
      "Amp": 8443,
      "BA": 8444,
      "Bl": 8445,
      "Bar": 8446,
      "Bal": 8447,
      "Bla": 8448,
      "Bes": 8449,
      "Bare": 8450,
      "Bron": 8451,
      "Bird": 8452,
      "Bright": 8453,
      "CU": 8454,
      "Camp": 8455,
      "Cooks": 8456,
      "Din": 8457,
      "Deli": 8458,
      "EN": 8459,
      "EP": 8460,
      "ER": 8461,
      "Every": 8462,
      "Eastern": 8463,
      "EGO": 8464,
      "Evening": 8465,
      "Employ": 8466,
      "FC": 8467,
      "Fr": 8468,
      "Fat": 8469,
      "Free": 8470,
      "Fans": 8471,
      "Fast": 8472,
      "GA": 8473,
      "Good": 8474,
      "Glass": 8475,
      "Greyhound": 8476,
      "Gymnast": 8477,
      "HO": 8478,
      "Ho": 8479,
      "Hors": 8480,
      "IS": 8481,
      "Jim": 8482,
      "Jockey": 8483,
      "KE": 8484,
      "Ken": 8485,
      "La": 8486,
      "Law": 8487,
      "Life": 8488,
      "ME": 8489,
      "Mom": 8490,
      "Med": 8491,
      "Main": 8492,
      "Muzz": 8493,
      "Mex": 8494,
      "Most": 8495,
      "Nur": 8496,
      "OME": 8497,
      "Pilot": 8498,
      "Paint": 8499,
      "Re": 8500,
      "Ri": 8501,
      "Row": 8502,
      "Rep": 8503,
      "Rail": 8504,
      "Rider": 8505,
      "Read": 8506,
      "Rugby": 8507,
      "Sun": 8508,
      "Side": 8509,
      "Sur": 8510,
      "Ste": 8511,
      "Sveral": 8512,
      "Sub": 8513,
      "Seat": 8514,
      "Sled": 8515,
      "Santa": 8516,
      "Ter": 8517,
      "Top": 8518,
      "Tall": 8519,
      "US": 8520,
      "Vi": 8521,
      "Very": 8522,
      "Wor": 8523,
      "Walk": 8524,
      "Well": 8525,
      "Water": 8526,
      "WAT": 8527,
      "XX": 8528,
      "aver": 8529,
      "akes": 8530,
      "action": 8531,
      "aired": 8532,
      "actory": 8533,
      "blo": 8534,
      "bum": 8535,
      "bard": 8536,
      "brow": 8537,
      "bling": 8538,
      "biling": 8539,
      "bors": 8540,
      "bust": 8541,
      "bird": 8542,
      "bike": 8543,
      "bread": 8544,
      "brimmed": 8545,
      "block": 8546,
      "build": 8547,
      "bulance": 8548,
      "cis": 8549,
      "cred": 8550,
      "class": 8551,
      "cell": 8552,
      "cons": 8553,
      "ccas": 8554,
      "das": 8555,
      "dist": 8556,
      "dies": 8557,
      "dging": 8558,
      "dlers": 8559,
      "elo": 8560,
      "eers": 8561,
      "ehic": 8562,
      "fir": 8563,
      "file": 8564,
      "free": 8565,
      "five": 8566,
      "father": 8567,
      "fring": 8568,
      "fighting": 8569,
      "ffort": 8570,
      "gen": 8571,
      "gun": 8572,
      "got": 8573,
      "gie": 8574,
      "gway": 8575,
      "game": 8576,
      "gant": 8577,
      "gons": 8578,
      "golf": 8579,
      "hin": 8580,
      "how": 8581,
      "hist": 8582,
      "hiking": 8583,
      "horse": 8584,
      "ibb": 8585,
      "iki": 8586,
      "jack": 8587,
      "kart": 8588,
      "lly": 8589,
      "liv": 8590,
      "lits": 8591,
      "lanta": 8592,
      "lifier": 8593,
      "mar": 8594,
      "main": 8595,
      "mig": 8596,
      "mped": 8597,
      "mates": 8598,
      "mong": 8599,
      "mined": 8600,
      "mallow": 8601,
      "mused": 8602,
      "mmage": 8603,
      "nas": 8604,
      "nches": 8605,
      "naked": 8606,
      "national": 8607,
      "oice": 8608,
      "oons": 8609,
      "oopy": 8610,
      "pri": 8611,
      "pard": 8612,
      "ply": 8613,
      "pool": 8614,
      "pants": 8615,
      "phed": 8616,
      "plane": 8617,
      "poms": 8618,
      "prised": 8619,
      "run": 8620,
      "rup": 8621,
      "rine": 8622,
      "rill": 8623,
      "sue": 8624,
      "tw": 8625,
      "tra": 8626,
      "tying": 8627,
      "tage": 8628,
      "tter": 8629,
      "tops": 8630,
      "tti": 8631,
      "take": 8632,
      "tuce": 8633,
      "tailed": 8634,
      "tlanta": 8635,
      "uy": 8636,
      "uing": 8637,
      "ulo": 8638,
      "ued": 8639,
      "uve": 8640,
      "uage": 8641,
      "ucer": 8642,
      "uish": 8643,
      "urous": 8644,
      "vre": 8645,
      "vate": 8646,
      "vation": 8647,
      "wan": 8648,
      "won": 8649,
      "wall": 8650,
      "wister": 8651,
      "walks": 8652,
      "xican": 8653,
      "xford": 8654,
      "yan": 8655,
      "yor": 8656,
      "yellow": 8657,
      "ythe": 8658,
      "zag": 8659,
      "zels": 8660,
      "Ġ%": 8661,
      "Ġ)": 8662,
      "Ġ.": 8663,
      "Ġlack": 8664,
      "Ġig": 8665,
      "Ġign": 8666,
      "ĠWoman": 8667,
      "ĠMen": 8668,
      "Ġaer": 8669,
      "Ġaside": 8670,
      "Ġauth": 8671,
      "Ġabs": 8672,
      "Ġawk": 8673,
      "Ġaverage": 8674,
      "inar": 8675,
      "insing": 8676,
      "ingy": 8677,
      "Ġsick": 8678,
      "Ġsash": 8679,
      "Ġsush": 8680,
      "Ġsuck": 8681,
      "Ġsib": 8682,
      "Ġsamp": 8683,
      "Ġsucks": 8684,
      "Ġsize": 8685,
      "Ġsisters": 8686,
      "Ġwre": 8687,
      "Ġward": 8688,
      "Ġwants": 8689,
      "Ġwok": 8690,
      "Ġwou": 8691,
      "Ġwits": 8692,
      "Ġwrench": 8693,
      "Ġwanting": 8694,
      "Ġwestern": 8695,
      "Ġtress": 8696,
      "Ġtru": 8697,
      "Ġtell": 8698,
      "Ġtort": 8699,
      "Ġtests": 8700,
      "Ġtuck": 8701,
      "Ġtilts": 8702,
      "Ġtipping": 8703,
      "Ġtimes": 8704,
      "Ġtilted": 8705,
      "Ġtumble": 8706,
      "Ġori": 8707,
      "Ġoak": 8708,
      "Ġoars": 8709,
      "Ġowl": 8710,
      "Ġoxy": 8711,
      "Ġoccas": 8712,
      "ani": 8713,
      "anel": 8714,
      "anke": 8715,
      "angs": 8716,
      "anny": 8717,
      "ancy": 8718,
      "ancis": 8719,
      "Ġber": 8720,
      "Ġbree": 8721,
      "Ġbone": 8722,
      "Ġbist": 8723,
      "Ġbell": 8724,
      "Ġbins": 8725,
      "Ġbits": 8726,
      "Ġbinder": 8727,
      "hell": 8728,
      "heast": 8729,
      "heeled": 8730,
      "hetti": 8731,
      "reat": 8732,
      "ream": 8733,
      "rets": 8734,
      "rect": 8735,
      "resh": 8736,
      "rewing": 8737,
      "rected": 8738,
      "Ġinsp": 8739,
      "Ġinno": 8740,
      "iter": 8741,
      "itate": 8742,
      "itage": 8743,
      "itively": 8744,
      "itasking": 8745,
      "Ġpf": 8746,
      "Ġpal": 8747,
      "Ġpam": 8748,
      "Ġpred": 8749,
      "Ġpage": 8750,
      "Ġpiling": 8751,
      "Ġpies": 8752,
      "Ġpiz": 8753,
      "Ġpork": 8754,
      "Ġpeep": 8755,
      "Ġpuff": 8756,
      "Ġplywood": 8757,
      "Ġmoun": 8758,
      "Ġmoo": 8759,
      "Ġmood": 8760,
      "Ġmine": 8761,
      "Ġmath": 8762,
      "Ġmort": 8763,
      "Ġmime": 8764,
      "Ġmugs": 8765,
      "Ġmoose": 8766,
      "Ġmixture": 8767,
      "Ġmallet": 8768,
      "ero": 8769,
      "erts": 8770,
      "eries": 8771,
      "erior": 8772,
      "erchief": 8773,
      "Ġcad": 8774,
      "Ġcue": 8775,
      "Ġcrow": 8776,
      "Ġcale": 8777,
      "Ġcaged": 8778,
      "Ġcuc": 8779,
      "lein": 8780,
      "lear": 8781,
      "lech": 8782,
      "lets": 8783,
      "legged": 8784,
      "lementary": 8785,
      "lence": 8786,
      "lectic": 8787,
      "ishes": 8788,
      "rond": 8789,
      "roat": 8790,
      "robed": 8791,
      "rocs": 8792,
      "arting": 8793,
      "armer": 8794,
      "arms": 8795,
      "ndy": 8796,
      "ndar": 8797,
      "ndon": 8798,
      "Ġga": 8799,
      "Ġgen": 8800,
      "Ġgut": 8801,
      "Ġgam": 8802,
      "Ġgap": 8803,
      "Ġglowing": 8804,
      "Ġoncoming": 8805,
      "Ġhide": 8806,
      "Ġhump": 8807,
      "Ġhops": 8808,
      "Ġhides": 8809,
      "Ġhoping": 8810,
      "Ġhundreds": 8811,
      "Ġdj": 8812,
      "Ġdir": 8813,
      "Ġdid": 8814,
      "Ġdut": 8815,
      "Ġdie": 8816,
      "Ġdumb": 8817,
      "Ġdies": 8818,
      "Ġdaring": 8819,
      "Ġdivid": 8820,
      "Ġdental": 8821,
      "Ġdachsh": 8822,
      "Ġdingy": 8823,
      "Ġfu": 8824,
      "Ġfid": 8825,
      "Ġfra": 8826,
      "Ġfel": 8827,
      "Ġfund": 8828,
      "Ġfool": 8829,
      "Ġfixture": 8830,
      "alo": 8831,
      "alom": 8832,
      "alie": 8833,
      "lay": 8834,
      "lating": 8835,
      "laces": 8836,
      "lamic": 8837,
      "irrel": 8838,
      "atch": 8839,
      "atically": 8840,
      "enn": 8841,
      "enous": 8842,
      "enact": 8843,
      "Ġisle": 8844,
      "Ġissue": 8845,
      "Ġmane": 8846,
      "Ġmanu": 8847,
      "Ġmantle": 8848,
      "Ġmanure": 8849,
      "Ġmanage": 8850,
      "Ġmanip": 8851,
      "Ġmanner": 8852,
      "omy": 8853,
      "Ġstap": 8854,
      "Ġstem": 8855,
      "Ġstate": 8856,
      "Ġstarf": 8857,
      "Ġstout": 8858,
      "Ġstake": 8859,
      "Ġstumbling": 8860,
      "cken": 8861,
      "lon": 8862,
      "loo": 8863,
      "load": 8864,
      "love": 8865,
      "orld": 8866,
      "orugh": 8867,
      "orak": 8868,
      "lden": 8869,
      "unches": 8870,
      "unken": 8871,
      "esus": 8872,
      "esame": 8873,
      "essing": 8874,
      "esota": 8875,
      "Ġtoes": 8876,
      "Ġtoting": 8877,
      "Ġtoil": 8878,
      "Ġtoll": 8879,
      "Ġtote": 8880,
      "idence": 8881,
      "onry": 8882,
      "Ġshut": 8883,
      "Ġshine": 8884,
      "Ġshish": 8885,
      "Ġshined": 8886,
      "Ġshift": 8887,
      "Ġshuffles": 8888,
      "Ġshrine": 8889,
      "Ġdoo": 8890,
      "ands": 8891,
      "andy": 8892,
      "opper": 8893,
      "ras": 8894,
      "raul": 8895,
      "racted": 8896,
      "raised": 8897,
      "raiser": 8898,
      "edle": 8899,
      "sson": 8900,
      "hernal": 8901,
      "icha": 8902,
      "iches": 8903,
      "icult": 8904,
      "Ġbored": 8905,
      "Ġbonding": 8906,
      "Ġbodies": 8907,
      "Ġplaque": 8908,
      "Ġatm": 8909,
      "Ġatv": 8910,
      "Ġyells": 8911,
      "Ġrent": 8912,
      "Ġreco": 8913,
      "Ġreacting": 8914,
      "Ġreno": 8915,
      "Ġrelease": 8916,
      "Ġreason": 8917,
      "Ġreaction": 8918,
      "Ġreenact": 8919,
      "tingent": 8920,
      "Ġlang": 8921,
      "chie": 8922,
      "change": 8923,
      "ouncement": 8924,
      "erside": 8925,
      "Ġanticip": 8926,
      "Ġanxiously": 8927,
      "Ġanorak": 8928,
      "Ġsites": 8929,
      "Ġrat": 8930,
      "Ġrates": 8931,
      "Ġrather": 8932,
      "Ġrugg": 8933,
      "Ġrising": 8934,
      "Ġrushing": 8935,
      "Ġrinsing": 8936,
      "stle": 8937,
      "stop": 8938,
      "story": 8939,
      "urn": 8940,
      "urst": 8941,
      "urce": 8942,
      "urful": 8943,
      "urry": 8944,
      "urance": 8945,
      "geles": 8946,
      "Ġner": 8947,
      "Ġnon": 8948,
      "Ġnips": 8949,
      "Ġnuts": 8950,
      "Ġnames": 8951,
      "Ġnorm": 8952,
      "Ġnational": 8953,
      "Ġjoking": 8954,
      "Ġjets": 8955,
      "Ġjanitor": 8956,
      "Ġjournal": 8957,
      "Ġjapanese": 8958,
      "Ġloves": 8959,
      "Ġlocks": 8960,
      "Ġlovers": 8961,
      "Ġloses": 8962,
      "Ġlodge": 8963,
      "Ġlondon": 8964,
      "Ġhoe": 8965,
      "Ġhog": 8966,
      "Ġhoist": 8967,
      "Ġhokey": 8968,
      "Ġhovering": 8969,
      "Ġhousing": 8970,
      "Ġcha": 8971,
      "Ġchun": 8972,
      "Ġchim": 8973,
      "Ġchief": 8974,
      "Ġchili": 8975,
      "Ġbale": 8976,
      "Ġbaking": 8977,
      "Ġbake": 8978,
      "Ġbales": 8979,
      "Ġbaza": 8980,
      "Ġbagel": 8981,
      "Ġbaker": 8982,
      "Ġcob": 8983,
      "Ġcos": 8984,
      "Ġcola": 8985,
      "Ġcoke": 8986,
      "Ġcoached": 8987,
      "elp": 8988,
      "elting": 8989,
      "elve": 8990,
      "elled": 8991,
      "eliner": 8992,
      "uman": 8993,
      "uments": 8994,
      "umably": 8995,
      "ador": 8996,
      "aders": 8997,
      "addle": 8998,
      "otted": 8999,
      "Ġfrog": 9000,
      "Ġfronds": 9001,
      "Ġfrowning": 9002,
      "Ġfrothy": 9003,
      "Ġoutboard": 9004,
      "Ġblackboard": 9005,
      "Ġblues": 9006,
      "Ġbeaut": 9007,
      "Ġbeaker": 9008,
      "Ġbecome": 9009,
      "Ġbemused": 9010,
      "Ġwatered": 9011,
      "ilizing": 9012,
      "Ġthing": 9013,
      "Ġthong": 9014,
      "Ġthous": 9015,
      "Ġthroat": 9016,
      "Ġthorugh": 9017,
      "ceful": 9018,
      "amond": 9019,
      "Ġeuro": 9020,
      "Ġecc": 9021,
      "Ġeagle": 9022,
      "Ġeffort": 9023,
      "Ġerected": 9024,
      "uperman": 9025,
      "rible": 9026,
      "riff": 9027,
      "ricket": 9028,
      "riger": 9029,
      "rigu": 9030,
      "Ġrot": 9031,
      "Ġrole": 9032,
      "Ġroots": 9033,
      "arding": 9034,
      "ooby": 9035,
      "Ġdowning": 9036,
      "Ġdownward": 9037,
      "Ġdownwards": 9038,
      "vender": 9039,
      "velope": 9040,
      "veyor": 9041,
      "imore": 9042,
      "Ġlaw": 9043,
      "Ġlace": 9044,
      "Ġlater": 9045,
      "Ġlaps": 9046,
      "Ġlava": 9047,
      "Ġlavender": 9048,
      "owa": 9049,
      "Ġsmear": 9050,
      "Ġsmart": 9051,
      "Ġsmelling": 9052,
      "Ġherd": 9053,
      "Ġherbs": 9054,
      "Ġheritage": 9055,
      "Their": 9056,
      "Ġtaped": 9057,
      "Ġtaping": 9058,
      "kemp": 9059,
      "ulk": 9060,
      "ulture": 9061,
      "ressing": 9062,
      "Ġhero": 9063,
      "Ġheight": 9064,
      "Ġheron": 9065,
      "Ġhedges": 9066,
      "entric": 9067,
      "asy": 9068,
      "ases": 9069,
      "ashed": 9070,
      "ascar": 9071,
      "asaki": 9072,
      "Ġgrain": 9073,
      "Ġgrave": 9074,
      "Ġgraying": 9075,
      "Ġgrains": 9076,
      "Ġgraze": 9077,
      "Ġgrasps": 9078,
      "Ġwatery": 9079,
      "cturing": 9080,
      "ctural": 9081,
      "ioneer": 9082,
      "Ġkil": 9083,
      "Ġkill": 9084,
      "Ġkabo": 9085,
      "Ġkaraoke": 9086,
      "Ġkerchief": 9087,
      "Ġkelp": 9088,
      "Ġcarav": 9089,
      "Ġdressing": 9090,
      "Ġpout": 9091,
      "Ġpoll": 9092,
      "Ġpoult": 9093,
      "umped": 9094,
      "Ġupturned": 9095,
      "Ġupraised": 9096,
      "Ġasp": 9097,
      "Ġraw": 9098,
      "Ġrags": 9099,
      "Ġracks": 9100,
      "Ġraging": 9101,
      "sea": 9102,
      "Ġbug": 9103,
      "Ġbuck": 9104,
      "Ġbust": 9105,
      "Ġbucks": 9106,
      "Ġbuys": 9107,
      "Ġbucked": 9108,
      "Ġbacking": 9109,
      "Ġbacked": 9110,
      "Ġbackfl": 9111,
      "Ġworn": 9112,
      "Ġworsh": 9113,
      "Ġworried": 9114,
      "Ġnecks": 9115,
      "Ġgreenhouse": 9116,
      "Ġswirl": 9117,
      "Ġswallow": 9118,
      "Ġswung": 9119,
      "Ġswaddle": 9120,
      "aphernal": 9121,
      "Ġskit": 9122,
      "Ġskys": 9123,
      "Ġskinned": 9124,
      "Ġhatche": 9125,
      "Ġsnoo": 9126,
      "Ġsnail": 9127,
      "Ġsnugg": 9128,
      "Ġsnoopy": 9129,
      "former": 9130,
      "formal": 9131,
      "tore": 9132,
      "Ġbrook": 9133,
      "Ġbrocc": 9134,
      "oodle": 9135,
      "inding": 9136,
      "inders": 9137,
      "indeer": 9138,
      "Ġlets": 9139,
      "Ġleashed": 9140,
[...]
